{
  "version": "1.0",
  "truncation": null,
  "padding": null,
  "added_tokens": [
    {
      "id": 0,
      "content": "[PAD]",
      "single_word": false,
      "lstrip": false,
      "rstrip": false,
      "normalized": false,
      "special": true
    },
    {
      "id": 1,
      "content": "[UNK]",
      "single_word": false,
      "lstrip": false,
      "rstrip": false,
      "normalized": false,
      "special": true
    }
  ],
  "normalizer": null,
  "pre_tokenizer": {
    "type": "Whitespace"
  },
  "post_processor": null,
  "decoder": null,
  "model": {
    "type": "BPE",
    "dropout": null,
    "unk_token": null,
    "continuing_subword_prefix": null,
    "end_of_word_suffix": null,
    "fuse_unk": false,
    "byte_fallback": false,
    "ignore_merges": false,
    "vocab": {
      "[PAD]": 0,
      "[UNK]": 1,
      "a": 2,
      "b": 3,
      "c": 4,
      "d": 5,
      "e": 6,
      "f": 7,
      "g": 8,
      "h": 9,
      "i": 10,
      "j": 11,
      "k": 12,
      "l": 13,
      "m": 14,
      "n": 15,
      "o": 16,
      "p": 17,
      "q": 18,
      "r": 19,
      "s": 20,
      "t": 21,
      "u": 22,
      "v": 23,
      "w": 24,
      "x": 25,
      "y": 26,
      "z": 27,
      "th": 28,
      "in": 29,
      "el": 30,
      "an": 31,
      "fe": 32,
      "feel": 33,
      "ing": 34,
      "re": 35,
      "the": 36,
      "at": 37,
      "to": 38,
      "ou": 39,
      "on": 40,
      "er": 41,
      "ed": 42,
      "en": 43,
      "and": 44,
      "st": 45,
      "it": 46,
      "al": 47,
      "or": 48,
      "is": 49,
      "me": 50,
      "le": 51,
      "as": 52,
      "be": 53,
      "ar": 54,
      "of": 55,
      "ve": 56,
      "feeling": 57,
      "my": 58,
      "that": 59,
      "so": 60,
      "li": 61,
      "ly": 62,
      "ke": 63,
      "no": 64,
      "ha": 65,
      "wh": 66,
      "se": 67,
      "im": 68,
      "ch": 69,
      "ay": 70,
      "ti": 71,
      "am": 72,
      "ab": 73,
      "es": 74,
      "ver": 75,
      "lo": 76,
      "wi": 77,
      "ut": 78,
      "out": 79,
      "for": 80,
      "like": 81,
      "gh": 82,
      "id": 83,
      "mo": 84,
      "ac": 85,
      "ro": 86,
      "ad": 87,
      "ld": 88,
      "ri": 89,
      "ent": 90,
      "su": 91,
      "was": 92,
      "ho": 93,
      "but": 94,
      "co": 95,
      "with": 96,
      "he": 97,
      "un": 98,
      "have": 99,
      "ul": 100,
      "do": 101,
      "ge": 102,
      "ic": 103,
      "this": 104,
      "go": 105,
      "ant": 106,
      "you": 107,
      "we": 108,
      "ally": 109,
      "ust": 110,
      "ll": 111,
      "not": 112,
      "pe": 113,
      "ca": 114,
      "ss": 115,
      "some": 116,
      "thing": 117,
      "about": 118,
      "now": 119,
      "ght": 120,
      "all": 121,
      "ne": 122,
      "one": 123,
      "ir": 124,
      "ould": 125,
      "very": 126,
      "pp": 127,
      "ion": 128,
      "de": 129,
      "use": 130,
      "ter": 131,
      "just": 132,
      "ful": 133,
      "ce": 134,
      "ous": 135,
      "when": 136,
      "ive": 137,
      "con": 138,
      "ra": 139,
      "up": 140,
      "ple": 141,
      "ther": 142,
      "red": 143,
      "us": 144,
      "ma": 145,
      "day": 146,
      "cause": 147,
      "wor": 148,
      "time": 149,
      "more": 150,
      "are": 151,
      "sel": 152,
      "pre": 153,
      "art": 154,
      "way": 155,
      "because": 156,
      "ate": 157,
      "ex": 158,
      "end": 159,
      "ur": 160,
      "if": 161,
      "po": 162,
      "can": 163,
      "tt": 164,
      "self": 165,
      "per": 166,
      "com": 167,
      "sh": 168,
      "nt": 169,
      "any": 170,
      "know": 171,
      "ain": 172,
      "ry": 173,
      "ill": 174,
      "king": 175,
      "how": 176,
      "itt": 177,
      "ated": 178,
      "really": 179,
      "ag": 180,
      "od": 181,
      "by": 182,
      "ely": 183,
      "ind": 184,
      "don": 185,
      "ough": 186,
      "want": 187,
      "ct": 188,
      "what": 189,
      "get": 190,
      "been": 191,
      "able": 192,
      "ess": 193,
      "ev": 194,
      "myself": 195,
      "rom": 196,
      "make": 197,
      "who": 198,
      "ong": 199,
      "thin": 200,
      "had": 201,
      "ast": 202,
      "litt": 203,
      "little": 204,
      "nd": 205,
      "il": 206,
      "pl": 207,
      "bit": 208,
      "qu": 209,
      "they": 210,
      "did": 211,
      "less": 212,
      "ation": 213,
      "will": 214,
      "ok": 215,
      "would": 216,
      "them": 217,
      "tion": 218,
      "from": 219,
      "ol": 220,
      "ard": 221,
      "her": 222,
      "being": 223,
      "ving": 224,
      "dis": 225,
      "sp": 226,
      "ople": 227,
      "people": 228,
      "um": 229,
      "ci": 230,
      "every": 231,
      "bo": 232,
      "our": 233,
      "pro": 234,
      "ack": 235,
      "ell": 236,
      "et": 237,
      "em": 238,
      "other": 239,
      "whi": 240,
      "ound": 241,
      "ort": 242,
      "than": 243,
      "think": 244,
      "wn": 245,
      "there": 246,
      "its": 247,
      "int": 248,
      "him": 249,
      "sa": 250,
      "even": 251,
      "still": 252,
      "ep": 253,
      "over": 254,
      "life": 255,
      "need": 256,
      "ment": 257,
      "tic": 258,
      "af": 259,
      "act": 260,
      "ight": 261,
      "mu": 262,
      "read": 263,
      "ite": 264,
      "ish": 265,
      "der": 266,
      "tr": 267,
      "could": 268,
      "di": 269,
      "happ": 270,
      "ass": 271,
      "fo": 272,
      "ide": 273,
      "fri": 274,
      "ace": 275,
      "str": 276,
      "love": 277,
      "gr": 278,
      "something": 279,
      "ear": 280,
      "vi": 281,
      "pt": 282,
      "going": 283,
      "ck": 284,
      "ved": 285,
      "much": 286,
      "gu": 287,
      "things": 288,
      "hel": 289,
      "dont": 290,
      "med": 291,
      "ine": 292,
      "friend": 293,
      "come": 294,
      "wr": 295,
      "start": 296,
      "back": 297,
      "work": 298,
      "ity": 299,
      "say": 300,
      "ta": 301,
      "too": 302,
      "low": 303,
      "tty": 304,
      "ure": 305,
      "has": 306,
      "she": 307,
      "ach": 308,
      "see": 309,
      "most": 310,
      "cont": 311,
      "ways": 312,
      "jo": 313,
      "rel": 314,
      "sto": 315,
      "wo": 316,
      "good": 317,
      "ang": 318,
      "te": 319,
      "his": 320,
      "ere": 321,
      "right": 322,
      "your": 323,
      "ig": 324,
      "ers": 325,
      "pretty": 326,
      "should": 327,
      "cho": 328,
      "ade": 329,
      "ssed": 330,
      "son": 331,
      "into": 332,
      "times": 333,
      "ble": 334,
      "ning": 335,
      "fa": 336,
      "gre": 337,
      "again": 338,
      "which": 339,
      "after": 340,
      "mis": 341,
      "try": 342,
      "pa": 343,
      "these": 344,
      "their": 345,
      "always": 346,
      "spe": 347,
      "ose": 348,
      "fi": 349,
      "year": 350,
      "sure": 351,
      "app": 352,
      "feelings": 353,
      "ener": 354,
      "imp": 355,
      "help": 356,
      "bl": 357,
      "only": 358,
      "also": 359,
      "bel": 360,
      "sha": 361,
      "today": 362,
      "pr": 363,
      "supp": 364,
      "ious": 365,
      "then": 366,
      "ber": 367,
      "ought": 368,
      "new": 369,
      "ward": 370,
      "where": 371,
      "tal": 372,
      "feels": 373,
      "ick": 374,
      "man": 375,
      "sit": 376,
      "won": 377,
      "though": 378,
      "were": 379,
      "mor": 380,
      "happy": 381,
      "ek": 382,
      "around": 383,
      "heart": 384,
      "thr": 385,
      "home": 386,
      "person": 387,
      "cre": 388,
      "kind": 389,
      "stre": 390,
      "ened": 391,
      "fort": 392,
      "cl": 393,
      "cant": 394,
      "through": 395,
      "fin": 396,
      "ie": 397,
      "here": 398,
      "long": 399,
      "made": 400,
      "look": 401,
      "ist": 402,
      "week": 403,
      "bet": 404,
      "log": 405,
      "used": 406,
      "au": 407,
      "well": 408,
      "down": 409,
      "az": 410,
      "des": 411,
      "fre": 412,
      "may": 413,
      "real": 414,
      "fel": 415,
      "ty": 416,
      "got": 417,
      "par": 418,
      "ever": 419,
      "lot": 420,
      "ily": 421,
      "iz": 422,
      "cou": 423,
      "ner": 424,
      "aw": 425,
      "je": 426,
      "days": 427,
      "didnt": 428,
      "part": 429,
      "fr": 430,
      "off": 431,
      "never": 432,
      "fore": 433,
      "those": 434,
      "thought": 435,
      "stu": 436,
      "felt": 437,
      "ft": 438,
      "br": 439,
      "side": 440,
      "ies": 441,
      "find": 442,
      "ually": 443,
      "someone": 444,
      "while": 445,
      "gl": 446,
      "sm": 447,
      "having": 448,
      "ph": 449,
      "ence": 450,
      "ked": 451,
      "doing": 452,
      "ange": 453,
      "tting": 454,
      "miss": 455,
      "makes": 456,
      "mem": 457,
      "joy": 458,
      "pass": 459,
      "ice": 460,
      "under": 461,
      "sin": 462,
      "enough": 463,
      "does": 464,
      "ten": 465,
      "quite": 466,
      "ild": 467,
      "om": 468,
      "cted": 469,
      "many": 470,
      "let": 471,
      "tre": 472,
      "away": 473,
      "ps": 474,
      "cer": 475,
      "ans": 476,
      "fied": 477,
      "put": 478,
      "why": 479,
      "care": 480,
      "take": 481,
      "mon": 482,
      "stand": 483,
      "age": 484,
      "night": 485,
      "est": 486,
      "ready": 487,
      "own": 488,
      "dec": 489,
      "cept": 490,
      "anything": 491,
      "friends": 492,
      "ug": 493,
      "min": 494,
      "na": 495,
      "list": 496,
      "keep": 497,
      "hope": 498,
      "terri": 499,
      "fam": 500,
      "better": 501,
      "remem": 502,
      "before": 503,
      "cle": 504,
      "sat": 505,
      "blog": 506,
      "tain": 507,
      "uck": 508,
      "left": 509,
      "without": 510,
      "pleas": 511,
      "world": 512,
      "car": 513,
      "last": 514,
      "everything": 515,
      "tell": 516,
      "atch": 517,
      "getting": 518,
      "cr": 519,
      "emo": 520,
      "ref": 521,
      "actually": 522,
      "since": 523,
      "fir": 524,
      "wa": 525,
      "ance": 526,
      "ken": 527,
      "light": 528,
      "such": 529,
      "pres": 530,
      "book": 531,
      "du": 532,
      "amaz": 533,
      "peri": 534,
      "remember": 535,
      "loo": 536,
      "ular": 537,
      "conf": 538,
      "wonder": 539,
      "sometimes": 540,
      "iting": 541,
      "ak": 542,
      "htt": 543,
      "rain": 544,
      "post": 545,
      "tru": 546,
      "give": 547,
      "gener": 548,
      "bro": 549,
      "ness": 550,
      "ating": 551,
      "comfort": 552,
      "child": 553,
      "trying": 554,
      "tri": 555,
      "cess": 556,
      "ged": 557,
      "op": 558,
      "sen": 559,
      "tive": 560,
      "http": 561,
      "bab": 562,
      "bad": 563,
      "bod": 564,
      "pain": 565,
      "res": 566,
      "few": 567,
      "moment": 568,
      "bed": 569,
      "tor": 570,
      "men": 571,
      "first": 572,
      "wal": 573,
      "pressed": 574,
      "ative": 575,
      "accept": 576,
      "swe": 577,
      "sur": 578,
      "mar": 579,
      "head": 580,
      "hor": 581,
      "ys": 582,
      "run": 583,
      "sol": 584,
      "import": 585,
      "call": 586,
      "hard": 587,
      "mind": 588,
      "ned": 589,
      "ser": 590,
      "reas": 591,
      "family": 592,
      "emotion": 593,
      "gic": 594,
      "ately": 595,
      "started": 596,
      "ts": 597,
      "ted": 598,
      "sho": 599,
      "exc": 600,
      "said": 601,
      "hate": 602,
      "sad": 603,
      "lea": 604,
      "bre": 605,
      "gir": 606,
      "itated": 607,
      "cent": 608,
      "seem": 609,
      "body": 610,
      "important": 611,
      "cra": 612,
      "row": 613,
      "gy": 614,
      "hur": 615,
      "tur": 616,
      "beg": 617,
      "rather": 618,
      "support": 619,
      "stressed": 620,
      "fun": 621,
      "alone": 622,
      "ush": 623,
      "making": 624,
      "girl": 625,
      "clo": 626,
      "hi": 627,
      "val": 628,
      "ves": 629,
      "ction": 630,
      "pri": 631,
      "loved": 632,
      "del": 633,
      "gi": 634,
      "vent": 635,
      "worth": 636,
      "place": 637,
      "thank": 638,
      "free": 639,
      "ited": 640,
      "already": 641,
      "content": 642,
      "comple": 643,
      "inc": 644,
      "irr": 645,
      "passion": 646,
      "hand": 647,
      "tu": 648,
      "god": 649,
      "play": 650,
      "cu": 651,
      "href": 652,
      "fer": 653,
      "ird": 654,
      "certain": 655,
      "ms": 656,
      "sured": 657,
      "whel": 658,
      "chool": 659,
      "sle": 660,
      "two": 661,
      "others": 662,
      "ny": 663,
      "fect": 664,
      "overwhel": 665,
      "bu": 666,
      "old": 667,
      "school": 668,
      "yet": 669,
      "years": 670,
      "vo": 671,
      "point": 672,
      "ank": 673,
      "sy": 674,
      "same": 675,
      "eless": 676,
      "nothing": 677,
      "write": 678,
      "comfortable": 679,
      "hum": 680,
      "mat": 681,
      "sed": 682,
      "watch": 683,
      "col": 684,
      "appre": 685,
      "ven": 686,
      "vely": 687,
      "rest": 688,
      "cial": 689,
      "ren": 690,
      "understand": 691,
      "bur": 692,
      "bless": 693,
      "hes": 694,
      "ib": 695,
      "ise": 696,
      "ished": 697,
      "strong": 698,
      "morning": 699,
      "satis": 700,
      "cal": 701,
      "often": 702,
      "toward": 703,
      "wanted": 704,
      "fl": 705,
      "might": 706,
      "sing": 707,
      "show": 708,
      "tra": 709,
      "vel": 710,
      "lear": 711,
      "cially": 712,
      "nor": 713,
      "ting": 714,
      "ions": 715,
      "overwhelmed": 716,
      "ef": 717,
      "mel": 718,
      "word": 719,
      "guess": 720,
      "face": 721,
      "ations": 722,
      "strange": 723,
      "reason": 724,
      "valu": 725,
      "sleep": 726,
      "set": 727,
      "usted": 728,
      "anyone": 729,
      "sweet": 730,
      "passionate": 731,
      "eas": 732,
      "ile": 733,
      "led": 734,
      "shi": 735,
      "didn": 736,
      "bor": 737,
      "ga": 738,
      "sk": 739,
      "ual": 740,
      "wrong": 741,
      "tend": 742,
      "ens": 743,
      "mean": 744,
      "satisfied": 745,
      "went": 746,
      "enjoy": 747,
      "weird": 748,
      "sick": 749,
      "wel": 750,
      "ident": 751,
      "whole": 752,
      "bar": 753,
      "dre": 754,
      "umb": 755,
      "looking": 756,
      "ised": 757,
      "room": 758,
      "hop": 759,
      "everyone": 760,
      "stop": 761,
      "month": 762,
      "dif": 763,
      "ff": 764,
      "once": 765,
      "sul": 766,
      "thinking": 767,
      "hour": 768,
      "anx": 769,
      "sub": 770,
      "angry": 771,
      "amazing": 772,
      "excited": 773,
      "hurt": 774,
      "done": 775,
      "lon": 776,
      "another": 777,
      "cons": 778,
      "cut": 779,
      "vie": 780,
      "talk": 781,
      "ces": 782,
      "thetic": 783,
      "stup": 784,
      "lost": 785,
      "suc": 786,
      "experi": 787,
      "dist": 788,
      "ey": 789,
      "kid": 790,
      "sor": 791,
      "ste": 792,
      "great": 793,
      "belie": 794,
      "blessed": 795,
      "each": 796,
      "fear": 797,
      "thre": 798,
      "tired": 799,
      "class": 800,
      "stupid": 801,
      "gor": 802,
      "rent": 803,
      "che": 804,
      "adm": 805,
      "writing": 806,
      "pathetic": 807,
      "cas": 808,
      "dam": 809,
      "ustr": 810,
      "coming": 811,
      "xt": 812,
      "den": 813,
      "past": 814,
      "tely": 815,
      "least": 816,
      "ary": 817,
      "char": 818,
      "pless": 819,
      "arent": 820,
      "la": 821,
      "almost": 822,
      "posit": 823,
      "maybe": 824,
      "gent": 825,
      "must": 826,
      "raid": 827,
      "empt": 828,
      "ob": 829,
      "ru": 830,
      "amp": 831,
      "espe": 832,
      "guil": 833,
      "helpless": 834,
      "realiz": 835,
      "especially": 836,
      "ww": 837,
      "ouse": 838,
      "completely": 839,
      "mer": 840,
      "usu": 841,
      "cold": 842,
      "hear": 843,
      "found": 844,
      "hon": 845,
      "become": 846,
      "press": 847,
      "produ": 848,
      "sense": 849,
      "dr": 850,
      "pic": 851,
      "sort": 852,
      "else": 853,
      "ati": 854,
      "best": 855,
      "afraid": 856,
      "job": 857,
      "fact": 858,
      "wear": 859,
      "next": 860,
      "leave": 861,
      "ath": 862,
      "ult": 863,
      "came": 864,
      "inter": 865,
      "vers": 866,
      "trust": 867,
      "frustr": 868,
      "pleasant": 869,
      "hated": 870,
      "ia": 871,
      "offe": 872,
      "til": 873,
      "mother": 874,
      "ull": 875,
      "perfect": 876,
      "anger": 877,
      "accepted": 878,
      "cur": 879,
      "aged": 880,
      "safe": 881,
      "ticular": 882,
      "particular": 883,
      "big": 884,
      "wish": 885,
      "thats": 886,
      "agitated": 887,
      "success": 888,
      "ctive": 889,
      "slight": 890,
      "oud": 891,
      "cy": 892,
      "house": 893,
      "respe": 894,
      "ents": 895,
      "mus": 896,
      "ond": 897,
      "reading": 898,
      "believe": 899,
      "inside": 900,
      "rist": 901,
      "comp": 902,
      "itting": 903,
      "starting": 904,
      "nerv": 905,
      "glad": 906,
      "far": 907,
      "lately": 908,
      "tot": 909,
      "ash": 910,
      "live": 911,
      "ses": 912,
      "taking": 913,
      "horri": 914,
      "thankful": 915,
      "towards": 916,
      "gle": 917,
      "ink": 918,
      "antic": 919,
      "cious": 920,
      "wonderful": 921,
      "anxious": 922,
      "nervous": 923,
      "ng": 924,
      "ater": 925,
      "stay": 926,
      "ask": 927,
      "raged": 928,
      "comm": 929,
      "turn": 930,
      "ibly": 931,
      "totally": 932,
      "wasnt": 933,
      "heal": 934,
      "until": 935,
      "pop": 936,
      "ump": 937,
      "supporting": 938,
      "fic": 939,
      "iness": 940,
      "add": 941,
      "ented": 942,
      "icious": 943,
      "poss": 944,
      "compl": 945,
      "plan": 946,
      "contin": 947,
      "stud": 948,
      "fuck": 949,
      "ired": 950,
      "anno": 951,
      "super": 952,
      "cool": 953,
      "ically": 954,
      "grate": 955,
      "situ": 956,
      "sorry": 957,
      "annoy": 958,
      "cri": 959,
      "gn": 960,
      "hone": 961,
      "oint": 962,
      "insp": 963,
      "loving": 964,
      "cared": 965,
      "expe": 966,
      "extre": 967,
      "probab": 968,
      "appoint": 969,
      "belo": 970,
      "share": 971,
      "diffe": 972,
      "grateful": 973,
      "probably": 974,
      "ap": 975,
      "gro": 976,
      "att": 977,
      "told": 978,
      "uring": 979,
      "happen": 980,
      "aching": 981,
      "special": 982,
      "generous": 983,
      "high": 984,
      "cry": 985,
      "fol": 986,
      "ili": 987,
      "tou": 988,
      "deep": 989,
      "ject": 990,
      "words": 991,
      "months": 992,
      "slightly": 993,
      "luck": 994,
      "mely": 995,
      "ign": 996,
      "count": 997,
      "appreci": 998,
      "ings": 999,
      "ones": 1000,
      "move": 1001,
      "depressed": 1002,
      "working": 1003,
      "saying": 1004,
      "surpr": 1005,
      "kids": 1006,
      "ue": 1007,
      "ided": 1008,
      "ical": 1009,
      "aught": 1010,
      "listen": 1011,
      "begin": 1012,
      "sym": 1013,
      "ship": 1014,
      "lonely": 1015,
      "ax": 1016,
      "fine": 1017,
      "ible": 1018,
      "tful": 1019,
      "ub": 1020,
      "vis": 1021,
      "chy": 1022,
      "tten": 1023,
      "frustrated": 1024,
      "successful": 1025,
      "honest": 1026,
      "vir": 1027,
      "christ": 1028,
      "exha": 1029,
      "spend": 1030,
      "stuff": 1031,
      "particularly": 1032,
      "band": 1033,
      "ging": 1034,
      "wer": 1035,
      "war": 1036,
      "toge": 1037,
      "ons": 1038,
      "erable": 1039,
      "hot": 1040,
      "peace": 1041,
      "disappoint": 1042,
      "guilty": 1043,
      "extremely": 1044,
      "pun": 1045,
      "scared": 1046,
      "enti": 1047,
      "stic": 1048,
      "allow": 1049,
      "children": 1050,
      "walk": 1051,
      "emotional": 1052,
      "together": 1053,
      "bra": 1054,
      "ger": 1055,
      "io": 1056,
      "ith": 1057,
      "parent": 1058,
      "uc": 1059,
      "hair": 1060,
      "mom": 1061,
      "conv": 1062,
      "quest": 1063,
      "ments": 1064,
      "positive": 1065,
      "horrible": 1066,
      "ah": 1067,
      "iev": 1068,
      "ming": 1069,
      "song": 1070,
      "liked": 1071,
      "vious": 1072,
      "contro": 1073,
      "relation": 1074,
      "confident": 1075,
      "dream": 1076,
      "during": 1077,
      "mal": 1078,
      "oo": 1079,
      "itable": 1080,
      "asha": 1081,
      "beat": 1082,
      "embar": 1083,
      "giving": 1084,
      "beloved": 1085,
      "mad": 1086,
      "ud": 1087,
      "ider": 1088,
      "rious": 1089,
      "dev": 1090,
      "miserable": 1091,
      "truly": 1092,
      "matter": 1093,
      "cure": 1094,
      "kward": 1095,
      "uture": 1096,
      "action": 1097,
      "rich": 1098,
      "proud": 1099,
      "awkward": 1100,
      "thoughts": 1101,
      "missed": 1102,
      "decis": 1103,
      "terrified": 1104,
      "eyes": 1105,
      "exhausted": 1106,
      "pho": 1107,
      "thy": 1108,
      "stant": 1109,
      "ities": 1110,
      "lovely": 1111,
      "unity": 1112,
      "defe": 1113,
      "cannot": 1114,
      "viol": 1115,
      "relax": 1116,
      "faith": 1117,
      "dou": 1118,
      "future": 1119,
      "ire": 1120,
      "rass": 1121,
      "uct": 1122,
      "lic": 1123,
      "sex": 1124,
      "change": 1125,
      "boy": 1126,
      "woke": 1127,
      "awful": 1128,
      "hopeful": 1129,
      "caring": 1130,
      "close": 1131,
      "view": 1132,
      "ashamed": 1133,
      "reg": 1134,
      "thered": 1135,
      "als": 1136,
      "les": 1137,
      "arti": 1138,
      "living": 1139,
      "sun": 1140,
      "pped": 1141,
      "acted": 1142,
      "cked": 1143,
      "finally": 1144,
      "open": 1145,
      "resent": 1146,
      "irritable": 1147,
      "tured": 1148,
      "hours": 1149,
      "control": 1150,
      "eat": 1151,
      "vul": 1152,
      "inse": 1153,
      "ano": 1154,
      "ont": 1155,
      "alous": 1156,
      "havent": 1157,
      "selfish": 1158,
      "anymore": 1159,
      "grou": 1160,
      "istic": 1161,
      "stead": 1162,
      "usually": 1163,
      "cus": 1164,
      "edy": 1165,
      "imid": 1166,
      "full": 1167,
      "story": 1168,
      "woman": 1169,
      "jealous": 1170,
      "decided": 1171,
      "baby": 1172,
      "hopeless": 1173,
      "lucky": 1174,
      "embarrass": 1175,
      "fab": 1176,
      "thar": 1177,
      "hold": 1178,
      "uncertain": 1179,
      "defin": 1180,
      "cond": 1181,
      "ility": 1182,
      "spent": 1183,
      "div": 1184,
      "small": 1185,
      "doesnt": 1186,
      "broken": 1187,
      "experience": 1188,
      "admit": 1189,
      "offend": 1190,
      "disappointed": 1191,
      "ither": 1192,
      "ele": 1193,
      "regre": 1194,
      "ord": 1195,
      "lethar": 1196,
      "absol": 1197,
      "suf": 1198,
      "unsure": 1199,
      "ulous": 1200,
      "ween": 1201,
      "wont": 1202,
      "amazed": 1203,
      "confused": 1204,
      "cute": 1205,
      "lethargic": 1206,
      "absolut": 1207,
      "ago": 1208,
      "bus": 1209,
      "fall": 1210,
      "instead": 1211,
      "mess": 1212,
      "unhappy": 1213,
      "somehow": 1214,
      "ppy": 1215,
      "deter": 1216,
      "itty": 1217,
      "bothered": 1218,
      "proble": 1219,
      "creative": 1220,
      "tortured": 1221,
      "ensive": 1222,
      "popular": 1223,
      "inspired": 1224,
      "vulner": 1225,
      "knew": 1226,
      "ying": 1227,
      "ched": 1228,
      "sum": 1229,
      "deal": 1230,
      "couldnt": 1231,
      "energy": 1232,
      "longer": 1233,
      "jected": 1234,
      "seems": 1235,
      "funny": 1236,
      "different": 1237,
      "dened": 1238,
      "rush": 1239,
      "win": 1240,
      "stat": 1241,
      "meet": 1242,
      "somewhat": 1243,
      "shitty": 1244,
      "comes": 1245,
      "talented": 1246,
      "inced": 1247,
      "incred": 1248,
      "consider": 1249,
      "annoyed": 1250,
      "devast": 1251,
      "embarrassed": 1252,
      "vulnerable": 1253,
      "mas": 1254,
      "mone": 1255,
      "opp": 1256,
      "simp": 1257,
      "ture": 1258,
      "sty": 1259,
      "soon": 1260,
      "ried": 1261,
      "ries": 1262,
      "knowing": 1263,
      "ager": 1264,
      "strug": 1265,
      "weeks": 1266,
      "between": 1267,
      "calm": 1268,
      "situation": 1269,
      "brave": 1270,
      "convinced": 1271,
      "photo": 1272,
      "bas": 1273,
      "dra": 1274,
      "fill": 1275,
      "ling": 1276,
      "mi": 1277,
      "mine": 1278,
      "ancho": 1279,
      "isol": 1280,
      "tiv": 1281,
      "loy": 1282,
      "idea": 1283,
      "terrible": 1284,
      "running": 1285,
      "break": 1286,
      "melancho": 1287,
      "ieved": 1288,
      "hus": 1289,
      "opt": 1290,
      "pie": 1291,
      "ital": 1292,
      "whe": 1293,
      "uncomfortable": 1294,
      "discou": 1295,
      "intel": 1296,
      "intere": 1297,
      "needed": 1298,
      "food": 1299,
      "igno": 1300,
      "greedy": 1301,
      "shaken": 1302,
      "parano": 1303,
      "irritated": 1304,
      "empty": 1305,
      "respected": 1306,
      "music": 1307,
      "surprised": 1308,
      "punished": 1309,
      "doub": 1310,
      "absolutely": 1311,
      "interest": 1312,
      "dri": 1313,
      "ggy": 1314,
      "hal": 1315,
      "insul": 1316,
      "stal": 1317,
      "imag": 1318,
      "precious": 1319,
      "reluct": 1320,
      "fortun": 1321,
      "minut": 1322,
      "welcome": 1323,
      "fucked": 1324,
      "insecure": 1325,
      "money": 1326,
      "melancholy": 1327,
      "ced": 1328,
      "cour": 1329,
      "danger": 1330,
      "ky": 1331,
      "fest": 1332,
      "ors": 1333,
      "asked": 1334,
      "impressed": 1335,
      "spir": 1336,
      "both": 1337,
      "trou": 1338,
      "violent": 1339,
      "offended": 1340,
      "devastated": 1341,
      "husband": 1342,
      "discouraged": 1343,
      "reluctant": 1344,
      "dull": 1345,
      "nice": 1346,
      "numb": 1347,
      "pis": 1348,
      "resp": 1349,
      "rejected": 1350,
      "ition": 1351,
      "geous": 1352,
      "useful": 1353,
      "women": 1354,
      "homesick": 1355,
      "auti": 1356,
      "burdened": 1357,
      "skin": 1358,
      "follow": 1359,
      "resentful": 1360,
      "suffer": 1361,
      "determin": 1362,
      "air": 1363,
      "dden": 1364,
      "si": 1365,
      "sim": 1366,
      "issu": 1367,
      "assured": 1368,
      "form": 1369,
      "weight": 1370,
      "bled": 1371,
      "talking": 1372,
      "phys": 1373,
      "colle": 1374,
      "game": 1375,
      "parents": 1376,
      "divine": 1377,
      "simply": 1378,
      "av": 1379,
      "resol": 1380,
      "ton": 1381,
      "tonight": 1382,
      "leg": 1383,
      "beauti": 1384,
      "advent": 1385,
      "sudden": 1386,
      "constant": 1387,
      "astic": 1388,
      "bitter": 1389,
      "distr": 1390,
      "happened": 1391,
      "seeing": 1392,
      "front": 1393,
      "born": 1394,
      "gorgeous": 1395,
      "isolated": 1396,
      "optim": 1397,
      "beautiful": 1398,
      "hensive": 1399,
      "line": 1400,
      "sitting": 1401,
      "inno": 1402,
      "howe": 1403,
      "youre": 1404,
      "using": 1405,
      "useless": 1406,
      "kinda": 1407,
      "weekend": 1408,
      "ize": 1409,
      "crank": 1410,
      "wake": 1411,
      "truth": 1412,
      "curious": 1413,
      "hesit": 1414,
      "expect": 1415,
      "whether": 1416,
      "paranoid": 1417,
      "however": 1418,
      "cranky": 1419,
      "blo": 1420,
      "dir": 1421,
      "fant": 1422,
      "pur": 1423,
      "sound": 1424,
      "thri": 1425,
      "remind": 1426,
      "soci": 1427,
      "nostal": 1428,
      "second": 1429,
      "acter": 1430,
      "pping": 1431,
      "wanting": 1432,
      "disg": 1433,
      "theres": 1434,
      "intimid": 1435,
      "guy": 1436,
      "fair": 1437,
      "ized": 1438,
      "books": 1439,
      "rained": 1440,
      "apprehensive": 1441,
      "character": 1442,
      "rude": 1443,
      "beaten": 1444,
      "rushed": 1445,
      "insulted": 1446,
      "dangerous": 1447,
      "determined": 1448,
      "dumb": 1449,
      "fit": 1450,
      "gloo": 1451,
      "ot": 1452,
      "ored": 1453,
      "spo": 1454,
      "ross": 1455,
      "uni": 1456,
      "conne": 1457,
      "suppor": 1458,
      "ugly": 1459,
      "sincere": 1460,
      "pressured": 1461,
      "valuable": 1462,
      "distur": 1463,
      "threat": 1464,
      "honored": 1465,
      "groggy": 1466,
      "relaxed": 1467,
      "half": 1468,
      "pissed": 1469,
      "innocent": 1470,
      "gloomy": 1471,
      "dar": 1472,
      "either": 1473,
      "gen": 1474,
      "gone": 1475,
      "iet": 1476,
      "sent": 1477,
      "ount": 1478,
      "itely": 1479,
      "chang": 1480,
      "unwelcome": 1481,
      "young": 1482,
      "shy": 1483,
      "friendly": 1484,
      "adequ": 1485,
      "against": 1486,
      "blank": 1487,
      "couple": 1488,
      "smart": 1489,
      "joyful": 1490,
      "began": 1491,
      "watching": 1492,
      "valued": 1493,
      "wronged": 1494,
      "picture": 1495,
      "atient": 1496,
      "honestly": 1497,
      "incredibly": 1498,
      "optimistic": 1499,
      "ake": 1500,
      "sl": 1501,
      "ins": 1502,
      "took": 1503,
      "dissatisfied": 1504,
      "needs": 1505,
      "fool": 1506,
      "heartbroken": 1507,
      "personal": 1508,
      "longing": 1509,
      "crappy": 1510,
      "given": 1511,
      "worthless": 1512,
      "sympathetic": 1513,
      "faithful": 1514,
      "intelli": 1515,
      "ignored": 1516,
      "dirty": 1517,
      "intimidated": 1518,
      "naught": 1519,
      "order": 1520,
      "mood": 1521,
      "superi": 1522,
      "usion": 1523,
      "mach": 1524,
      "exact": 1525,
      "shes": 1526,
      "disheart": 1527,
      "ground": 1528,
      "pleased": 1529,
      "three": 1530,
      "www": 1531,
      "productive": 1532,
      "relationship": 1533,
      "fortunate": 1534,
      "threatened": 1535,
      "superior": 1536,
      "disheartened": 1537,
      "lous": 1538,
      "osed": 1539,
      "ught": 1540,
      "zy": 1541,
      "inadequ": 1542,
      "resul": 1543,
      "ature": 1544,
      "romantic": 1545,
      "broke": 1546,
      "mark": 1547,
      "called": 1548,
      "mellow": 1549,
      "realize": 1550,
      "definitely": 1551,
      "regretful": 1552,
      "festive": 1553,
      "hesitant": 1554,
      "lousy": 1555,
      "vain": 1556,
      "ster": 1557,
      "aded": 1558,
      "getic": 1559,
      "lled": 1560,
      "upset": 1561,
      "plain": 1562,
      "fail": 1563,
      "desp": 1564,
      "name": 1565,
      "clever": 1566,
      "delicious": 1567,
      "course": 1568,
      "spirit": 1569,
      "resolved": 1570,
      "disturbed": 1571,
      "naughty": 1572,
      "aking": 1573,
      "ben": 1574,
      "dro": 1575,
      "eating": 1576,
      "hind": 1577,
      "ian": 1578,
      "pay": 1579,
      "lim": 1580,
      "utter": 1581,
      "ict": 1582,
      "main": 1583,
      "comed": 1584,
      "bitchy": 1585,
      "vile": 1586,
      "vigor": 1587,
      "guys": 1588,
      "fake": 1589,
      "energetic": 1590,
      "bring": 1591,
      "waiting": 1592,
      "serious": 1593,
      "shocked": 1594,
      "humili": 1595,
      "experien": 1596,
      "damaged": 1597,
      "style": 1598,
      "nostalgic": 1599,
      "supportive": 1600,
      "intelligent": 1601,
      "drained": 1602,
      "grow": 1603,
      "lit": 1604,
      "sc": 1605,
      "sil": 1606,
      "eng": 1607,
      "lives": 1608,
      "whate": 1609,
      "amer": 1610,
      "outside": 1611,
      "etc": 1612,
      "ester": 1613,
      "tried": 1614,
      "mention": 1615,
      "fearful": 1616,
      "troubled": 1617,
      "distracted": 1618,
      "fantastic": 1619,
      "inadequate": 1620,
      "humiliated": 1621,
      "slow": 1622,
      "yester": 1623,
      "state": 1624,
      "icate": 1625,
      "petty": 1626,
      "dep": 1627,
      "exam": 1628,
      "project": 1629,
      "shaky": 1630,
      "supposed": 1631,
      "smile": 1632,
      "gentle": 1633,
      "defeated": 1634,
      "summer": 1635,
      "loyal": 1636,
      "suddenly": 1637,
      "disgusted": 1638,
      "whatever": 1639,
      "yesterday": 1640,
      "eager": 1641,
      "lack": 1642,
      "lau": 1643,
      "sou": 1644,
      "inv": 1645,
      "behind": 1646,
      "aring": 1647,
      "arch": 1648,
      "forward": 1649,
      "rotten": 1650,
      "unimportant": 1651,
      "ssion": 1652,
      "depri": 1653,
      "whenever": 1654,
      "exp": 1655,
      "express": 1656,
      "que": 1657,
      "relieved": 1658,
      "speak": 1659,
      "carefree": 1660,
      "listless": 1661,
      "true": 1662,
      "generally": 1663,
      "boring": 1664,
      "welcomed": 1665,
      "lame": 1666,
      "trusting": 1667,
      "virtu": 1668,
      "fabulous": 1669,
      "gra": 1670,
      "omed": 1671,
      "pick": 1672,
      "scre": 1673,
      "ude": 1674,
      "rece": 1675,
      "rebel": 1676,
      "oured": 1677,
      "along": 1678,
      "ising": 1679,
      "isnt": 1680,
      "lead": 1681,
      "idio": 1682,
      "enter": 1683,
      "unfortunate": 1684,
      "near": 1685,
      "needy": 1686,
      "pray": 1687,
      "single": 1688,
      "easy": 1689,
      "current": 1690,
      "continue": 1691,
      "christmas": 1692,
      "opport": 1693,
      "exactly": 1694,
      "deprived": 1695,
      "har": 1696,
      "land": 1697,
      "late": 1698,
      "oc": 1699,
      "port": 1700,
      "train": 1701,
      "recent": 1702,
      "although": 1703,
      "memor": 1704,
      "lious": 1705,
      "doomed": 1706,
      "tical": 1707,
      "taken": 1708,
      "impatient": 1709,
      "stress": 1710,
      "horny": 1711,
      "buy": 1712,
      "restless": 1713,
      "tender": 1714,
      "realized": 1715,
      "touch": 1716,
      "peaceful": 1717,
      "suffering": 1718,
      "rebellious": 1719,
      "bal": 1720,
      "da": 1721,
      "hun": 1722,
      "later": 1723,
      "mid": 1724,
      "iment": 1725,
      "chall": 1726,
      "fully": 1727,
      "selves": 1728,
      "explain": 1729,
      "short": 1730,
      "fright": 1731,
      "team": 1732,
      "father": 1733,
      "deser": 1734,
      "worthwhile": 1735,
      "human": 1736,
      "learn": 1737,
      "normal": 1738,
      "effort": 1739,
      "country": 1740,
      "thrilled": 1741,
      "virtuous": 1742,
      "bly": 1743,
      "fil": 1744,
      "jaded": 1745,
      "ring": 1746,
      "rid": 1747,
      "sw": 1748,
      "tear": 1749,
      "orous": 1750,
      "tice": 1751,
      "ungrateful": 1752,
      "urous": 1753,
      "cts": 1754,
      "quick": 1755,
      "umph": 1756,
      "saw": 1757,
      "focus": 1758,
      "teach": 1759,
      "finish": 1760,
      "triumph": 1761,
      "girls": 1762,
      "privile": 1763,
      "contented": 1764,
      "umpy": 1765,
      "beginning": 1766,
      "artistic": 1767,
      "adventurous": 1768,
      "ec": 1769,
      "fac": 1770,
      "jour": 1771,
      "vide": 1772,
      "invigor": 1773,
      "movie": 1774,
      "wasn": 1775,
      "gest": 1776,
      "convers": 1777,
      "pregn": 1778,
      "known": 1779,
      "prote": 1780,
      "mug": 1781,
      "dire": 1782,
      "descri": 1783,
      "stub": 1784,
      "clean": 1785,
      "telling": 1786,
      "acceptable": 1787,
      "learned": 1788,
      "honoured": 1789,
      "healthy": 1790,
      "students": 1791,
      "warm": 1792,
      "problems": 1793,
      "foolish": 1794,
      "frightened": 1795,
      "invigorated": 1796,
      "bi": 1797,
      "gif": 1798,
      "ni": 1799,
      "oh": 1800,
      "push": 1801,
      "smug": 1802,
      "reach": 1803,
      "oun": 1804,
      "lie": 1805,
      "seen": 1806,
      "abused": 1807,
      "ability": 1808,
      "moving": 1809,
      "holi": 1810,
      "cover": 1811,
      "upon": 1812,
      "ils": 1813,
      "discontent": 1814,
      "grumpy": 1815,
      "clear": 1816,
      "present": 1817,
      "submiss": 1818,
      "constantly": 1819,
      "laugh": 1820,
      "fast": 1821,
      "vital": 1822,
      "ket": 1823,
      "tight": 1824,
      "lose": 1825,
      "loss": 1826,
      "motiv": 1827,
      "adv": 1828,
      "power": 1829,
      "shit": 1830,
      "stomach": 1831,
      "fav": 1832,
      "path": 1833,
      "desire": 1834,
      "type": 1835,
      "treat": 1836,
      "moments": 1837,
      "serv": 1838,
      "emotions": 1839,
      "delicate": 1840,
      "learning": 1841,
      "possible": 1842,
      "opportunity": 1843,
      "triumphant": 1844,
      "stubborn": 1845,
      "flow": 1846,
      "fond": 1847,
      "pub": 1848,
      "tem": 1849,
      "ze": 1850,
      "step": 1851,
      "met": 1852,
      "level": 1853,
      "search": 1854,
      "within": 1855,
      "unch": 1856,
      "ended": 1857,
      "event": 1858,
      "space": 1859,
      "worked": 1860,
      "frantic": 1861,
      "phone": 1862,
      "doesn": 1863,
      "putting": 1864,
      "terrific": 1865,
      "hands": 1866,
      "damn": 1867,
      "continu": 1868,
      "appe": 1869,
      "piece": 1870,
      "minutes": 1871,
      "privileged": 1872,
      "bir": 1873,
      "cing": 1874,
      "ered": 1875,
      "fu": 1876,
      "ju": 1877,
      "sist": 1878,
      "anna": 1879,
      "ances": 1880,
      "top": 1881,
      "means": 1882,
      "offer": 1883,
      "ably": 1884,
      "ently": 1885,
      "susp": 1886,
      "unloved": 1887,
      "goes": 1888,
      "gets": 1889,
      "grand": 1890,
      "ache": 1891,
      "walked": 1892,
      "hibit": 1893,
      "delight": 1894,
      "thanks": 1895,
      "rence": 1896,
      "casual": 1897,
      "deeply": 1898,
      "static": 1899,
      "ecstatic": 1900,
      "submissive": 1901,
      "brain": 1902,
      "cor": 1903,
      "hy": 1904,
      "lar": 1905,
      "os": 1906,
      "pu": 1907,
      "ptical": 1908,
      "yes": 1909,
      "feed": 1910,
      "kept": 1911,
      "amount": 1912,
      "host": 1913,
      "dow": 1914,
      "gotten": 1915,
      "worried": 1916,
      "wouldnt": 1917,
      "teen": 1918,
      "paper": 1919,
      "looks": 1920,
      "reassured": 1921,
      "question": 1922,
      "date": 1923,
      "ption": 1924,
      "rc": 1925,
      "sar": 1926,
      "ske": 1927,
      "water": 1928,
      "throw": 1929,
      "itle": 1930,
      "chur": 1931,
      "verse": 1932,
      "uty": 1933,
      "sug": 1934,
      "concer": 1935,
      "worry": 1936,
      "ext": 1937,
      "wants": 1938,
      "finished": 1939,
      "glam": 1940,
      "tention": 1941,
      "due": 1942,
      "walking": 1943,
      "leaving": 1944,
      "usual": 1945,
      "wearing": 1946,
      "possibly": 1947,
      "appreciative": 1948,
      "group": 1949,
      "imagine": 1950,
      "despite": 1951,
      "soul": 1952,
      "birth": 1953,
      "cha": 1954,
      "dle": 1955,
      "equ": 1956,
      "fing": 1957,
      "gain": 1958,
      "hu": 1959,
      "non": 1960,
      "round": 1961,
      "src": 1962,
      "ane": 1963,
      "attention": 1964,
      "envious": 1965,
      "seas": 1966,
      "chance": 1967,
      "accompl": 1968,
      "rap": 1969,
      "ending": 1970,
      "comments": 1971,
      "knowled": 1972,
      "illusion": 1973,
      "inten": 1974,
      "suppose": 1975,
      "drink": 1976,
      "struggl": 1977,
      "utterly": 1978,
      "seriously": 1979,
      "americ": 1980,
      "imental": 1981,
      "ather": 1982,
      "apo": 1983,
      "daz": 1984,
      "four": 1985,
      "fight": 1986,
      "fuc": 1987,
      "gan": 1988,
      "gon": 1989,
      "ial": 1990,
      "kis": 1991,
      "rely": 1992,
      "vid": 1993,
      "vict": 1994,
      "wed": 1995,
      "ates": 1996,
      "arms": 1997,
      "social": 1998,
      "haps": 1999,
      "acc": 2000,
      "across": 2001,
      "ric": 2002,
      "hood": 2003,
      "heard": 2004,
      "doc": 2005,
      "umber": 2006,
      "stories": 2007,
      "figu": 2008,
      "news": 2009,
      "morrow": 2010,
      "streng": 2011,
      "strongly": 2012,
      "tragic": 2013,
      "effect": 2014,
      "ships": 2015,
      "respect": 2016,
      "dark": 2017,
      "sentimental": 2018,
      "skeptical": 2019,
      "church": 2020,
      "fucking": 2021,
      "victim": 2022,
      "bing": 2023,
      "ball": 2024,
      "bag": 2025,
      "dad": 2026,
      "fur": 2027,
      "igh": 2028,
      "laz": 2029,
      "pull": 2030,
      "wall": 2031,
      "ined": 2032,
      "inner": 2033,
      "remor": 2034,
      "tomorrow": 2035,
      "star": 2036,
      "stra": 2037,
      "itude": 2038,
      "ism": 2039,
      "sett": 2040,
      "amused": 2041,
      "unpleasant": 2042,
      "cap": 2043,
      "neg": 2044,
      "negle": 2045,
      "ific": 2046,
      "perhaps": 2047,
      "ills": 2048,
      "cip": 2049,
      "gress": 2050,
      "black": 2051,
      "belong": 2052,
      "prac": 2053,
      "lots": 2054,
      "aware": 2055,
      "ease": 2056,
      "gave": 2057,
      "community": 2058,
      "spending": 2059,
      "questions": 2060,
      "regard": 2061,
      "connection": 2062,
      "recently": 2063,
      "quickly": 2064,
      "knowledge": 2065,
      "remorse": 2066,
      "card": 2067,
      "kick": 2068,
      "lad": 2069,
      "wit": 2070,
      "incl": 2071,
      "anti": 2072,
      "key": 2073,
      "door": 2074,
      "ices": 2075,
      "devo": 2076,
      "death": 2077,
      "worse": 2078,
      "theyre": 2079,
      "ational": 2080,
      "disillusion": 2081,
      "die": 2082,
      "medi": 2083,
      "personally": 2084,
      "party": 2085,
      "answer": 2086,
      "keeping": 2087,
      "wait": 2088,
      "pressure": 2089,
      "wondering": 2090,
      "general": 2091,
      "brea": 2092,
      "crazy": 2093,
      "dress": 2094,
      "health": 2095,
      "expected": 2096,
      "attempt": 2097,
      "doubtful": 2098,
      "college": 2099,
      "recei": 2100,
      "dazed": 2101,
      "disillusioned": 2102,
      "avo": 2103,
      "fli": 2104,
      "ied": 2105,
      "ks": 2106,
      "race": 2107,
      "thor": 2108,
      "keen": 2109,
      "sever": 2110,
      "acking": 2111,
      "weather": 2112,
      "net": 2113,
      "devel": 2114,
      "tern": 2115,
      "themselves": 2116,
      "writ": 2117,
      "pair": 2118,
      "managed": 2119,
      "fresh": 2120,
      "missing": 2121,
      "emotionally": 2122,
      "build": 2123,
      "voice": 2124,
      "reasons": 2125,
      "sleeping": 2126,
      "case": 2127,
      "crying": 2128,
      "listening": 2129,
      "decision": 2130,
      "messy": 2131,
      "photos": 2132,
      "fairly": 2133,
      "entertain": 2134,
      "describe": 2135,
      "suspicious": 2136,
      "delighted": 2137,
      "cele": 2138,
      "flo": 2139,
      "mile": 2140,
      "rad": 2141,
      "ingly": 2142,
      "reco": 2143,
      "tory": 2144,
      "onto": 2145,
      "stem": 2146,
      "asking": 2147,
      "img": 2148,
      "core": 2149,
      "necess": 2150,
      "extra": 2151,
      "anyway": 2152,
      "itten": 2153,
      "ilities": 2154,
      "discu": 2155,
      "everyday": 2156,
      "distressed": 2157,
      "happiness": 2158,
      "gram": 2159,
      "early": 2160,
      "choice": 2161,
      "appro": 2162,
      "create": 2163,
      "decide": 2164,
      "trip": 2165,
      "complete": 2166,
      "actions": 2167,
      "struggle": 2168,
      "physically": 2169,
      "challen": 2170,
      "film": 2171,
      "hostile": 2172,
      "lazy": 2173,
      "remorseful": 2174,
      "celebr": 2175,
      "bum": 2176,
      "dd": 2177,
      "hit": 2178,
      "hell": 2179,
      "ier": 2180,
      "kill": 2181,
      "lay": 2182,
      "mil": 2183,
      "ution": 2184,
      "wanna": 2185,
      "erc": 2186,
      "ase": 2187,
      "chest": 2188,
      "forget": 2189,
      "roll": 2190,
      "comput": 2191,
      "sharing": 2192,
      "agre": 2193,
      "plac": 2194,
      "readers": 2195,
      "says": 2196,
      "mostly": 2197,
      "helping": 2198,
      "looked": 2199,
      "passed": 2200,
      "please": 2201,
      "sadness": 2202,
      "playful": 2203,
      "diffic": 2204,
      "subject": 2205,
      "complain": 2206,
      "respons": 2207,
      "simple": 2208,
      "issue": 2209,
      "issues": 2210,
      "spot": 2211,
      "iety": 2212,
      "tears": 2213,
      "favor": 2214,
      "public": 2215,
      "glamorous": 2216,
      "strength": 2217,
      "develop": 2218,
      "cup": 2219,
      "daught": 2220,
      "ip": 2221,
      "jud": 2222,
      "number": 2223,
      "ping": 2224,
      "por": 2225,
      "wise": 2226,
      "ye": 2227,
      "tom": 2228,
      "educ": 2229,
      "ality": 2230,
      "bey": 2231,
      "acious": 2232,
      "weak": 2233,
      "dead": 2234,
      "ters": 2235,
      "except": 2236,
      "ilar": 2237,
      "process": 2238,
      "foot": 2239,
      "presence": 2240,
      "posting": 2241,
      "hateful": 2242,
      "crap": 2243,
      "turned": 2244,
      "enjoyed": 2245,
      "pression": 2246,
      "allowed": 2247,
      "filled": 2248,
      "characters": 2249,
      "idiotic": 2250,
      "neglect": 2251,
      "awe": 2252,
      "ahead": 2253,
      "bs": 2254,
      "dan": 2255,
      "gs": 2256,
      "nat": 2257,
      "sn": 2258,
      "sign": 2259,
      "iny": 2260,
      "indecis": 2261,
      "thes": 2262,
      "itch": 2263,
      "lect": 2264,
      "assa": 2265,
      "asses": 2266,
      "lying": 2267,
      "ayed": 2268,
      "wife": 2269,
      "acent": 2270,
      "ants": 2271,
      "ney": 2272,
      "ages": 2273,
      "aste": 2274,
      "evening": 2275,
      "epy": 2276,
      "trans": 2277,
      "happens": 2278,
      "frid": 2279,
      "finding": 2280,
      "famili": 2281,
      "cles": 2282,
      "blogging": 2283,
      "anxiety": 2284,
      "conscious": 2285,
      "company": 2286,
      "complacent": 2287,
      "boyfriend": 2288,
      "artist": 2289,
      "busy": 2290,
      "physical": 2291,
      "results": 2292,
      "sister": 2293,
      "huge": 2294,
      "gonna": 2295,
      "straight": 2296,
      "negative": 2297,
      "several": 2298,
      "computer": 2299,
      "indecisive": 2300,
      "boun": 2301,
      "catch": 2302,
      "ding": 2303,
      "five": 2304,
      "ns": 2305,
      "pat": 2306,
      "prom": 2307,
      "sof": 2308,
      "smo": 2309,
      "title": 2310,
      "uro": 2311,
      "inhibit": 2312,
      "return": 2313,
      "onment": 2314,
      "sting": 2315,
      "item": 2316,
      "letting": 2317,
      "bea": 2318,
      "ties": 2319,
      "amed": 2320,
      "lol": 2321,
      "losing": 2322,
      "idence": 2323,
      "somewhere": 2324,
      "exerc": 2325,
      "odd": 2326,
      "whats": 2327,
      "profe": 2328,
      "progress": 2329,
      "affe": 2330,
      "igned": 2331,
      "shouldnt": 2332,
      "street": 2333,
      "desper": 2334,
      "smell": 2335,
      "brother": 2336,
      "breath": 2337,
      "certainly": 2338,
      "color": 2339,
      "eye": 2340,
      "guilt": 2341,
      "entire": 2342,
      "grouchy": 2343,
      "meeting": 2344,
      "invol": 2345,
      "training": 2346,
      "memories": 2347,
      "gift": 2348,
      "season": 2349,
      "further": 2350,
      "avoid": 2351,
      "inhibited": 2352,
      "apart": 2353,
      "cat": 2354,
      "fan": 2355,
      "fat": 2356,
      "fra": 2357,
      "gant": 2358,
      "mist": 2359,
      "ove": 2360,
      "ris": 2361,
      "sal": 2362,
      "tar": 2363,
      "wro": 2364,
      "thro": 2365,
      "ines": 2366,
      "incre": 2367,
      "repe": 2368,
      "organ": 2369,
      "arri": 2370,
      "impro": 2371,
      "immedi": 2372,
      "load": 2373,
      "road": 2374,
      "wash": 2375,
      "weepy": 2376,
      "dest": 2377,
      "raught": 2378,
      "pose": 2379,
      "acting": 2380,
      "tran": 2381,
      "couldn": 2382,
      "gracious": 2383,
      "written": 2384,
      "stood": 2385,
      "fault": 2386,
      "career": 2387,
      "terribly": 2388,
      "turning": 2389,
      "worthy": 2390,
      "playing": 2391,
      "system": 2392,
      "distraught": 2393,
      "obvious": 2394,
      "dram": 2395,
      "entirely": 2396,
      "problem": 2397,
      "doubt": 2398,
      "conversation": 2399,
      "appear": 2400,
      "beyond": 2401,
      "natur": 2402,
      "beauty": 2403,
      "wrote": 2404,
      "bers": 2405,
      "cli": 2406,
      "cir": 2407,
      "cking": 2408,
      "dance": 2409,
      "hang": 2410,
      "nal": 2411,
      "pen": 2412,
      "sand": 2413,
      "ured": 2414,
      "wing": 2415,
      "eld": 2416,
      "beha": 2417,
      "betr": 2418,
      "lively": 2419,
      "noon": 2420,
      "notic": 2421,
      "haha": 2422,
      "area": 2423,
      "perfor": 2424,
      "iling": 2425,
      "bitch": 2426,
      "quiet": 2427,
      "proper": 2428,
      "earli": 2429,
      "media": 2430,
      "works": 2431,
      "stopped": 2432,
      "test": 2433,
      "yourself": 2434,
      "spec": 2435,
      "fix": 2436,
      "talked": 2437,
      "audi": 2438,
      "brought": 2439,
      "psy": 2440,
      "series": 2441,
      "clothes": 2442,
      "easily": 2443,
      "happening": 2444,
      "songs": 2445,
      "window": 2446,
      "blood": 2447,
      "societ": 2448,
      "changes": 2449,
      "slowly": 2450,
      "middle": 2451,
      "deserve": 2452,
      "pregnant": 2453,
      "recogn": 2454,
      "difficult": 2455,
      "daughter": 2456,
      "cult": 2457,
      "dinner": 2458,
      "gri": 2459,
      "link": 2460,
      "lord": 2461,
      "table": 2462,
      "winter": 2463,
      "angu": 2464,
      "feet": 2465,
      "edom": 2466,
      "envir": 2467,
      "stri": 2468,
      "itself": 2469,
      "mes": 2470,
      "notice": 2471,
      "white": 2472,
      "secre": 2473,
      "ulted": 2474,
      "gover": 2475,
      "confe": 2476,
      "rage": 2477,
      "polit": 2478,
      "comment": 2479,
      "whom": 2480,
      "quil": 2481,
      "boo": 2482,
      "himself": 2483,
      "epis": 2484,
      "earth": 2485,
      "wards": 2486,
      "throughout": 2487,
      "freedom": 2488,
      "stuck": 2489,
      "opin": 2490,
      "understanding": 2491,
      "flu": 2492,
      "norm": 2493,
      "enjoying": 2494,
      "hoping": 2495,
      "situations": 2496,
      "appreciate": 2497,
      "visit": 2498,
      "relationships": 2499,
      "sexual": 2500,
      "elegant": 2501,
      "mix": 2502,
      "drive": 2503,
      "minute": 2504,
      "pictures": 2505,
      "depend": 2506,
      "scream": 2507,
      "daily": 2508,
      "apolog": 2509,
      "entertained": 2510,
      "friday": 2511,
      "target": 2512,
      "environment": 2513,
      "hide": 2514,
      "ians": 2515,
      "tv": 2516,
      "thus": 2517,
      "ator": 2518,
      "ene": 2519,
      "encou": 2520,
      "lived": 2521,
      "castic": 2522,
      "uptight": 2523,
      "compassionate": 2524,
      "tions": 2525,
      "bother": 2526,
      "mentally": 2527,
      "died": 2528,
      "ideas": 2529,
      "choose": 2530,
      "afternoon": 2531,
      "pathy": 2532,
      "spect": 2533,
      "shake": 2534,
      "heartless": 2535,
      "final": 2536,
      "author": 2537,
      "office": 2538,
      "tenti": 2539,
      "lets": 2540,
      "confidence": 2541,
      "posts": 2542,
      "sens": 2543,
      "shoes": 2544,
      "leaves": 2545,
      "older": 2546,
      "ibility": 2547,
      "dreams": 2548,
      "sociable": 2549,
      "genu": 2550,
      "silly": 2551,
      "currently": 2552,
      "holiday": 2553,
      "sarcastic": 2554,
      "struggling": 2555,
      "figure": 2556,
      "devoted": 2557,
      "discuss": 2558,
      "assaulted": 2559,
      "behavi": 2560,
      "earlier": 2561,
      "culture": 2562,
      "aim": 2563,
      "ail": 2564,
      "city": 2565,
      "cross": 2566,
      "dy": 2567,
      "ee": 2568,
      "fans": 2569,
      "jol": 2570,
      "spl": 2571,
      "vity": 2572,
      "wind": 2573,
      "xious": 2574,
      "yo": 2575,
      "ining": 2576,
      "els": 2577,
      "ann": 2578,
      "town": 2579,
      "engl": 2580,
      "stun": 2581,
      "arm": 2582,
      "vered": 2583,
      "noxious": 2584,
      "suck": 2585,
      "hea": 2586,
      "depression": 2587,
      "ously": 2588,
      "indi": 2589,
      "boys": 2590,
      "program": 2591,
      "grad": 2592,
      "contri": 2593,
      "blah": 2594,
      "blamed": 2595,
      "shamed": 2596,
      "design": 2597,
      "reality": 2598,
      "period": 2599,
      "gives": 2600,
      "badly": 2601,
      "charming": 2602,
      "obnoxious": 2603,
      "staying": 2604,
      "appreciated": 2605,
      "interesting": 2606,
      "similar": 2607,
      "purpose": 2608,
      "graph": 2609,
      "direction": 2610,
      "motivated": 2611,
      "service": 2612,
      "large": 2613,
      "birthday": 2614,
      "kiss": 2615,
      "challenge": 2616,
      "favorite": 2617,
      "awesome": 2618,
      "soft": 2619,
      "exercise": 2620,
      "involved": 2621,
      "mistake": 2622,
      "increas": 2623,
      "immediately": 2624,
      "betrayed": 2625,
      "society": 2626,
      "hat": 2627,
      "lab": 2628,
      "nic": 2629,
      "none": 2630,
      "pul": 2631,
      "ray": 2632,
      "vac": 2633,
      "ws": 2634,
      "ina": 2635,
      "inve": 2636,
      "inely": 2637,
      "anim": 2638,
      "rec": 2639,
      "review": 2640,
      "remain": 2641,
      "ery": 2642,
      "edge": 2643,
      "stick": 2644,
      "sore": 2645,
      "lip": 2646,
      "lift": 2647,
      "lips": 2648,
      "sess": 2649,
      "above": 2650,
      "movi": 2651,
      "activ": 2652,
      "mail": 2653,
      "pretend": 2654,
      "exist": 2655,
      "potenti": 2656,
      "mental": 2657,
      "foc": 2658,
      "grace": 2659,
      "medic": 2660,
      "workout": 2661,
      "wood": 2662,
      "tered": 2663,
      "pared": 2664,
      "blue": 2665,
      "sitive": 2666,
      "awake": 2667,
      "partner": 2668,
      "forever": 2669,
      "tree": 2670,
      "treated": 2671,
      "posted": 2672,
      "sensitive": 2673,
      "tors": 2674,
      "calling": 2675,
      "hurts": 2676,
      "watched": 2677,
      "travel": 2678,
      "facebook": 2679,
      "meaning": 2680,
      "hearing": 2681,
      "compan": 2682,
      "difference": 2683,
      "sunday": 2684,
      "business": 2685,
      "falling": 2686,
      "considerate": 2687,
      "following": 2688,
      "six": 2689,
      "formation": 2690,
      "projects": 2691,
      "video": 2692,
      "suggest": 2693,
      "accident": 2694,
      "necessary": 2695,
      "neglectful": 2696,
      "profession": 2697,
      "secret": 2698,
      "aa": 2699,
      "bb": 2700,
      "bought": 2701,
      "jor": 2702,
      "jump": 2703,
      "mum": 2704,
      "mass": 2705,
      "nature": 2706,
      "ode": 2707,
      "pan": 2708,
      "inst": 2709,
      "total": 2710,
      "andom": 2711,
      "lik": 2712,
      "haven": 2713,
      "ches": 2714,
      "outraged": 2715,
      "active": 2716,
      "unless": 2717,
      "iculous": 2718,
      "goal": 2719,
      "pet": 2720,
      "deta": 2721,
      "ception": 2722,
      "major": 2723,
      "okay": 2724,
      "sport": 2725,
      "box": 2726,
      "emp": 2727,
      "embr": 2728,
      "overall": 2729,
      "chocol": 2730,
      "choices": 2731,
      "energ": 2732,
      "created": 2733,
      "club": 2734,
      "ieve": 2735,
      "members": 2736,
      "takes": 2737,
      "surround": 2738,
      "girlfriend": 2739,
      "flaw": 2740,
      "cheer": 2741,
      "position": 2742,
      "internet": 2743,
      "commun": 2744,
      "oooo": 2745,
      "based": 2746,
      "legs": 2747,
      "universe": 2748,
      "changed": 2749,
      "result": 2750,
      "experiences": 2751,
      "explo": 2752,
      "nearly": 2753,
      "journey": 2754,
      "bike": 2755,
      "accomplish": 2756,
      "breathe": 2757,
      "received": 2758,
      "agree": 2759,
      "bouncy": 2760,
      "audience": 2761,
      "genuinely": 2762,
      "stunned": 2763,
      "individ": 2764,
      "movies": 2765,
      "bright": 2766,
      "cro": 2767,
      "gut": 2768,
      "gig": 2769,
      "jes": 2770,
      "ler": 2771,
      "law": 2772,
      "mou": 2773,
      "pal": 2774,
      "rr": 2775,
      "ran": 2776,
      "rout": 2777,
      "taste": 2778,
      "var": 2779,
      "wast": 2780,
      "ination": 2781,
      "information": 2782,
      "ancy": 2783,
      "repressed": 2784,
      "reaction": 2785,
      "therap": 2786,
      "attr": 2787,
      "attend": 2788,
      "alive": 2789,
      "meant": 2790,
      "becoming": 2791,
      "became": 2792,
      "lies": 2793,
      "separ": 2794,
      "among": 2795,
      "iding": 2796,
      "heav": 2797,
      "und": 2798,
      "caught": 2799,
      "neuro": 2800,
      "dered": 2801,
      "contr": 2802,
      "sely": 2803,
      "prefer": 2804,
      "ified": 2805,
      "poor": 2806,
      "comb": 2807,
      "knows": 2808,
      "itted": 2809,
      "events": 2810,
      "iled": 2811,
      "disco": 2812,
      "strang": 2813,
      "gue": 2814,
      "held": 2815,
      "tech": 2816,
      "field": 2817,
      "helped": 2818,
      "offic": 2819,
      "cares": 2820,
      "standing": 2821,
      "version": 2822,
      "ashion": 2823,
      "studying": 2824,
      "folks": 2825,
      "vision": 2826,
      "regular": 2827,
      "ordin": 2828,
      "truthful": 2829,
      "benef": 2830,
      "experienced": 2831,
      "growing": 2832,
      "ridiculous": 2833,
      "teacher": 2834,
      "equally": 2835,
      "fingers": 2836,
      "effects": 2837,
      "practice": 2838,
      "miles": 2839,
      "yeah": 2840,
      "psycho": 2841,
      "episode": 2842,
      "jolly": 2843,
      "coffe": 2844,
      "dun": 2845,
      "fashion": 2846,
      "gin": 2847,
      "nur": 2848,
      "pound": 2849,
      "rac": 2850,
      "scar": 2851,
      "size": 2852,
      "tad": 2853,
      "twit": 2854,
      "uk": 2855,
      "wers": 2856,
      "ats": 2857,
      "online": 2858,
      "ences": 2859,
      "ands": 2860,
      "ory": 2861,
      "leep": 2862,
      "asleep": 2863,
      "beside": 2864,
      "artic": 2865,
      "kes": 2866,
      "sequ": 2867,
      "aband": 2868,
      "esday": 2869,
      "moved": 2870,
      "rock": 2871,
      "cos": 2872,
      "heat": 2873,
      "unable": 2874,
      "weve": 2875,
      "note": 2876,
      "alled": 2877,
      "ceed": 2878,
      "previous": 2879,
      "exper": 2880,
      "perspe": 2881,
      "shut": 2882,
      "shif": 2883,
      "spite": 2884,
      "spring": 2885,
      "provide": 2886,
      "reader": 2887,
      "grat": 2888,
      "ures": 2889,
      "relig": 2890,
      "history": 2891,
      "finan": 2892,
      "brush": 2893,
      "letter": 2894,
      "keeps": 2895,
      "satur": 2896,
      "blogs": 2897,
      "brown": 2898,
      "resigned": 2899,
      "sweat": 2900,
      "harder": 2901,
      "shop": 2902,
      "seemed": 2903,
      "mater": 2904,
      "skills": 2905,
      "becomes": 2906,
      "products": 2907,
      "tough": 2908,
      "decisions": 2909,
      "pieces": 2910,
      "interested": 2911,
      "pursu": 2912,
      "sounds": 2913,
      "liter": 2914,
      "mentioned": 2915,
      "hung": 2916,
      "swim": 2917,
      "journal": 2918,
      "holidays": 2919,
      "natural": 2920,
      "noticed": 2921,
      "normally": 2922,
      "likely": 2923,
      "chocolate": 2924,
      "individual": 2925,
      "jesus": 2926,
      "mouth": 2927,
      "coffee": 2928,
      "perspective": 2929,
      "ared": 2930,
      "blow": 2931,
      "bath": 2932,
      "ffe": 2933,
      "fle": 2934,
      "langu": 2935,
      "mount": 2936,
      "pack": 2937,
      "ride": 2938,
      "site": 2939,
      "wl": 2940,
      "wimp": 2941,
      "ya": 2942,
      "yell": 2943,
      "zz": 2944,
      "ince": 2945,
      "instant": 2946,
      "atic": 2947,
      "tool": 2948,
      "oned": 2949,
      "album": 2950,
      "ars": 2951,
      "arily": 2952,
      "session": 2953,
      "till": 2954,
      "local": 2955,
      "motion": 2956,
      "acy": 2957,
      "hol": 2958,
      "cook": 2959,
      "dog": 2960,
      "dom": 2961,
      "wered": 2962,
      "neck": 2963,
      "dem": 2964,
      "ury": 2965,
      "pol": 2966,
      "tte": 2967,
      "common": 2968,
      "shir": 2969,
      "anywhere": 2970,
      "agu": 2971,
      "bot": 2972,
      "otherwise": 2973,
      "diet": 2974,
      "stru": 2975,
      "grab": 2976,
      "achieve": 2977,
      "afterwards": 2978,
      "page": 2979,
      "pride": 2980,
      "manage": 2981,
      "ief": 2982,
      "realise": 2983,
      "passing": 2984,
      "treas": 2985,
      "headache": 2986,
      "solution": 2987,
      "shopping": 2988,
      "handle": 2989,
      "distance": 2990,
      "sorrow": 2991,
      "obli": 2992,
      "muscles": 2993,
      "study": 2994,
      "inspir": 2995,
      "attack": 2996,
      "male": 2997,
      "hopefully": 2998,
      "views": 2999,
      "regret": 3000,
      "considering": 3001,
      "basically": 3002,
      "respon": 3003,
      "games": 3004,
      "drop": 3005,
      "example": 3006,
      "occas": 3007,
      "pregnancy": 3008,
      "continued": 3009,
      "victimized": 3010,
      "lady": 3011,
      "approach": 3012,
      "performan": 3013,
      "govern": 3014,
      "record": 3015,
      "saturday": 3016,
      "ai": 3017,
      "bul": 3018,
      "eze": 3019,
      "gard": 3020,
      "hug": 3021,
      "ively": 3022,
      "kitch": 3023,
      "lu": 3024,
      "len": 3025,
      "ners": 3026,
      "rup": 3027,
      "rate": 3028,
      "sid": 3029,
      "sion": 3030,
      "sched": 3031,
      "tho": 3032,
      "rep": 3033,
      "recomm": 3034,
      "report": 3035,
      "stage": 3036,
      "aspe": 3037,
      "soo": 3038,
      "lion": 3039,
      "novel": 3040,
      "habit": 3041,
      "image": 3042,
      "wild": 3043,
      "hey": 3044,
      "unt": 3045,
      "doll": 3046,
      "cape": 3047,
      "dear": 3048,
      "magic": 3049,
      "pot": 3050,
      "pool": 3051,
      "compar": 3052,
      "shall": 3053,
      "indul": 3054,
      "hadnt": 3055,
      "plus": 3056,
      "quo": 3057,
      "lessons": 3058,
      "therefore": 3059,
      "intro": 3060,
      "actual": 3061,
      "contact": 3062,
      "ignor": 3063,
      "speaking": 3064,
      "shared": 3065,
      "cream": 3066,
      "parti": 3067,
      "coun": 3068,
      "brand": 3069,
      "babies": 3070,
      "swear": 3071,
      "married": 3072,
      "gym": 3073,
      "gods": 3074,
      "played": 3075,
      "burden": 3076,
      "showing": 3077,
      "north": 3078,
      "fearless": 3079,
      "check": 3080,
      "perfectly": 3081,
      "added": 3082,
      "planning": 3083,
      "annoying": 3084,
      "grown": 3085,
      "attitude": 3086,
      "touched": 3087,
      "message": 3088,
      "dealing": 3089,
      "draw": 3090,
      "univers": 3091,
      "failure": 3092,
      "idiot": 3093,
      "balance": 3094,
      "furious": 3095,
      "accomplished": 3096,
      "includ": 3097,
      "anticip": 3098,
      "improve": 3099,
      "obviously": 3100,
      "english": 3101,
      "gradu": 3102,
      "vacation": 3103,
      "invest": 3104,
      "focused": 3105,
      "professional": 3106,
      "embrace": 3107,
      "neurotic": 3108,
      "hungry": 3109,
      "wimpy": 3110,
      "instantly": 3111,
      "kitchen": 3112,
      "bat": 3113,
      "bird": 3114,
      "batt": 3115,
      "bunch": 3116,
      "dread": 3117,
      "eth": 3118,
      "gly": 3119,
      "ires": 3120,
      "kn": 3121,
      "ker": 3122,
      "mr": 3123,
      "mul": 3124,
      "pes": 3125,
      "pati": 3126,
      "sli": 3127,
      "sco": 3128,
      "squ": 3129,
      "scent": 3130,
      "twi": 3131,
      "task": 3132,
      "timid": 3133,
      "tiny": 3134,
      "uce": 3135,
      "topic": 3136,
      "ense": 3137,
      "alar": 3138,
      "isn": 3139,
      "beach": 3140,
      "arr": 3141,
      "socially": 3142,
      "chick": 3143,
      "ford": 3144,
      "forgive": 3145,
      "ado": 3146,
      "height": 3147,
      "unk": 3148,
      "cast": 3149,
      "somebody": 3150,
      "neither": 3151,
      "fulfill": 3152,
      "conven": 3153,
      "master": 3154,
      "worst": 3155,
      "ends": 3156,
      "aster": 3157,
      "willing": 3158,
      "wouldn": 3159,
      "herself": 3160,
      "dismay": 3161,
      "bored": 3162,
      "board": 3163,
      "ement": 3164,
      "sav": 3165,
      "save": 3166,
      "overly": 3167,
      "lifestyle": 3168,
      "ishing": 3169,
      "workers": 3170,
      "stor": 3171,
      "shouldn": 3172,
      "chosen": 3173,
      "bling": 3174,
      "izing": 3175,
      "brings": 3176,
      "angered": 3177,
      "minist": 3178,
      "nause": 3179,
      "confli": 3180,
      "craving": 3181,
      "ctions": 3182,
      "price": 3183,
      "points": 3184,
      "ibilities": 3185,
      "flat": 3186,
      "flash": 3187,
      "sky": 3188,
      "ativity": 3189,
      "mothers": 3190,
      "highly": 3191,
      "christian": 3192,
      "photograph": 3193,
      "driving": 3194,
      "respond": 3195,
      "sigh": 3196,
      "conversations": 3197,
      "protected": 3198,
      "clearly": 3199,
      "temper": 3200,
      "eventually": 3201,
      "thanksgiving": 3202,
      "publ": 3203,
      "finger": 3204,
      "gained": 3205,
      "america": 3206,
      "american": 3207,
      "ificant": 3208,
      "writer": 3209,
      "building": 3210,
      "families": 3211,
      "properly": 3212,
      "contribut": 3213,
      "potential": 3214,
      "graceful": 3215,
      "heavy": 3216,
      "language": 3217,
      "oblig": 3218,
      "occasion": 3219,
      "dismayed": 3220,
      "cum": 3221,
      "clim": 3222,
      "eve": 3223,
      "lunch": 3224,
      "mur": 3225,
      "match": 3226,
      "national": 3227,
      "ogle": 3228,
      "pace": 3229,
      "rise": 3230,
      "random": 3231,
      "scr": 3232,
      "text": 3233,
      "vated": 3234,
      "wound": 3235,
      "inking": 3236,
      "eliness": 3237,
      "requ": 3238,
      "reci": 3239,
      "research": 3240,
      "tone": 3241,
      "ening": 3242,
      "ison": 3243,
      "bear": 3244,
      "nobody": 3245,
      "ham": 3246,
      "imately": 3247,
      "cher": 3248,
      "abilities": 3249,
      "vert": 3250,
      "lock": 3251,
      "utr": 3252,
      "outfit": 3253,
      "butter": 3254,
      "button": 3255,
      "cop": 3256,
      "google": 3257,
      "anted": 3258,
      "west": 3259,
      "cake": 3260,
      "capt": 3261,
      "caused": 3262,
      "deb": 3263,
      "degre": 3264,
      "uses": 3265,
      "terms": 3266,
      "maint": 3267,
      "areas": 3268,
      "pos": 3269,
      "anybody": 3270,
      "aggra": 3271,
      "quality": 3272,
      "lesson": 3273,
      "thinks": 3274,
      "sake": 3275,
      "needing": 3276,
      "dig": 3277,
      "starts": 3278,
      "store": 3279,
      "tea": 3280,
      "helps": 3281,
      "shame": 3282,
      "prof": 3283,
      "hearts": 3284,
      "classes": 3285,
      "logy": 3286,
      "freak": 3287,
      "freaking": 3288,
      "fellow": 3289,
      "typing": 3290,
      "parts": 3291,
      "mission": 3292,
      "ugs": 3293,
      "carry": 3294,
      "crit": 3295,
      "bookmark": 3296,
      "childhood": 3297,
      "market": 3298,
      "headed": 3299,
      "overwhelming": 3300,
      "buying": 3301,
      "easier": 3302,
      "barely": 3303,
      "loneliness": 3304,
      "consist": 3305,
      "belief": 3306,
      "atively": 3307,
      "cried": 3308,
      "sexy": 3309,
      "custo": 3310,
      "holding": 3311,
      "personality": 3312,
      "marks": 3313,
      "spiritual": 3314,
      "scene": 3315,
      "enges": 3316,
      "depth": 3317,
      "memory": 3318,
      "challenges": 3319,
      "facing": 3320,
      "cleaning": 3321,
      "advant": 3322,
      "advice": 3323,
      "concerned": 3324,
      "extent": 3325,
      "intention": 3326,
      "wedding": 3327,
      "doctor": 3328,
      "settle": 3329,
      "cards": 3330,
      "radi": 3331,
      "places": 3332,
      "complaining": 3333,
      "education": 3334,
      "affection": 3335,
      "behavior": 3336,
      "yoga": 3337,
      "activities": 3338,
      "routine": 3339,
      "wasted": 3340,
      "government": 3341,
      "recommend": 3342,
      "alarmed": 3343,
      "maintain": 3344,
      "aggravated": 3345,
      "bri": 3346,
      "bank": 3347,
      "bash": 3348,
      "cam": 3349,
      "crow": 3350,
      "dating": 3351,
      "email": 3352,
      "fy": 3353,
      "fro": 3354,
      "flight": 3355,
      "gar": 3356,
      "hh": 3357,
      "jer": 3358,
      "ko": 3359,
      "lun": 3360,
      "mm": 3361,
      "mber": 3362,
      "pse": 3363,
      "pra": 3364,
      "pred": 3365,
      "pink": 3366,
      "sam": 3367,
      "spre": 3368,
      "sci": 3369,
      "tro": 3370,
      "vol": 3371,
      "wis": 3372,
      "wine": 3373,
      "zzy": 3374,
      "init": 3375,
      "infor": 3376,
      "influ": 3377,
      "ani": 3378,
      "anal": 3379,
      "refresh": 3380,
      "tori": 3381,
      "onic": 3382,
      "ert": 3383,
      "ering": 3384,
      "altern": 3385,
      "ories": 3386,
      "meal": 3387,
      "bered": 3388,
      "lyric": 3389,
      "tively": 3390,
      "ama": 3391,
      "role": 3392,
      "ics": 3393,
      "goals": 3394,
      "usting": 3395,
      "neigh": 3396,
      "term": 3397,
      "concent": 3398,
      "poet": 3399,
      "shine": 3400,
      "evol": 3401,
      "ourselves": 3402,
      "acts": 3403,
      "trad": 3404,
      "guest": 3405,
      "aches": 3406,
      "yours": 3407,
      "green": 3408,
      "morose": 3409,
      "claim": 3410,
      "couch": 3411,
      "partly": 3412,
      "brit": 3413,
      "glass": 3414,
      "understood": 3415,
      "trees": 3416,
      "monday": 3417,
      "nap": 3418,
      "tells": 3419,
      "reflect": 3420,
      "firm": 3421,
      "wave": 3422,
      "waking": 3423,
      "surger": 3424,
      "hardly": 3425,
      "cuz": 3426,
      "mates": 3427,
      "values": 3428,
      "hoped": 3429,
      "london": 3430,
      "product": 3431,
      "safety": 3432,
      "horribly": 3433,
      "stayed": 3434,
      "student": 3435,
      "sympathy": 3436,
      "allowing": 3437,
      "images": 3438,
      "trouble": 3439,
      "adventure": 3440,
      "bringing": 3441,
      "efforts": 3442,
      "laughing": 3443,
      "treatment": 3444,
      "teenager": 3445,
      "struggled": 3446,
      "settled": 3447,
      "breathing": 3448,
      "writers": 3449,
      "familiar": 3450,
      "desperately": 3451,
      "apartment": 3452,
      "repeat": 3453,
      "specific": 3454,
      "recognize": 3455,
      "opinion": 3456,
      "pulled": 3457,
      "medicine": 3458,
      "energized": 3459,
      "discovered": 3460,
      "treasured": 3461,
      "multi": 3462,
      "spread": 3463,
      "ba": 3464,
      "bon": 3465,
      "bun": 3466,
      "bic": 3467,
      "cred": 3468,
      "ctor": 3469,
      "chair": 3470,
      "ds": 3471,
      "dred": 3472,
      "eg": 3473,
      "fly": 3474,
      "fell": 3475,
      "flying": 3476,
      "gers": 3477,
      "hitting": 3478,
      "ially": 3479,
      "itor": 3480,
      "jan": 3481,
      "lin": 3482,
      "mic": 3483,
      "oper": 3484,
      "pi": 3485,
      "ped": 3486,
      "pages": 3487,
      "sno": 3488,
      "snow": 3489,
      "send": 3490,
      "sour": 3491,
      "sight": 3492,
      "tch": 3493,
      "tex": 3494,
      "zer": 3495,
      "zed": 3496,
      "infe": 3497,
      "reve": 3498,
      "toms": 3499,
      "stro": 3500,
      "orig": 3501,
      "iss": 3502,
      "mester": 3503,
      "ley": 3504,
      "ashes": 3505,
      "beating": 3506,
      "sooo": 3507,
      "lied": 3508,
      "whil": 3509,
      "chas": 3510,
      "escape": 3511,
      "outs": 3512,
      "forced": 3513,
      "identi": 3514,
      "suit": 3515,
      "suic": 3516,
      "coll": 3517,
      "unwanted": 3518,
      "unsuccessful": 3519,
      "unworthy": 3520,
      "deed": 3521,
      "justice": 3522,
      "consu": 3523,
      "aren": 3524,
      "prepared": 3525,
      "expo": 3526,
      "exception": 3527,
      "perce": 3528,
      "perman": 3529,
      "shar": 3530,
      "aint": 3531,
      "aging": 3532,
      "agon": 3533,
      "ctly": 3534,
      "whos": 3535,
      "whose": 3536,
      "plans": 3537,
      "quit": 3538,
      "hero": 3539,
      "discover": 3540,
      "provid": 3541,
      "affect": 3542,
      "assist": 3543,
      "fold": 3544,
      "struct": 3545,
      "loves": 3546,
      "cks": 3547,
      "relief": 3548,
      "teaching": 3549,
      "appalled": 3550,
      "shape": 3551,
      "print": 3552,
      "frequ": 3553,
      "smiling": 3554,
      "mini": 3555,
      "nail": 3556,
      "cru": 3557,
      "crush": 3558,
      "option": 3559,
      "painting": 3560,
      "marri": 3561,
      "excitem": 3562,
      "breaking": 3563,
      "begun": 3564,
      "closed": 3565,
      "player": 3566,
      "voc": 3567,
      "burst": 3568,
      "blessings": 3569,
      "stronger": 3570,
      "shows": 3571,
      "shower": 3572,
      "succeed": 3573,
      "greater": 3574,
      "admired": 3575,
      "produce": 3576,
      "frustration": 3577,
      "bigger": 3578,
      "cycle": 3579,
      "compare": 3580,
      "adding": 3581,
      "possibility": 3582,
      "cript": 3583,
      "below": 3584,
      "ieving": 3585,
      "breakfast": 3586,
      "reminder": 3587,
      "drove": 3588,
      "experiencing": 3589,
      "exams": 3590,
      "picked": 3591,
      "hundred": 3592,
      "teachers": 3593,
      "gifts": 3594,
      "powerful": 3595,
      "walls": 3596,
      "capable": 3597,
      "receiving": 3598,
      "radio": 3599,
      "dancing": 3600,
      "desperate": 3601,
      "throat": 3602,
      "drama": 3603,
      "confess": 3604,
      "political": 3605,
      "splend": 3606,
      "increasingly": 3607,
      "bbish": 3608,
      "details": 3609,
      "employ": 3610,
      "flawless": 3611,
      "giggly": 3612,
      "therapy": 3613,
      "strangely": 3614,
      "twitter": 3615,
      "shift": 3616,
      "spiteful": 3617,
      "gratitude": 3618,
      "material": 3619,
      "literally": 3620,
      "mountain": 3621,
      "response": 3622,
      "performance": 3623,
      "garden": 3624,
      "quote": 3625,
      "introdu": 3626,
      "university": 3627,
      "recipe": 3628,
      "degree": 3629,
      "lyrics": 3630,
      "neighbor": 3631,
      "surgery": 3632,
      "reveal": 3633,
      "whilst": 3634,
      "excitement": 3635,
      "aver": 3636,
      "awhile": 3637,
      "bread": 3638,
      "cul": 3639,
      "cough": 3640,
      "cket": 3641,
      "ded": 3642,
      "duty": 3643,
      "fal": 3644,
      "fits": 3645,
      "gas": 3646,
      "gay": 3647,
      "ik": 3648,
      "kin": 3649,
      "loud": 3650,
      "mate": 3651,
      "oil": 3652,
      "ots": 3653,
      "pity": 3654,
      "plot": 3655,
      "pump": 3656,
      "packing": 3657,
      "ror": 3658,
      "rar": 3659,
      "slo": 3660,
      "tim": 3661,
      "tun": 3662,
      "tempt": 3663,
      "zone": 3664,
      "thod": 3665,
      "feature": 3666,
      "recall": 3667,
      "refer": 3668,
      "ato": 3669,
      "erous": 3670,
      "enraged": 3671,
      "stair": 3672,
      "ork": 3673,
      "ises": 3674,
      "meat": 3675,
      "aries": 3676,
      "kets": 3677,
      "whis": 3678,
      "whine": 3679,
      "setting": 3680,
      "imm": 3681,
      "imate": 3682,
      "forgot": 3683,
      "ids": 3684,
      "moist": 3685,
      "access": 3686,
      "enty": 3687,
      "hosp": 3688,
      "coz": 3689,
      "ulation": 3690,
      "youve": 3691,
      "weigh": 3692,
      "ustry": 3693,
      "peers": 3694,
      "dece": 3695,
      "conserv": 3696,
      "consequ": 3697,
      "rare": 3698,
      "prep": 3699,
      "exhibit": 3700,
      "iff": 3701,
      "tta": 3702,
      "compet": 3703,
      "shed": 3704,
      "industry": 3705,
      "illy": 3706,
      "plenty": 3707,
      "lessly": 3708,
      "spin": 3709,
      "spar": 3710,
      "sphere": 3711,
      "everywhere": 3712,
      "track": 3713,
      "dign": 3714,
      "grade": 3715,
      "ears": 3716,
      "startled": 3717,
      "background": 3718,
      "contain": 3719,
      "join": 3720,
      "chose": 3721,
      "grew": 3722,
      "apparent": 3723,
      "belly": 3724,
      "shadow": 3725,
      "creating": 3726,
      "creativity": 3727,
      "cloud": 3728,
      "realised": 3729,
      "phr": 3730,
      "tension": 3731,
      "answers": 3732,
      "nights": 3733,
      "minor": 3734,
      "remembered": 3735,
      "refuse": 3736,
      "lighter": 3737,
      "presented": 3738,
      "paint": 3739,
      "pained": 3740,
      "painful": 3741,
      "resist": 3742,
      "bedroom": 3743,
      "atives": 3744,
      "runs": 3745,
      "breast": 3746,
      "craft": 3747,
      "closer": 3748,
      "vote": 3749,
      "mature": 3750,
      "colour": 3751,
      "colors": 3752,
      "burn": 3753,
      "fears": 3754,
      "charmed": 3755,
      "drinking": 3756,
      "pics": 3757,
      "surprise": 3758,
      "symp": 3759,
      "convince": 3760,
      "jealousy": 3761,
      "states": 3762,
      "incredible": 3763,
      "base": 3764,
      "basis": 3765,
      "itional": 3766,
      "collection": 3767,
      "avail": 3768,
      "expectations": 3769,
      "connected": 3770,
      "slut": 3771,
      "statement": 3772,
      "screen": 3773,
      "receive": 3774,
      "warmth": 3775,
      "reached": 3776,
      "faster": 3777,
      "fighting": 3778,
      "celebrate": 3779,
      "football": 3780,
      "pattern": 3781,
      "smoo": 3782,
      "arrived": 3783,
      "washing": 3784,
      "screaming": 3785,
      "encourage": 3786,
      "heaven": 3787,
      "ordinary": 3788,
      "benefit": 3789,
      "financial": 3790,
      "bottom": 3791,
      "sides": 3792,
      "schedu": 3793,
      "particip": 3794,
      "affectionate": 3795,
      "poetry": 3796,
      "origin": 3797,
      "splendid": 3798,
      "average": 3799,
      "rarely": 3800,
      "stairs": 3801,
      "available": 3802,
      "aper": 3803,
      "aked": 3804,
      "bast": 3805,
      "camer": 3806,
      "dare": 3807,
      "dess": 3808,
      "drun": 3809,
      "dying": 3810,
      "dav": 3811,
      "glo": 3812,
      "gare": 3813,
      "gum": 3814,
      "hiding": 3815,
      "ient": 3816,
      "jam": 3817,
      "jack": 3818,
      "kat": 3819,
      "mill": 3820,
      "mild": 3821,
      "nast": 3822,
      "nia": 3823,
      "pm": 3824,
      "pin": 3825,
      "patient": 3826,
      "rous": 3827,
      "range": 3828,
      "sac": 3829,
      "sque": 3830,
      "tel": 3831,
      "tack": 3832,
      "uary": 3833,
      "van": 3834,
      "vicious": 3835,
      "third": 3836,
      "fever": 3837,
      "refe": 3838,
      "represent": 3839,
      "atta": 3840,
      "todd": 3841,
      "stances": 3842,
      "itar": 3843,
      "itions": 3844,
      "meas": 3845,
      "method": 3846,
      "aside": 3847,
      "sea": 3848,
      "seat": 3849,
      "likes": 3850,
      "moder": 3851,
      "moms": 3852,
      "ada": 3853,
      "adjust": 3854,
      "entered": 3855,
      "hole": 3856,
      "holy": 3857,
      "butt": 3858,
      "coat": 3859,
      "unkind": 3860,
      "unnecessary": 3861,
      "dogs": 3862,
      "youd": 3863,
      "youth": 3864,
      "webs": 3865,
      "causing": 3866,
      "fulfilled": 3867,
      "concl": 3868,
      "sele": 3869,
      "sell": 3870,
      "extend": 3871,
      "urge": 3872,
      "poli": 3873,
      "shell": 3874,
      "oughly": 3875,
      "cting": 3876,
      "plant": 3877,
      "plate": 3878,
      "ards": 3879,
      "span": 3880,
      "peoples": 3881,
      "umble": 3882,
      "emer": 3883,
      "intended": 3884,
      "saving": 3885,
      "strate": 3886,
      "stranger": 3887,
      "vibe": 3888,
      "hasnt": 3889,
      "achieved": 3890,
      "related": 3891,
      "release": 3892,
      "paid": 3893,
      "fire": 3894,
      "bla": 3895,
      "blind": 3896,
      "manner": 3897,
      "sition": 3898,
      "homework": 3899,
      "kinds": 3900,
      "stream": 3901,
      "iest": 3902,
      "ugg": 3903,
      "bloggers": 3904,
      "pleasure": 3905,
      "crack": 3906,
      "cramp": 3907,
      "crash": 3908,
      "refle": 3909,
      "presents": 3910,
      "oped": 3911,
      "survi": 3912,
      "marath": 3913,
      "calls": 3914,
      "serving": 3915,
      "exciting": 3916,
      "supported": 3917,
      "function": 3918,
      "deli": 3919,
      "cale": 3920,
      "effe": 3921,
      "value": 3922,
      "hopes": 3923,
      "talks": 3924,
      "admire": 3925,
      "pleasantly": 3926,
      "curity": 3927,
      "compli": 3928,
      "plane": 3929,
      "higher": 3930,
      "surprising": 3931,
      "mommy": 3932,
      "defend": 3933,
      "awfully": 3934,
      "sunshine": 3935,
      "opening": 3936,
      "groups": 3937,
      "custom": 3938,
      "status": 3939,
      "drag": 3940,
      "intellect": 3941,
      "ignore": 3942,
      "tongue": 3943,
      "block": 3944,
      "reminded": 3945,
      "unique": 3946,
      "changing": 3947,
      "younger": 3948,
      "paying": 3949,
      "harm": 3950,
      "occup": 3951,
      "finishing": 3952,
      "motivation": 3953,
      "favour": 3954,
      "flower": 3955,
      "flowers": 3956,
      "juli": 3957,
      "puppy": 3958,
      "feeding": 3959,
      "sugar": 3960,
      "pulling": 3961,
      "capac": 3962,
      "awareness": 3963,
      "regarding": 3964,
      "kicked": 3965,
      "responsible": 3966,
      "responsibility": 3967,
      "judged": 3968,
      "significant": 3969,
      "consciously": 3970,
      "artists": 3971,
      "nsive": 3972,
      "circum": 3973,
      "opinions": 3974,
      "mistakes": 3975,
      "animals": 3976,
      "companies": 3977,
      "abandoned": 3978,
      "shirt": 3979,
      "including": 3980,
      "anticipation": 3981,
      "tasks": 3982,
      "occasionally": 3983,
      "bashful": 3984,
      "suicide": 3985,
      "marriage": 3986,
      "whiney": 3987,
      "hospital": 3988,
      "camera": 3989,
      "marathon": 3990,
      "athe": 3991,
      "amy": 3992,
      "aunt": 3993,
      "ban": 3994,
      "bound": 3995,
      "bie": 3996,
      "bond": 3997,
      "bones": 3998,
      "bio": 3999,
      "bbing": 4000,
      "cel": 4001,
      "cous": 4002,
      "dv": 4003,
      "dump": 4004,
      "ech": 4005,
      "econ": 4006,
      "fate": 4007,
      "fig": 4008,
      "font": 4009,
      "ges": 4010,
      "gun": 4011,
      "gaz": 4012,
      "glim": 4013,
      "hill": 4014,
      "jub": 4015,
      "kit": 4016,
      "lud": 4017,
      "leng": 4018,
      "lacking": 4019,
      "nesday": 4020,
      "oce": 4021,
      "pac": 4022,
      "pour": 4023,
      "score": 4024,
      "udes": 4025,
      "va": 4026,
      "vas": 4027,
      "vic": 4028,
      "vint": 4029,
      "wra": 4030,
      "york": 4031,
      "zing": 4032,
      "thick": 4033,
      "inn": 4034,
      "indeed": 4035,
      "anced": 4036,
      "returned": 4037,
      "toes": 4038,
      "tomat": 4039,
      "enthus": 4040,
      "stare": 4041,
      "stance": 4042,
      "alo": 4043,
      "altogether": 4044,
      "alot": 4045,
      "asy": 4046,
      "assu": 4047,
      "associ": 4048,
      "beer": 4049,
      "argum": 4050,
      "soli": 4051,
      "soph": 4052,
      "lil": 4053,
      "liber": 4054,
      "libr": 4055,
      "nose": 4056,
      "secure": 4057,
      "semester": 4058,
      "immen": 4059,
      "chi": 4060,
      "chat": 4061,
      "chase": 4062,
      "ays": 4063,
      "tips": 4064,
      "outgoing": 4065,
      "outcome": 4066,
      "mob": 4067,
      "moon": 4068,
      "mode": 4069,
      "motor": 4070,
      "roy": 4071,
      "suspect": 4072,
      "homo": 4073,
      "cope": 4074,
      "uncle": 4075,
      "unknown": 4076,
      "icrous": 4077,
      "web": 4078,
      "wet": 4079,
      "pered": 4080,
      "petri": 4081,
      "caffe": 4082,
      "conside": 4083,
      "condu": 4084,
      "raising": 4085,
      "update": 4086,
      "ples": 4087,
      "worn": 4088,
      "prepar": 4089,
      "poem": 4090,
      "cancer": 4091,
      "compassion": 4092,
      "compared": 4093,
      "illness": 4094,
      "makeup": 4095,
      "hadn": 4096,
      "quar": 4097,
      "oken": 4098,
      "cigare": 4099,
      "bow": 4100,
      "overcome": 4101,
      "tics": 4102,
      "granted": 4103,
      "vibr": 4104,
      "friendship": 4105,
      "joke": 4106,
      "relate": 4107,
      "releas": 4108,
      "angel": 4109,
      "shoulder": 4110,
      "speed": 4111,
      "apple": 4112,
      "blur": 4113,
      "wondered": 4114,
      "moral": 4115,
      "creep": 4116,
      "ists": 4117,
      "park": 4118,
      "studi": 4119,
      "glasses": 4120,
      "member": 4121,
      "letters": 4122,
      "puts": 4123,
      "decor": 4124,
      "naked": 4125,
      "lights": 4126,
      "tribut": 4127,
      "resour": 4128,
      "minds": 4129,
      "serve": 4130,
      "shots": 4131,
      "hurting": 4132,
      "clothing": 4133,
      "valid": 4134,
      "priv": 4135,
      "prior": 4136,
      "gia": 4137,
      "incident": 4138,
      "tuesday": 4139,
      "slept": 4140,
      "humans": 4141,
      "satisf": 4142,
      "learnt": 4143,
      "rooms": 4144,
      "ffic": 4145,
      "distin": 4146,
      "steal": 4147,
      "classroom": 4148,
      "cheated": 4149,
      "cheap": 4150,
      "checking": 4151,
      "admitted": 4152,
      "xture": 4153,
      "laund": 4154,
      "object": 4155,
      "rule": 4156,
      "sorts": 4157,
      "jobs": 4158,
      "international": 4159,
      "curl": 4160,
      "fiction": 4161,
      "planet": 4162,
      "matters": 4163,
      "violence": 4164,
      "condition": 4165,
      "differently": 4166,
      "draft": 4167,
      "interests": 4168,
      "airport": 4169,
      "fitness": 4170,
      "darling": 4171,
      "grounded": 4172,
      "failing": 4173,
      "despised": 4174,
      "growth": 4175,
      "scen": 4176,
      "engage": 4177,
      "expensive": 4178,
      "portray": 4179,
      "faces": 4180,
      "protect": 4181,
      "continues": 4182,
      "corn": 4183,
      "concern": 4184,
      "wednesday": 4185,
      "docum": 4186,
      "bags": 4187,
      "stars": 4188,
      "ladies": 4189,
      "witness": 4190,
      "floor": 4191,
      "million": 4192,
      "placed": 4193,
      "subjects": 4194,
      "responsibilities": 4195,
      "development": 4196,
      "judge": 4197,
      "items": 4198,
      "tranquil": 4199,
      "boost": 4200,
      "discussions": 4201,
      "nicely": 4202,
      "sessions": 4203,
      "majority": 4204,
      "surrounded": 4205,
      "explore": 4206,
      "attending": 4207,
      "ridiculously": 4208,
      "dunno": 4209,
      "scary": 4210,
      "religion": 4211,
      "inspiration": 4212,
      "reply": 4213,
      "aspects": 4214,
      "battle": 4215,
      "chicken": 4216,
      "conveni": 4217,
      "nauseous": 4218,
      "temperature": 4219,
      "radiant": 4220,
      "predict": 4221,
      "identify": 4222,
      "providing": 4223,
      "structure": 4224,
      "spark": 4225,
      "symptoms": 4226,
      "smooth": 4227,
      "schedule": 4228,
      "drunk": 4229,
      "nasty": 4230,
      "modern": 4231,
      "website": 4232,
      "ludicrous": 4233,
      "vintage": 4234,
      "enthusi": 4235,
      "library": 4236,
      "petrified": 4237,
      "considered": 4238,
      "laundry": 4239,
      "aur": 4240,
      "bf": 4241,
      "bay": 4242,
      "bare": 4243,
      "bble": 4244,
      "cit": 4245,
      "camp": 4246,
      "dor": 4247,
      "dry": 4248,
      "eight": 4249,
      "euro": 4250,
      "gt": 4251,
      "han": 4252,
      "hall": 4253,
      "hence": 4254,
      "ii": 4255,
      "iv": 4256,
      "ja": 4257,
      "jon": 4258,
      "jim": 4259,
      "kar": 4260,
      "lashes": 4261,
      "mc": 4262,
      "mp": 4263,
      "mir": 4264,
      "mirr": 4265,
      "nof": 4266,
      "nes": 4267,
      "nutr": 4268,
      "ox": 4269,
      "pit": 4270,
      "pas": 4271,
      "phas": 4272,
      "pang": 4273,
      "pants": 4274,
      "ron": 4275,
      "ram": 4276,
      "rated": 4277,
      "rhy": 4278,
      "sis": 4279,
      "sses": 4280,
      "scale": 4281,
      "tum": 4282,
      "ux": 4283,
      "vive": 4284,
      "vil": 4285,
      "waste": 4286,
      "zen": 4287,
      "thigh": 4288,
      "inj": 4289,
      "inated": 4290,
      "independ": 4291,
      "feelin": 4292,
      "inge": 4293,
      "reaching": 4294,
      "remove": 4295,
      "ators": 4296,
      "toler": 4297,
      "ende": 4298,
      "ander": 4299,
      "sts": 4300,
      "itive": 4301,
      "ali": 4302,
      "ori": 4303,
      "ordered": 4304,
      "lemon": 4305,
      "sole": 4306,
      "whim": 4307,
      "security": 4308,
      "impress": 4309,
      "chill": 4310,
      "chem": 4311,
      "chemo": 4312,
      "china": 4313,
      "tire": 4314,
      "wid": 4315,
      "wide": 4316,
      "forth": 4317,
      "former": 4318,
      "forgotten": 4319,
      "model": 4320,
      "rob": 4321,
      "adult": 4322,
      "advert": 4323,
      "rican": 4324,
      "entry": 4325,
      "ung": 4326,
      "unfair": 4327,
      "unmotivated": 4328,
      "unfold": 4329,
      "ulate": 4330,
      "domin": 4331,
      "gear": 4332,
      "gold": 4333,
      "youll": 4334,
      "pee": 4335,
      "peter": 4336,
      "cafe": 4337,
      "someones": 4338,
      "aller": 4339,
      "pper": 4340,
      "dee": 4341,
      "deem": 4342,
      "decl": 4343,
      "demon": 4344,
      "raised": 4345,
      "raging": 4346,
      "prevent": 4347,
      "expressed": 4348,
      "endless": 4349,
      "ifically": 4350,
      "shout": 4351,
      "essenti": 4352,
      "ilant": 4353,
      "ollow": 4354,
      "display": 4355,
      "spr": 4356,
      "umps": 4357,
      "bom": 4358,
      "boss": 4359,
      "bott": 4360,
      "prove": 4361,
      "intens": 4362,
      "tick": 4363,
      "aff": 4364,
      "afford": 4365,
      "dizzy": 4366,
      "happily": 4367,
      "string": 4368,
      "medit": 4369,
      "friendships": 4370,
      "taught": 4371,
      "sheer": 4372,
      "context": 4373,
      "reli": 4374,
      "stores": 4375,
      "goods": 4376,
      "teeth": 4377,
      "greg": 4378,
      "grey": 4379,
      "paget": 4380,
      "speech": 4381,
      "apply": 4382,
      "believed": 4383,
      "mani": 4384,
      "sites": 4385,
      "eks": 4386,
      "creature": 4387,
      "clin": 4388,
      "clar": 4389,
      "welling": 4390,
      "desk": 4391,
      "typic": 4392,
      "awa": 4393,
      "frank": 4394,
      "smiled": 4395,
      "decent": 4396,
      "minim": 4397,
      "nails": 4398,
      "listened": 4399,
      "blogger": 4400,
      "cris": 4401,
      "waited": 4402,
      "lightly": 4403,
      "opened": 4404,
      "options": 4405,
      "bodies": 4406,
      "pains": 4407,
      "torn": 4408,
      "wallow": 4409,
      "surely": 4410,
      "surface": 4411,
      "marvel": 4412,
      "margin": 4413,
      "horse": 4414,
      "importance": 4415,
      "shot": 4416,
      "breeze": 4417,
      "seemingly": 4418,
      "closure": 4419,
      "closet": 4420,
      "giant": 4421,
      "handsome": 4422,
      "handled": 4423,
      "players": 4424,
      "humorous": 4425,
      "restaur": 4426,
      "trail": 4427,
      "gather": 4428,
      "skill": 4429,
      "threw": 4430,
      "admitting": 4431,
      "damage": 4432,
      "laid": 4433,
      "realization": 4434,
      "drugs": 4435,
      "elses": 4436,
      "ultimately": 4437,
      "wishing": 4438,
      "addic": 4439,
      "appointment": 4440,
      "movement": 4441,
      "allows": 4442,
      "dreaming": 4443,
      "defective": 4444,
      "eaten": 4445,
      "fabric": 4446,
      "oppos": 4447,
      "mixture": 4448,
      "driven": 4449,
      "followed": 4450,
      "avors": 4451,
      "legit": 4452,
      "expecting": 4453,
      "reminds": 4454,
      "connect": 4455,
      "machine": 4456,
      "names": 4457,
      "silence": 4458,
      "engine": 4459,
      "depending": 4460,
      "leader": 4461,
      "deserves": 4462,
      "pushing": 4463,
      "tempor": 4464,
      "steps": 4465,
      "sisters": 4466,
      "osity": 4467,
      "questioning": 4468,
      "equal": 4469,
      "aneously": 4470,
      "intense": 4471,
      "intensely": 4472,
      "figured": 4473,
      "practic": 4474,
      "connections": 4475,
      "thoroughly": 4476,
      "struggles": 4477,
      "killing": 4478,
      "killed": 4479,
      "laying": 4480,
      "smoke": 4481,
      "oddly": 4482,
      "affected": 4483,
      "streets": 4484,
      "repeated": 4485,
      "appearance": 4486,
      "naturally": 4487,
      "circle": 4488,
      "hanging": 4489,
      "sandwi": 4490,
      "specifically": 4491,
      "grief": 4492,
      "conference": 4493,
      "boots": 4494,
      "mixed": 4495,
      "apologize": 4496,
      "discussing": 4497,
      "announ": 4498,
      "companion": 4499,
      "accidentally": 4500,
      "various": 4501,
      "attracted": 4502,
      "combination": 4503,
      "techni": 4504,
      "psycholog": 4505,
      "pounds": 4506,
      "article": 4507,
      "experiment": 4508,
      "pursue": 4509,
      "patients": 4510,
      "twice": 4511,
      "photography": 4512,
      "obligation": 4513,
      "require": 4514,
      "critical": 4515,
      "consistently": 4516,
      "crowd": 4517,
      "concentrate": 4518,
      "guests": 4519,
      "british": 4520,
      "perceive": 4521,
      "prepare": 4522,
      "competition": 4523,
      "phrase": 4524,
      "slutty": 4525,
      "participate": 4526,
      "bastard": 4527,
      "david": 4528,
      "conclusion": 4529,
      "circumstances": 4530,
      "cousin": 4531,
      "private": 4532,
      "nofollow": 4533,
      "opposite": 4534,
      "apri": 4535,
      "austr": 4536,
      "bill": 4537,
      "billy": 4538,
      "cd": 4539,
      "cand": 4540,
      "cell": 4541,
      "egr": 4542,
      "fb": 4543,
      "hits": 4544,
      "hilar": 4545,
      "ito": 4546,
      "ilo": 4547,
      "ifor": 4548,
      "jun": 4549,
      "jap": 4550,
      "junk": 4551,
      "ka": 4552,
      "ku": 4553,
      "kne": 4554,
      "lou": 4555,
      "lbs": 4556,
      "lines": 4557,
      "mit": 4558,
      "mam": 4559,
      "mac": 4560,
      "muse": 4561,
      "nu": 4562,
      "nam": 4563,
      "nine": 4564,
      "narr": 4565,
      "oting": 4566,
      "px": 4567,
      "pill": 4568,
      "pil": 4569,
      "pile": 4570,
      "rat": 4571,
      "rating": 4572,
      "rising": 4573,
      "san": 4574,
      "script": 4575,
      "tan": 4576,
      "tat": 4577,
      "tang": 4578,
      "twent": 4579,
      "vell": 4580,
      "vagu": 4581,
      "wan": 4582,
      "wat": 4583,
      "wrest": 4584,
      "wished": 4585,
      "woken": 4586,
      "yy": 4587,
      "yay": 4588,
      "yard": 4589,
      "zo": 4590,
      "tha": 4591,
      "thir": 4592,
      "inev": 4593,
      "elder": 4594,
      "female": 4595,
      "remark": 4596,
      "recover": 4597,
      "reacting": 4598,
      "atmo": 4599,
      "tour": 4600,
      "tober": 4601,
      "oul": 4602,
      "ency": 4603,
      "stit": 4604,
      "stain": 4605,
      "sters": 4606,
      "staring": 4607,
      "staff": 4608,
      "itled": 4609,
      "alu": 4610,
      "alex": 4611,
      "ision": 4612,
      "island": 4613,
      "lean": 4614,
      "asp": 4615,
      "ases": 4616,
      "army": 4617,
      "vey": 4618,
      "veins": 4619,
      "som": 4620,
      "liking": 4621,
      "nowhere": 4622,
      "hah": 4623,
      "hael": 4624,
      "section": 4625,
      "imin": 4626,
      "impo": 4627,
      "ching": 4628,
      "tip": 4629,
      "tied": 4630,
      "tiger": 4631,
      "aming": 4632,
      "lover": 4633,
      "loose": 4634,
      "force": 4635,
      "forum": 4636,
      "acad": 4637,
      "ador": 4638,
      "address": 4639,
      "entries": 4640,
      "cost": 4641,
      "code": 4642,
      "hehe": 4643,
      "heck": 4644,
      "heels": 4645,
      "unlike": 4646,
      "unexpected": 4647,
      "unprotected": 4648,
      "doors": 4649,
      "ication": 4650,
      "gotta": 4651,
      "anta": 4652,
      "antsy": 4653,
      "notes": 4654,
      "catho": 4655,
      "irate": 4656,
      "depart": 4657,
      "constru": 4658,
      "raw": 4659,
      "usive": 4660,
      "max": 4661,
      "magn": 4662,
      "mails": 4663,
      "causes": 4664,
      "selling": 4665,
      "prec": 4666,
      "pret": 4667,
      "exe": 4668,
      "ender": 4669,
      "ify": 4670,
      "powered": 4671,
      "canvas": 4672,
      "perverse": 4673,
      "perception": 4674,
      "agers": 4675,
      "bye": 4676,
      "evalu": 4677,
      "bits": 4678,
      "theyd": 4679,
      "beings": 4680,
      "dish": 4681,
      "dislike": 4682,
      "dishes": 4683,
      "disadvant": 4684,
      "cies": 4685,
      "everytime": 4686,
      "everybody": 4687,
      "ets": 4688,
      "integr": 4689,
      "sage": 4690,
      "mud": 4691,
      "grin": 4692,
      "guitar": 4693,
      "hellip": 4694,
      "medical": 4695,
      "worker": 4696,
      "seek": 4697,
      "seeking": 4698,
      "contem": 4699,
      "stone": 4700,
      "wore": 4701,
      "goodness": 4702,
      "rights": 4703,
      "shoulders": 4704,
      "sons": 4705,
      "apping": 4706,
      "applic": 4707,
      "blan": 4708,
      "believing": 4709,
      "prim": 4710,
      "werent": 4711,
      "homes": 4712,
      "stretch": 4713,
      "despair": 4714,
      "desires": 4715,
      "realistic": 4716,
      "parties": 4717,
      "ization": 4718,
      "jection": 4719,
      "jewel": 4720,
      "fru": 4721,
      "foreign": 4722,
      "brid": 4723,
      "finds": 4724,
      "philo": 4725,
      "answered": 4726,
      "standards": 4727,
      "ucks": 4728,
      "carried": 4729,
      "cringe": 4730,
      "remembering": 4731,
      "https": 4732,
      "generation": 4733,
      "resses": 4734,
      "acceptance": 4735,
      "headaches": 4736,
      "shoot": 4737,
      "excuse": 4738,
      "excell": 4739,
      "center": 4740,
      "centered": 4741,
      "prize": 4742,
      "venture": 4743,
      "complex": 4744,
      "handed": 4745,
      "tube": 4746,
      "bud": 4747,
      "bution": 4748,
      "burger": 4749,
      "califor": 4750,
      "flor": 4751,
      "ski": 4752,
      "amazingly": 4753,
      "cutting": 4754,
      "eyel": 4755,
      "stepped": 4756,
      "classic": 4757,
      "cheeks": 4758,
      "deny": 4759,
      "merely": 4760,
      "foundation": 4761,
      "pressing": 4762,
      "versary": 4763,
      "offensive": 4764,
      "biggest": 4765,
      "comprom": 4766,
      "commit": 4767,
      "turns": 4768,
      "planned": 4769,
      "gross": 4770,
      "folk": 4771,
      "visiting": 4772,
      "visited": 4773,
      "virgin": 4774,
      "warning": 4775,
      "disappointment": 4776,
      "sexually": 4777,
      "regain": 4778,
      "holds": 4779,
      "definition": 4780,
      "fallen": 4781,
      "mike": 4782,
      "fortunately": 4783,
      "court": 4784,
      "skinny": 4785,
      "sip": 4786,
      "nostalgia": 4787,
      "disgusting": 4788,
      "sentence": 4789,
      "benevol": 4790,
      "limit": 4791,
      "vigorous": 4792,
      "silent": 4793,
      "silently": 4794,
      "expression": 4795,
      "leading": 4796,
      "prayer": 4797,
      "prayed": 4798,
      "prayers": 4799,
      "october": 4800,
      "director": 4801,
      "laughed": 4802,
      "powerless": 4803,
      "pathize": 4804,
      "levels": 4805,
      "searching": 4806,
      "continuing": 4807,
      "offering": 4808,
      "grandmother": 4809,
      "corner": 4810,
      "hyper": 4811,
      "puzz": 4812,
      "feedback": 4813,
      "concerns": 4814,
      "worrying": 4815,
      "chap": 4816,
      "seasons": 4817,
      "accord": 4818,
      "doctors": 4819,
      "balls": 4820,
      "dads": 4821,
      "settling": 4822,
      "belonging": 4823,
      "regardless": 4824,
      "kicks": 4825,
      "devote": 4826,
      "flies": 4827,
      "milk": 4828,
      "milli": 4829,
      "snack": 4830,
      "catching": 4831,
      "promise": 4832,
      "thrown": 4833,
      "loads": 4834,
      "transition": 4835,
      "sensation": 4836,
      "sucks": 4837,
      "designers": 4838,
      "traveling": 4839,
      "suggestions": 4840,
      "panic": 4841,
      "communicate": 4842,
      "brighter": 4843,
      "crossed": 4844,
      "officially": 4845,
      "previously": 4846,
      "religious": 4847,
      "financially": 4848,
      "individuals": 4849,
      "bathroom": 4850,
      "ffed": 4851,
      "tools": 4852,
      "polite": 4853,
      "agues": 4854,
      "inspiring": 4855,
      "lenses": 4856,
      "aspect": 4857,
      "habits": 4858,
      "dollars": 4859,
      "comparison": 4860,
      "ignoring": 4861,
      "storm": 4862,
      "publishing": 4863,
      "contribute": 4864,
      "copy": 4865,
      "carrying": 4866,
      "beliefs": 4867,
      "customer": 4868,
      "depths": 4869,
      "advantage": 4870,
      "praise": 4871,
      "wisdom": 4872,
      "initial": 4873,
      "informed": 4874,
      "anime": 4875,
      "analy": 4876,
      "traditional": 4877,
      "exceptionally": 4878,
      "frequently": 4879,
      "neighborhood": 4880,
      "consequences": 4881,
      "dignified": 4882,
      "apparently": 4883,
      "clouds": 4884,
      "strategy": 4885,
      "customers": 4886,
      "favourite": 4887,
      "capacity": 4888,
      "glimpse": 4889,
      "jubilant": 4890,
      "length": 4891,
      "ocean": 4892,
      "solid": 4893,
      "caffeine": 4894,
      "tribute": 4895,
      "convenience": 4896,
      "citiz": 4897,
      "mirror": 4898,
      "nutrition": 4899,
      "phase": 4900,
      "rhyth": 4901,
      "injury": 4902,
      "width": 4903,
      "bottle": 4904,
      "intensity": 4905,
      "pagetitle": 4906,
      "frankly": 4907,
      "restaurant": 4908,
      "repeatedly": 4909,
      "april": 4910,
      "austral": 4911,
      "twenty": 4912,
      "vaguely": 4913,
      "atmosphere": 4914,
      "academ": 4915,
      "catholic": 4916,
      "disadvantaged": 4917,
      "jewelry": 4918,
      "benevolent": 4919,
      "award": 4920,
      "bt": 4921,
      "bid": 4922,
      "bia": 4923,
      "bah": 4924,
      "cc": 4925,
      "cab": 4926,
      "cate": 4927,
      "dat": 4928,
      "dadd": 4929,
      "dresses": 4930,
      "ese": 4931,
      "eem": 4932,
      "eath": 4933,
      "etern": 4934,
      "emails": 4935,
      "fas": 4936,
      "fare": 4937,
      "fitting": 4938,
      "fandom": 4939,
      "gal": 4940,
      "gid": 4941,
      "gely": 4942,
      "gence": 4943,
      "hid": 4944,
      "hub": 4945,
      "ior": 4946,
      "ius": 4947,
      "ilet": 4948,
      "ki": 4949,
      "kno": 4950,
      "knot": 4951,
      "lli": 4952,
      "lam": 4953,
      "mous": 4954,
      "mart": 4955,
      "mush": 4956,
      "mask": 4957,
      "nar": 4958,
      "nag": 4959,
      "nig": 4960,
      "otic": 4961,
      "pon": 4962,
      "rum": 4963,
      "sch": 4964,
      "swallow": 4965,
      "santa": 4966,
      "tug": 4967,
      "tched": 4968,
      "uu": 4969,
      "uti": 4970,
      "uri": 4971,
      "uma": 4972,
      "vation": 4973,
      "vom": 4974,
      "ware": 4975,
      "xx": 4976,
      "za": 4977,
      "zom": 4978,
      "thous": 4979,
      "theless": 4980,
      "ino": 4981,
      "info": 4982,
      "elle": 4983,
      "fed": 4984,
      "remo": 4985,
      "reck": 4986,
      "replace": 4987,
      "revel": 4988,
      "recip": 4989,
      "theme": 4990,
      "theory": 4991,
      "atically": 4992,
      "tox": 4993,
      "toss": 4994,
      "toilet": 4995,
      "eds": 4996,
      "ena": 4997,
      "anding": 4998,
      "stash": 4999,
      "stroll": 5000,
      "itary": 5001,
      "itudes": 5002,
      "alco": 5003,
      "alright": 5004,
      "alized": 5005,
      "orph": 5006,
      "isa": 5007,
      "mere": 5008,
      "metal": 5009,
      "meals": 5010,
      "lee": 5011,
      "lest": 5012,
      "solo": 5013,
      "sold": 5014,
      "sooooo": 5015,
      "keys": 5016,
      "sets": 5017,
      "sewing": 5018,
      "impossible": 5019,
      "impression": 5020,
      "immature": 5021,
      "chine": 5022,
      "chances": 5023,
      "chris": 5024,
      "ams": 5025,
      "amps": 5026,
      "amorous": 5027,
      "abs": 5028,
      "lore": 5029,
      "loser": 5030,
      "wig": 5031,
      "formed": 5032,
      "forgiven": 5033,
      "acle": 5034,
      "account": 5035,
      "acles": 5036,
      "actively": 5037,
      "roots": 5038,
      "advoc": 5039,
      "rice": 5040,
      "riosity": 5041,
      "hoo": 5042,
      "unities": 5043,
      "uled": 5044,
      "ults": 5045,
      "dose": 5046,
      "geor": 5047,
      "ican": 5048,
      "wee": 5049,
      "neutr": 5050,
      "iring": 5051,
      "ppl": 5052,
      "demo": 5053,
      "concept": 5054,
      "consul": 5055,
      "condem": 5056,
      "upcoming": 5057,
      "upload": 5058,
      "atest": 5059,
      "powers": 5060,
      "canada": 5061,
      "perform": 5062,
      "commo": 5063,
      "compe": 5064,
      "ague": 5065,
      "odes": 5066,
      "essence": 5067,
      "evil": 5068,
      "whoever": 5069,
      "pled": 5070,
      "ques": 5071,
      "disorder": 5072,
      "disappear": 5073,
      "spur": 5074,
      "spell": 5075,
      "umn": 5076,
      "boat": 5077,
      "bold": 5078,
      "prov": 5079,
      "empowered": 5080,
      "saved": 5081,
      "affirm": 5082,
      "trusted": 5083,
      "struc": 5084,
      "grasp": 5085,
      "guide": 5086,
      "hello": 5087,
      "backs": 5088,
      "lower": 5089,
      "contest": 5090,
      "joh": 5091,
      "relatively": 5092,
      "anged": 5093,
      "angle": 5094,
      "histori": 5095,
      "choir": 5096,
      "greatest": 5097,
      "afterward": 5098,
      "misunderstood": 5099,
      "file": 5100,
      "apped": 5101,
      "impact": 5102,
      "blon": 5103,
      "suppre": 5104,
      "newborn": 5105,
      "icky": 5106,
      "manager": 5107,
      "morally": 5108,
      "moronic": 5109,
      "hearted": 5110,
      "cling": 5111,
      "desig": 5112,
      "fren": 5113,
      "freaked": 5114,
      "paris": 5115,
      "sink": 5116,
      "sinking": 5117,
      "trend": 5118,
      "cery": 5119,
      "esteem": 5120,
      "ugged": 5121,
      "lists": 5122,
      "famous": 5123,
      "president": 5124,
      "loop": 5125,
      "rainy": 5126,
      "brows": 5127,
      "comforted": 5128,
      "childish": 5129,
      "trick": 5130,
      "trips": 5131,
      "accepting": 5132,
      "surge": 5133,
      "survive": 5134,
      "mary": 5135,
      "marke": 5136,
      "marry": 5137,
      "heading": 5138,
      "solve": 5139,
      "hardcore": 5140,
      "shock": 5141,
      "saddened": 5142,
      "century": 5143,
      "begging": 5144,
      "valent": 5145,
      "incor": 5146,
      "curiosity": 5147,
      "slee": 5148,
      "humor": 5149,
      "humbled": 5150,
      "rences": 5151,
      "burnt": 5152,
      "blessing": 5153,
      "calories": 5154,
      "singapo": 5155,
      "showed": 5156,
      "trauma": 5157,
      "guessing": 5158,
      "skip": 5159,
      "dressed": 5160,
      "roommate": 5161,
      "substance": 5162,
      "consci": 5163,
      "distri": 5164,
      "steve": 5165,
      "checked": 5166,
      "cash": 5167,
      "charity": 5168,
      "lap": 5169,
      "positively": 5170,
      "rules": 5171,
      "rubbish": 5172,
      "honor": 5173,
      "sorta": 5174,
      "ultaneously": 5175,
      "wishes": 5176,
      "cyber": 5177,
      "musical": 5178,
      "wonderfully": 5179,
      "committed": 5180,
      "addition": 5181,
      "grocery": 5182,
      "tourist": 5183,
      "luckily": 5184,
      "countless": 5185,
      "punch": 5186,
      "walks": 5187,
      "parenting": 5188,
      "udge": 5189,
      "double": 5190,
      "resentment": 5191,
      "uncertainty": 5192,
      "elect": 5193,
      "suffe": 5194,
      "sumption": 5195,
      "wins": 5196,
      "sooner": 5197,
      "drawn": 5198,
      "drawing": 5199,
      "followers": 5200,
      "simultaneously": 5201,
      "colleagues": 5202,
      "truths": 5203,
      "expectation": 5204,
      "purchase": 5205,
      "thrill": 5206,
      "seconds": 5207,
      "darn": 5208,
      "insist": 5209,
      "moody": 5210,
      "beneath": 5211,
      "drown": 5212,
      "limited": 5213,
      "mainly": 5214,
      "engaged": 5215,
      "soup": 5216,
      "expense": 5217,
      "expressing": 5218,
      "leaders": 5219,
      "opportunities": 5220,
      "harsh": 5221,
      "lands": 5222,
      "latest": 5223,
      "midst": 5224,
      "explaining": 5225,
      "explained": 5226,
      "films": 5227,
      "switch": 5228,
      "description": 5229,
      "cleaned": 5230,
      "presentation": 5231,
      "tightly": 5232,
      "advance": 5233,
      "flowing": 5234,
      "temple": 5235,
      "appeared": 5236,
      "juice": 5237,
      "offers": 5238,
      "grandfather": 5239,
      "largely": 5240,
      "teenagers": 5241,
      "papers": 5242,
      "throwing": 5243,
      "glamour": 5244,
      "anese": 5245,
      "intentions": 5246,
      "practical": 5247,
      "regards": 5248,
      "include": 5249,
      "attempting": 5250,
      "flir": 5251,
      "network": 5252,
      "floating": 5253,
      "appropri": 5254,
      "challenged": 5255,
      "developed": 5256,
      "patri": 5257,
      "profess": 5258,
      "brothers": 5259,
      "avoiding": 5260,
      "risk": 5261,
      "sale": 5262,
      "arrive": 5263,
      "washed": 5264,
      "dramatic": 5265,
      "links": 5266,
      "politic": 5267,
      "quilting": 5268,
      "apologise": 5269,
      "bothering": 5270,
      "behaviors": 5271,
      "england": 5272,
      "heavi": 5273,
      "periods": 5274,
      "hatred": 5275,
      "activity": 5276,
      "existed": 5277,
      "potentially": 5278,
      "secretly": 5279,
      "jumped": 5280,
      "instin": 5281,
      "sports": 5282,
      "accomplishment": 5283,
      "pale": 5284,
      "rrrr": 5285,
      "attractive": 5286,
      "separate": 5287,
      "amongst": 5288,
      "strangers": 5289,
      "regularly": 5290,
      "nursing": 5291,
      "races": 5292,
      "swimming": 5293,
      "holly": 5294,
      "grabbed": 5295,
      "sorrowful": 5296,
      "attacks": 5297,
      "lux": 5298,
      "magical": 5299,
      "potato": 5300,
      "included": 5301,
      "knit": 5302,
      "patience": 5303,
      "scott": 5304,
      "adore": 5305,
      "savage": 5306,
      "murder": 5307,
      "scratch": 5308,
      "cherished": 5309,
      "butterflies": 5310,
      "debt": 5311,
      "science": 5312,
      "refreshed": 5313,
      "alternative": 5314,
      "multiple": 5315,
      "bonus": 5316,
      "credit": 5317,
      "snobbish": 5318,
      "zero": 5319,
      "stroke": 5320,
      "chasing": 5321,
      "outsider": 5322,
      "collar": 5323,
      "permanently": 5324,
      "sharp": 5325,
      "discovering": 5326,
      "hundreds": 5327,
      "introduce": 5328,
      "false": 5329,
      "tempted": 5330,
      "moisturi": 5331,
      "conservative": 5332,
      "heavenly": 5333,
      "original": 5334,
      "sacri": 5335,
      "squeeze": 5336,
      "attached": 5337,
      "police": 5338,
      "blame": 5339,
      "survived": 5340,
      "surprisingly": 5341,
      "julia": 5342,
      "boundaries": 5343,
      "dvd": 5344,
      "wrapped": 5345,
      "assume": 5346,
      "immensely": 5347,
      "mobile": 5348,
      "studio": 5349,
      "resources": 5350,
      "satisfaction": 5351,
      "scenes": 5352,
      "endeavors": 5353,
      "manifest": 5354,
      "clinic": 5355,
      "sandwich": 5356,
      "japanese": 5357,
      "philosoph": 5358,
      "excellent": 5359,
      "budget": 5360,
      "california": 5361,
      "millions": 5362,
      "hidden": 5363,
      "recipes": 5364,
      "chinese": 5365,
      "neutral": 5366,
      "singapore": 5367,
      "aut": 5368,
      "aust": 5369,
      "apathetic": 5370,
      "bby": 5371,
      "bour": 5372,
      "bell": 5373,
      "bage": 5374,
      "bible": 5375,
      "bucks": 5376,
      "cass": 5377,
      "dust": 5378,
      "dur": 5379,
      "dick": 5380,
      "dash": 5381,
      "dates": 5382,
      "easter": 5383,
      "fif": 5384,
      "fish": 5385,
      "gment": 5386,
      "gie": 5387,
      "gies": 5388,
      "gged": 5389,
      "hint": 5390,
      "hating": 5391,
      "hmm": 5392,
      "ium": 5393,
      "ji": 5394,
      "jas": 5395,
      "jaw": 5396,
      "kic": 5397,
      "lj": 5398,
      "lat": 5399,
      "lor": 5400,
      "lly": 5401,
      "lend": 5402,
      "lur": 5403,
      "mend": 5404,
      "mour": 5405,
      "meless": 5406,
      "nel": 5407,
      "nut": 5408,
      "nter": 5409,
      "num": 5410,
      "ome": 5411,
      "omy": 5412,
      "oly": 5413,
      "oking": 5414,
      "owl": 5415,
      "pine": 5416,
      "rs": 5417,
      "rant": 5418,
      "rough": 5419,
      "sab": 5420,
      "sig": 5421,
      "sna": 5422,
      "sions": 5423,
      "sche": 5424,
      "sending": 5425,
      "tant": 5426,
      "tast": 5427,
      "tread": 5428,
      "ues": 5429,
      "uber": 5430,
      "vin": 5431,
      "vill": 5432,
      "vine": 5433,
      "wen": 5434,
      "wder": 5435,
      "wrist": 5436,
      "wings": 5437,
      "xd": 5438,
      "xmas": 5439,
      "yu": 5440,
      "yar": 5441,
      "yall": 5442,
      "thom": 5443,
      "thors": 5444,
      "income": 5445,
      "inability": 5446,
      "infu": 5447,
      "inju": 5448,
      "inches": 5449,
      "instru": 5450,
      "elated": 5451,
      "ana": 5452,
      "rema": 5453,
      "rend": 5454,
      "reson": 5455,
      "reward": 5456,
      "request": 5457,
      "reacted": 5458,
      "reju": 5459,
      "reactions": 5460,
      "remarks": 5461,
      "rejection": 5462,
      "attain": 5463,
      "enthr": 5464,
      "envel": 5465,
      "enrich": 5466,
      "enced": 5467,
      "sted": 5468,
      "stated": 5469,
      "stable": 5470,
      "station": 5471,
      "stere": 5472,
      "strain": 5473,
      "stink": 5474,
      "itation": 5475,
      "itched": 5476,
      "ale": 5477,
      "alys": 5478,
      "align": 5479,
      "orce": 5480,
      "meta": 5481,
      "messed": 5482,
      "lett": 5483,
      "assess": 5484,
      "behave": 5485,
      "besides": 5486,
      "arant": 5487,
      "vegan": 5488,
      "vember": 5489,
      "somed": 5490,
      "soap": 5491,
      "socks": 5492,
      "nov": 5493,
      "november": 5494,
      "whining": 5495,
      "sey": 5496,
      "seren": 5497,
      "semi": 5498,
      "imple": 5499,
      "immer": 5500,
      "chan": 5501,
      "chic": 5502,
      "tized": 5503,
      "abl": 5504,
      "abor": 5505,
      "abuse": 5506,
      "ute": 5507,
      "uted": 5508,
      "outfits": 5509,
      "forgetting": 5510,
      "ida": 5511,
      "ides": 5512,
      "aced": 5513,
      "aces": 5514,
      "acqu": 5515,
      "acknowledge": 5516,
      "rot": 5517,
      "rome": 5518,
      "roof": 5519,
      "roid": 5520,
      "roast": 5521,
      "rober": 5522,
      "ades": 5523,
      "admini": 5524,
      "adays": 5525,
      "rior": 5526,
      "riated": 5527,
      "entitled": 5528,
      "sue": 5529,
      "sus": 5530,
      "supre": 5531,
      "hook": 5532,
      "cow": 5533,
      "colo": 5534,
      "cock": 5535,
      "costu": 5536,
      "coaster": 5537,
      "unte": 5538,
      "unhealthy": 5539,
      "unusual": 5540,
      "unfortunately": 5541,
      "ulated": 5542,
      "dood": 5543,
      "ica": 5544,
      "iced": 5545,
      "icated": 5546,
      "antly": 5547,
      "weap": 5548,
      "pear": 5549,
      "cave": 5550,
      "cage": 5551,
      "cauti": 5552,
      "nowadays": 5553,
      "tering": 5554,
      "terror": 5555,
      "confront": 5556,
      "rast": 5557,
      "upside": 5558,
      "math": 5559,
      "magaz": 5560,
      "masters": 5561,
      "worship": 5562,
      "worries": 5563,
      "arts": 5564,
      "explan": 5565,
      "url": 5566,
      "ifying": 5567,
      "poke": 5568,
      "powder": 5569,
      "ttes": 5570,
      "commer": 5571,
      "comedy": 5572,
      "shel": 5573,
      "anyways": 5574,
      "ryan": 5575,
      "illa": 5576,
      "illustr": 5577,
      "agger": 5578,
      "india": 5579,
      "evision": 5580,
      "romance": 5581,
      "plat": 5582,
      "plants": 5583,
      "bite": 5584,
      "quer": 5585,
      "qual": 5586,
      "theyve": 5587,
      "hers": 5588,
      "disci": 5589,
      "discomfort": 5590,
      "disliked": 5591,
      "disrespected": 5592,
      "disrespect": 5593,
      "disregard": 5594,
      "disagree": 5595,
      "disaster": 5596,
      "disori": 5597,
      "spont": 5598,
      "spray": 5599,
      "umbling": 5600,
      "everyones": 5601,
      "bore": 5602,
      "boob": 5603,
      "bows": 5604,
      "bowl": 5605,
      "proved": 5606,
      "prospect": 5607,
      "promotion": 5608,
      "ella": 5609,
      "eted": 5610,
      "ember": 5611,
      "emily": 5612,
      "empathy": 5613,
      "thereby": 5614,
      "intim": 5615,
      "eps": 5616,
      "overload": 5617,
      "lifetime": 5618,
      "needle": 5619,
      "ticket": 5620,
      "african": 5621,
      "ishes": 5622,
      "trash": 5623,
      "diverse": 5624,
      "assign": 5625,
      "fog": 5626,
      "ideal": 5627,
      "stration": 5628,
      "grass": 5629,
      "guarant": 5630,
      "meds": 5631,
      "tail": 5632,
      "sheet": 5633,
      "contrast": 5634,
      "joint": 5635,
      "relent": 5636,
      "ston": 5637,
      "stock": 5638,
      "wow": 5639,
      "goodbye": 5640,
      "bleed": 5641,
      "misery": 5642,
      "paign": 5643,
      "yearning": 5644,
      "helpful": 5645,
      "blush": 5646,
      "todays": 5647,
      "supply": 5648,
      "berry": 5649,
      "whereas": 5650,
      "tale": 5651,
      "talent": 5652,
      "homeschool": 5653,
      "kindness": 5654,
      "clut": 5655,
      "finances": 5656,
      "heres": 5657,
      "longed": 5658,
      "ister": 5659,
      "logic": 5660,
      "logical": 5661,
      "auto": 5662,
      "auss": 5663,
      "authors": 5664,
      "downright": 5665,
      "designed": 5666,
      "types": 5667,
      "paralys": 5668,
      "courage": 5669,
      "coupled": 5670,
      "phor": 5671,
      "phili": 5672,
      "phones": 5673,
      "tense": 5674,
      "nightma": 5675,
      "deciding": 5676,
      "naive": 5677,
      "tains": 5678,
      "pleasing": 5679,
      "worlds": 5680,
      "cars": 5681,
      "cramps": 5682,
      "wax": 5683,
      "dub": 5684,
      "confusion": 5685,
      "wonders": 5686,
      "trig": 5687,
      "torture": 5688,
      "horses": 5689,
      "horror": 5690,
      "mindset": 5691,
      "shops": 5692,
      "centre": 5693,
      "importantly": 5694,
      "crawl": 5695,
      "clock": 5696,
      "hip": 5697,
      "completed": 5698,
      "handful": 5699,
      "plays": 5700,
      "cud": 5701,
      "cue": 5702,
      "cube": 5703,
      "budd": 5704,
      "vocal": 5705,
      "syn": 5706,
      "humble": 5707,
      "watches": 5708,
      "venue": 5709,
      "resting": 5710,
      "flav": 5711,
      "singing": 5712,
      "traum": 5713,
      "trapped": 5714,
      "traitor": 5715,
      "traffic": 5716,
      "melod": 5717,
      "border": 5718,
      "skir": 5719,
      "enjoyable": 5720,
      "sickness": 5721,
      "identity": 5722,
      "subs": 5723,
      "subconscious": 5724,
      "viewer": 5725,
      "stepping": 5726,
      "tiredness": 5727,
      "cheaper": 5728,
      "cheese": 5729,
      "cases": 5730,
      "damned": 5731,
      "lake": 5732,
      "positions": 5733,
      "gently": 5734,
      "observing": 5735,
      "rub": 5736,
      "realizing": 5737,
      "production": 5738,
      "drug": 5739,
      "athle": 5740,
      "intern": 5741,
      "frustrating": 5742,
      "curities": 5743,
      "slightest": 5744,
      "readings": 5745,
      "gladly": 5746,
      "asks": 5747,
      "healing": 5748,
      "population": 5749,
      "adds": 5750,
      "cricket": 5751,
      "extreme": 5752,
      "ignificant": 5753,
      "countries": 5754,
      "appreciation": 5755,
      "movements": 5756,
      "begins": 5757,
      "christians": 5758,
      "bands": 5759,
      "warming": 5760,
      "sticking": 5761,
      "dreamed": 5762,
      "phobic": 5763,
      "thyroid": 5764,
      "relaxing": 5765,
      "boyfriends": 5766,
      "viewing": 5767,
      "region": 5768,
      "sunny": 5769,
      "hopelessness": 5770,
      "divorce": 5771,
      "absolute": 5772,
      "determine": 5773,
      "dealt": 5774,
      "foods": 5775,
      "paranoia": 5776,
      "weekends": 5777,
      "sounding": 5778,
      "thrift": 5779,
      "spoke": 5780,
      "genre": 5781,
      "insane": 5782,
      "insignificant": 5783,
      "moods": 5784,
      "failed": 5785,
      "spiritually": 5786,
      "dropping": 5787,
      "uttering": 5788,
      "slowing": 5789,
      "queen": 5790,
      "speaks": 5791,
      "screwed": 5792,
      "praying": 5793,
      "harry": 5794,
      "occur": 5795,
      "stressful": 5796,
      "touching": 5797,
      "deserved": 5798,
      "swing": 5799,
      "focusing": 5800,
      "directly": 5801,
      "treats": 5802,
      "julie": 5803,
      "grandparents": 5804,
      "corre": 5805,
      "corners": 5806,
      "larger": 5807,
      "souls": 5808,
      "nonsense": 5809,
      "drinks": 5810,
      "americans": 5811,
      "kissing": 5812,
      "darkness": 5813,
      "binge": 5814,
      "neglected": 5815,
      "answering": 5816,
      "dressing": 5817,
      "avoided": 5818,
      "flick": 5819,
      "flood": 5820,
      "necessarily": 5821,
      "extraordin": 5822,
      "discussion": 5823,
      "celebrating": 5824,
      "roller": 5825,
      "agreement": 5826,
      "difficul": 5827,
      "porn": 5828,
      "educated": 5829,
      "weakness": 5830,
      "neglecting": 5831,
      "snug": 5832,
      "transc": 5833,
      "transfer": 5834,
      "prompt": 5835,
      "smells": 5836,
      "risks": 5837,
      "throbbing": 5838,
      "organised": 5839,
      "organization": 5840,
      "arriving": 5841,
      "roads": 5842,
      "destroy": 5843,
      "click": 5844,
      "circles": 5845,
      "noticing": 5846,
      "windows": 5847,
      "griev": 5848,
      "episodes": 5849,
      "freedoms": 5850,
      "depends": 5851,
      "apology": 5852,
      "enemy": 5853,
      "encounter": 5854,
      "sensations": 5855,
      "sensible": 5856,
      "annel": 5857,
      "labor": 5858,
      "investing": 5859,
      "remaining": 5860,
      "sticks": 5861,
      "lifting": 5862,
      "pretending": 5863,
      "workouts": 5864,
      "suggested": 5865,
      "jumping": 5866,
      "instance": 5867,
      "flaws": 5868,
      "cheerful": 5869,
      "guts": 5870,
      "wasting": 5871,
      "therapist": 5872,
      "contractions": 5873,
      "combined": 5874,
      "discovery": 5875,
      "techno": 5876,
      "fields": 5877,
      "officer": 5878,
      "official": 5879,
      "sequel": 5880,
      "abandon": 5881,
      "notebook": 5882,
      "expert": 5883,
      "blowing": 5884,
      "packed": 5885,
      "yelling": 5886,
      "demands": 5887,
      "demanding": 5888,
      "grabbing": 5889,
      "performances": 5890,
      "comparing": 5891,
      "indulge": 5892,
      "counsel": 5893,
      "graduate": 5894,
      "dreaded": 5895,
      "knitting": 5896,
      "slide": 5897,
      "fulfilling": 5898,
      "convention": 5899,
      "savory": 5900,
      "conflict": 5901,
      "conflicted": 5902,
      "conflicts": 5903,
      "flashback": 5904,
      "contributing": 5905,
      "climb": 5906,
      "climbed": 5907,
      "capture": 5908,
      "profound": 5909,
      "critic": 5910,
      "consistent": 5911,
      "campaign": 5912,
      "frozen": 5913,
      "lungs": 5914,
      "volunte": 5915,
      "refreshing": 5916,
      "spreading": 5917,
      "january": 5918,
      "piano": 5919,
      "source": 5920,
      "infection": 5921,
      "inferior": 5922,
      "soooo": 5923,
      "consumer": 5924,
      "exposed": 5925,
      "affects": 5926,
      "tune": 5927,
      "whisper": 5928,
      "december": 5929,
      "colours": 5930,
      "dessert": 5931,
      "television": 5932,
      "tackle": 5933,
      "measure": 5934,
      "extended": 5935,
      "crashing": 5936,
      "reflection": 5937,
      "delivery": 5938,
      "compliment": 5939,
      "economy": 5940,
      "tomato": 5941,
      "argument": 5942,
      "homosexual": 5943,
      "cigarettes": 5944,
      "objects": 5945,
      "document": 5946,
      "predictable": 5947,
      "europe": 5948,
      "thighs": 5949,
      "independent": 5950,
      "tolerate": 5951,
      "unfolding": 5952,
      "deeper": 5953,
      "typical": 5954,
      "crisis": 5955,
      "gathering": 5956,
      "practically": 5957,
      "announce": 5958,
      "techniques": 5959,
      "wrestling": 5960,
      "zoom": 5961,
      "contempl": 5962,
      "application": 5963,
      "bridge": 5964,
      "according": 5965,
      "citizen": 5966,
      "rhythm": 5967,
      "daddy": 5968,
      "fasc": 5969,
      "giddy": 5970,
      "tossing": 5971,
      "alcohol": 5972,
      "john": 5973,
      "blonde": 5974,
      "designer": 5975,
      "marketing": 5976,
      "conscience": 5977,
      "electric": 5978,
      "glamourous": 5979,
      "potatoes": 5980,
      "philosophy": 5981,
      "kicking": 5982,
      "mourn": 5983,
      "numerous": 5984,
      "treadmill": 5985,
      "village": 5986,
      "infuriated": 5987,
      "rejuven": 5988,
      "enthralled": 5989,
      "stereo": 5990,
      "lettuce": 5991,
      "someday": 5992,
      "serenity": 5993,
      "magazine": 5994,
      "commercial": 5995,
      "extraordinarily": 5996,
      "aid": 5997,
      "bind": 5998,
      "bug": 5999,
      "bull": 6000,
      "bap": 6001,
      "baking": 6002,
      "bills": 6003,
      "backing": 6004,
      "bitten": 6005,
      "bbling": 6006,
      "cated": 6007,
      "cil": 6008,
      "cers": 6009,
      "dain": 6010,
      "dint": 6011,
      "drain": 6012,
      "dreading": 6013,
      "dining": 6014,
      "eh": 6015,
      "eco": 6016,
      "ego": 6017,
      "eup": 6018,
      "fely": 6019,
      "fice": 6020,
      "ffl": 6021,
      "fying": 6022,
      "foul": 6023,
      "gate": 6024,
      "gary": 6025,
      "gamer": 6026,
      "gender": 6027,
      "hen": 6028,
      "iel": 6029,
      "iation": 6030,
      "ived": 6031,
      "ials": 6032,
      "iphone": 6033,
      "jac": 6034,
      "jere": 6035,
      "jaz": 6036,
      "jug": 6037,
      "jones": 6038,
      "juni": 6039,
      "jane": 6040,
      "kay": 6041,
      "kist": 6042,
      "kai": 6043,
      "ls": 6044,
      "lum": 6045,
      "lush": 6046,
      "laught": 6047,
      "lined": 6048,
      "lugg": 6049,
      "lisa": 6050,
      "mn": 6051,
      "mant": 6052,
      "mall": 6053,
      "mama": 6054,
      "nse": 6055,
      "nation": 6056,
      "nick": 6057,
      "nies": 6058,
      "native": 6059,
      "nations": 6060,
      "named": 6061,
      "ole": 6062,
      "obe": 6063,
      "oli": 6064,
      "oak": 6065,
      "pam": 6066,
      "phe": 6067,
      "pig": 6068,
      "pills": 6069,
      "pip": 6070,
      "passes": 6071,
      "rit": 6072,
      "rang": 6073,
      "rings": 6074,
      "swi": 6075,
      "sne": 6076,
      "sday": 6077,
      "shad": 6078,
      "sans": 6079,
      "sni": 6080,
      "slip": 6081,
      "tin": 6082,
      "tab": 6083,
      "tac": 6084,
      "tall": 6085,
      "tag": 6086,
      "tuck": 6087,
      "trained": 6088,
      "ua": 6089,
      "upper": 6090,
      "vast": 6091,
      "vamp": 6092,
      "wand": 6093,
      "wrap": 6094,
      "yel": 6095,
      "zi": 6096,
      "thur": 6097,
      "thai": 6098,
      "inci": 6099,
      "incess": 6100,
      "infer": 6101,
      "elt": 6102,
      "elet": 6103,
      "elines": 6104,
      "aning": 6105,
      "anne": 6106,
      "anci": 6107,
      "anni": 6108,
      "ancing": 6109,
      "anato": 6110,
      "fee": 6111,
      "febr": 6112,
      "fection": 6113,
      "feminist": 6114,
      "ingred": 6115,
      "ret": 6116,
      "reput": 6117,
      "recess": 6118,
      "repair": 6119,
      "republic": 6120,
      "returning": 6121,
      "retro": 6122,
      "replaced": 6123,
      "retire": 6124,
      "attered": 6125,
      "attribute": 6126,
      "toys": 6127,
      "onco": 6128,
      "era": 6129,
      "err": 6130,
      "eral": 6131,
      "erce": 6132,
      "env": 6133,
      "enor": 6134,
      "ench": 6135,
      "sta": 6136,
      "sti": 6137,
      "stim": 6138,
      "stad": 6139,
      "stir": 6140,
      "stack": 6141,
      "stell": 6142,
      "stiff": 6143,
      "stumble": 6144,
      "ites": 6145,
      "itate": 6146,
      "itably": 6147,
      "alt": 6148,
      "aland": 6149,
      "albe": 6150,
      "alice": 6151,
      "isy": 6152,
      "isation": 6153,
      "asm": 6154,
      "ased": 6155,
      "assumption": 6156,
      "beef": 6157,
      "behalf": 6158,
      "arter": 6159,
      "argue": 6160,
      "vet": 6161,
      "myster": 6162,
      "soak": 6163,
      "lian": 6164,
      "nod": 6165,
      "notion": 6166,
      "haze": 6167,
      "whiny": 6168,
      "sem": 6169,
      "sees": 6170,
      "sept": 6171,
      "secu": 6172,
      "seven": 6173,
      "imented": 6174,
      "impolite": 6175,
      "chu": 6176,
      "chin": 6177,
      "chip": 6178,
      "channel": 6179,
      "ticons": 6180,
      "ami": 6181,
      "ambit": 6182,
      "amster": 6183,
      "ambul": 6184,
      "abc": 6185,
      "abi": 6186,
      "abit": 6187,
      "abdo": 6188,
      "esp": 6189,
      "esy": 6190,
      "verses": 6191,
      "lovers": 6192,
      "loathe": 6193,
      "wicked": 6194,
      "outing": 6195,
      "idly": 6196,
      "idol": 6197,
      "acing": 6198,
      "actor": 6199,
      "accent": 6200,
      "accur": 6201,
      "rocious": 6202,
      "ads": 6203,
      "adopt": 6204,
      "rie": 6205,
      "rier": 6206,
      "suits": 6207,
      "sucked": 6208,
      "suffic": 6209,
      "sustain": 6210,
      "holic": 6211,
      "hopped": 6212,
      "homeless": 6213,
      "cozy": 6214,
      "covered": 6215,
      "coworkers": 6216,
      "cooper": 6217,
      "cooped": 6218,
      "cooking": 6219,
      "heap": 6220,
      "unit": 6221,
      "united": 6222,
      "unreason": 6223,
      "unsafe": 6224,
      "uncaring": 6225,
      "uneasy": 6226,
      "uncles": 6227,
      "unnatural": 6228,
      "unemploy": 6229,
      "ula": 6230,
      "ulating": 6231,
      "dot": 6232,
      "doom": 6233,
      "gett": 6234,
      "geek": 6235,
      "icy": 6236,
      "gown": 6237,
      "anting": 6238,
      "wester": 6239,
      "noted": 6240,
      "casting": 6241,
      "sometime": 6242,
      "allah": 6243,
      "neys": 6244,
      "ppings": 6245,
      "deals": 6246,
      "destru": 6247,
      "detox": 6248,
      "tery": 6249,
      "justified": 6250,
      "justify": 6251,
      "conce": 6252,
      "consol": 6253,
      "congrat": 6254,
      "rape": 6255,
      "reduce": 6256,
      "usa": 6257,
      "uscript": 6258,
      "maker": 6259,
      "ares": 6260,
      "seldom": 6261,
      "artwork": 6262,
      "expl": 6263,
      "exhilar": 6264,
      "exagger": 6265,
      "endure": 6266,
      "ural": 6267,
      "poo": 6268,
      "poll": 6269,
      "pops": 6270,
      "polar": 6271,
      "pocket": 6272,
      "tttt": 6273,
      "perse": 6274,
      "permal": 6275,
      "perfu": 6276,
      "perfection": 6277,
      "shallow": 6278,
      "agno": 6279,
      "agent": 6280,
      "aggress": 6281,
      "induc": 6282,
      "indian": 6283,
      "whore": 6284,
      "plun": 6285,
      "qui": 6286,
      "theyll": 6287,
      "ola": 6288,
      "disast": 6289,
      "disease": 6290,
      "disrup": 6291,
      "disdain": 6292,
      "spare": 6293,
      "spill": 6294,
      "spice": 6295,
      "spaper": 6296,
      "spaces": 6297,
      "civil": 6298,
      "pros": 6299,
      "provoc": 6300,
      "acked": 6301,
      "etsy": 6302,
      "empathetic": 6303,
      "empathize": 6304,
      "safely": 6305,
      "evenings": 6306,
      "epic": 6307,
      "lifes": 6308,
      "mentality": 6309,
      "affair": 6310,
      "derby": 6311,
      "truck": 6312,
      "dia": 6313,
      "dip": 6314,
      "diy": 6315,
      "dies": 6316,
      "distress": 6317,
      "dialo": 6318,
      "happier": 6319,
      "assert": 6320,
      "foggy": 6321,
      "footing": 6322,
      "grance": 6323,
      "earn": 6324,
      "via": 6325,
      "guid": 6326,
      "guard": 6327,
      "comeback": 6328,
      "backed": 6329,
      "tai": 6330,
      "tax": 6331,
      "achieving": 6332,
      "joined": 6333,
      "joining": 6334,
      "relations": 6335,
      "relatives": 6336,
      "stole": 6337,
      "stored": 6338,
      "stops": 6339,
      "stoned": 6340,
      "stopping": 6341,
      "stolen": 6342,
      "angels": 6343,
      "choke": 6344,
      "greed": 6345,
      "paul": 6346,
      "paused": 6347,
      "pakist": 6348,
      "specially": 6349,
      "fiance": 6350,
      "applying": 6351,
      "impending": 6352,
      "bliss": 6353,
      "shaking": 6354,
      "prone": 6355,
      "thentic": 6356,
      "newspaper": 6357,
      "wherever": 6358,
      "manip": 6359,
      "manuscript": 6360,
      "morbid": 6361,
      "crew": 6362,
      "creations": 6363,
      "clay": 6364,
      "clue": 6365,
      "istically": 6366,
      "logging": 6367,
      "automat": 6368,
      "authentic": 6369,
      "desc": 6370,
      "freely": 6371,
      "nerve": 6372,
      "nerves": 6373,
      "jective": 6374,
      "brac": 6375,
      "smarter": 6376,
      "phen": 6377,
      "phil": 6378,
      "omen": 6379,
      "omic": 6380,
      "tremend": 6381,
      "mont": 6382,
      "stands": 6383,
      "establ": 6384,
      "owner": 6385,
      "decade": 6386,
      "mince": 6387,
      "listed": 6388,
      "cara": 6389,
      "crunch": 6390,
      "crimin": 6391,
      "emoticons": 6392,
      "wah": 6393,
      "waves": 6394,
      "lighting": 6395,
      "aker": 6396,
      "broad": 6397,
      "comforting": 6398,
      "rescue": 6399,
      "wallet": 6400,
      "horia": 6401,
      "runner": 6402,
      "solved": 6403,
      "served": 6404,
      "shoots": 6405,
      "sadly": 6406,
      "craz": 6407,
      "crave": 6408,
      "funds": 6409,
      "closing": 6410,
      "hike": 6411,
      "privac": 6412,
      "irrational": 6413,
      "tutori": 6414,
      "goddamn": 6415,
      "cuss": 6416,
      "cudd": 6417,
      "buff": 6418,
      "bubble": 6419,
      "schools": 6420,
      "pointless": 6421,
      "humility": 6422,
      "matt": 6423,
      "rested": 6424,
      "restri": 6425,
      "burned": 6426,
      "mornings": 6427,
      "fla": 6428,
      "flour": 6429,
      "travell": 6430,
      "tinge": 6431,
      "tingle": 6432,
      "sleepy": 6433,
      "shiver": 6434,
      "wrongly": 6435,
      "enjoyment": 6436,
      "barrier": 6437,
      "dreamy": 6438,
      "subt": 6439,
      "subconsciously": 6440,
      "submit": 6441,
      "hurtful": 6442,
      "loner": 6443,
      "consid": 6444,
      "cuts": 6445,
      "cuted": 6446,
      "sory": 6447,
      "steam": 6448,
      "believes": 6449,
      "gory": 6450,
      "cheered": 6451,
      "pasta": 6452,
      "charged": 6453,
      "emptiness": 6454,
      "obst": 6455,
      "observ": 6456,
      "obama": 6457,
      "mercy": 6458,
      "hears": 6459,
      "drank": 6460,
      "pictured": 6461,
      "facts": 6462,
      "ultimate": 6463,
      "interview": 6464,
      "interacting": 6465,
      "interrup": 6466,
      "offered": 6467,
      "tility": 6468,
      "motherhood": 6469,
      "curled": 6470,
      "curtains": 6471,
      "cycling": 6472,
      "muscle": 6473,
      "farm": 6474,
      "umped": 6475,
      "possibilities": 6476,
      "continually": 6477,
      "annoyance": 6478,
      "attitudes": 6479,
      "highest": 6480,
      "highschool": 6481,
      "visible": 6482,
      "visitor": 6483,
      "exhausting": 6484,
      "controlled": 6485,
      "richard": 6486,
      "relaxation": 6487,
      "licking": 6488,
      "licity": 6489,
      "viewed": 6490,
      "openly": 6491,
      "insecurities": 6492,
      "steady": 6493,
      "conditions": 6494,
      "smaller": 6495,
      "devastating": 6496,
      "massage": 6497,
      "opposed": 6498,
      "simplicity": 6499,
      "styles": 6500,
      "basic": 6501,
      "isolation": 6502,
      "tivity": 6503,
      "italian": 6504,
      "wheel": 6505,
      "imagined": 6506,
      "imagination": 6507,
      "spirits": 6508,
      "follower": 6509,
      "determination": 6510,
      "formula": 6511,
      "resolve": 6512,
      "hesitate": 6513,
      "blogo": 6514,
      "fantasy": 6515,
      "purpo": 6516,
      "fairy": 6517,
      "spoken": 6518,
      "spots": 6519,
      "gene": 6520,
      "gency": 6521,
      "genius": 6522,
      "slug": 6523,
      "intelligence": 6524,
      "drops": 6525,
      "mainstream": 6526,
      "statements": 6527,
      "loyalty": 6528,
      "south": 6529,
      "invite": 6530,
      "invitation": 6531,
      "archite": 6532,
      "speaker": 6533,
      "screw": 6534,
      "alongside": 6535,
      "leads": 6536,
      "harmon": 6537,
      "landed": 6538,
      "stressing": 6539,
      "touches": 6540,
      "balanced": 6541,
      "hunt": 6542,
      "teary": 6543,
      "quicker": 6544,
      "privilege": 6545,
      "factor": 6546,
      "factory": 6547,
      "journ": 6548,
      "videos": 6549,
      "protein": 6550,
      "protection": 6551,
      "nik": 6552,
      "pushed": 6553,
      "covering": 6554,
      "presenting": 6555,
      "paths": 6556,
      "services": 6557,
      "zealand": 6558,
      "fuel": 6559,
      "suspense": 6560,
      "hype": 6561,
      "hypo": 6562,
      "hydr": 6563,
      "teenage": 6564,
      "questioned": 6565,
      "sarah": 6566,
      "chaos": 6567,
      "champ": 6568,
      "kisses": 6569,
      "figures": 6570,
      "wallpaper": 6571,
      "starved": 6572,
      "negativity": 6573,
      "inclined": 6574,
      "medium": 6575,
      "pressures": 6576,
      "flip": 6577,
      "severely": 6578,
      "pairs": 6579,
      "recovery": 6580,
      "necessity": 6581,
      "grammar": 6582,
      "celebration": 6583,
      "bummed": 6584,
      "military": 6585,
      "rolls": 6586,
      "agreed": 6587,
      "placement": 6588,
      "daughters": 6589,
      "porate": 6590,
      "portion": 6591,
      "educate": 6592,
      "fridge": 6593,
      "sofa": 6594,
      "returns": 6595,
      "progressing": 6596,
      "fancy": 6597,
      "frame": 6598,
      "fragrance": 6599,
      "overe": 6600,
      "organized": 6601,
      "improving": 6602,
      "improved": 6603,
      "immediate": 6604,
      "transport": 6605,
      "dramatically": 6606,
      "appears": 6607,
      "cliff": 6608,
      "performing": 6609,
      "quietly": 6610,
      "property": 6611,
      "tests": 6612,
      "audiences": 6613,
      "recognised": 6614,
      "grieve": 6615,
      "tablets": 6616,
      "anguish": 6617,
      "strive": 6618,
      "politics": 6619,
      "quilt": 6620,
      "targeted": 6621,
      "atory": 6622,
      "encouraging": 6623,
      "authority": 6624,
      "crossing": 6625,
      "eeee": 6626,
      "split": 6627,
      "contribution": 6628,
      "directions": 6629,
      "increasing": 6630,
      "label": 6631,
      "labour": 6632,
      "nonetheless": 6633,
      "pulse": 6634,
      "animal": 6635,
      "animate": 6636,
      "lifted": 6637,
      "existance": 6638,
      "medication": 6639,
      "aaaa": 6640,
      "massive": 6641,
      "massively": 6642,
      "panicky": 6643,
      "detail": 6644,
      "emphas": 6645,
      "cheering": 6646,
      "explode": 6647,
      "accomplishing": 6648,
      "accomplishments": 6649,
      "route": 6650,
      "separated": 6651,
      "separation": 6652,
      "heaviness": 6653,
      "contract": 6654,
      "benefits": 6655,
      "psychotic": 6656,
      "nurse": 6657,
      "articles": 6658,
      "articulate": 6659,
      "sweaty": 6660,
      "pursuing": 6661,
      "flex": 6662,
      "fleet": 6663,
      "cookies": 6664,
      "achievement": 6665,
      "solutions": 6666,
      "responses": 6667,
      "examples": 6668,
      "recording": 6669,
      "indulgent": 6670,
      "indulging": 6671,
      "ignorant": 6672,
      "ignorance": 6673,
      "partially": 6674,
      "counter": 6675,
      "anticipating": 6676,
      "graduated": 6677,
      "graduating": 6678,
      "investment": 6679,
      "birds": 6680,
      "twisted": 6681,
      "arrange": 6682,
      "ministry": 6683,
      "ministries": 6684,
      "nausea": 6685,
      "cravings": 6686,
      "flattered": 6687,
      "publish": 6688,
      "obligated": 6689,
      "requires": 6690,
      "bearable": 6691,
      "cherish": 6692,
      "captured": 6693,
      "debate": 6694,
      "possess": 6695,
      "profile": 6696,
      "overwhelmingly": 6697,
      "intentionally": 6698,
      "brief": 6699,
      "brilli": 6700,
      "garbage": 6701,
      "jersey": 6702,
      "kore": 6703,
      "scienti": 6704,
      "volu": 6705,
      "initially": 6706,
      "influence": 6707,
      "traditions": 6708,
      "credits": 6709,
      "eggs": 6710,
      "linux": 6711,
      "michael": 6712,
      "texted": 6713,
      "strokes": 6714,
      "exposing": 6715,
      "permanent": 6716,
      "assistant": 6717,
      "assistance": 6718,
      "crushing": 6719,
      "paintings": 6720,
      "neighbors": 6721,
      "revealed": 6722,
      "pumped": 6723,
      "timing": 6724,
      "whispered": 6725,
      "weighing": 6726,
      "exhibition": 6727,
      "dignity": 6728,
      "baseball": 6729,
      "washington": 6730,
      "encouragement": 6731,
      "global": 6732,
      "jackson": 6733,
      "tackling": 6734,
      "reference": 6735,
      "attach": 6736,
      "toddler": 6737,
      "methods": 6738,
      "select": 6739,
      "policy": 6740,
      "spanish": 6741,
      "cramping": 6742,
      "effec": 6743,
      "compliments": 6744,
      "intellectual": 6745,
      "harmful": 6746,
      "occupied": 6747,
      "significantly": 6748,
      "stares": 6749,
      "arguments": 6750,
      "preparing": 6751,
      "preparation": 6752,
      "quarter": 6753,
      "quarrel": 6754,
      "cigarette": 6755,
      "released": 6756,
      "releases": 6757,
      "validation": 6758,
      "distinct": 6759,
      "stealing": 6760,
      "sparkle": 6761,
      "enthusiasm": 6762,
      "hangover": 6763,
      "tummy": 6764,
      "impressive": 6765,
      "chemist": 6766,
      "demons": 6767,
      "essential": 6768,
      "essentially": 6769,
      "reliable": 6770,
      "clarity": 6771,
      "marvelous": 6772,
      "addicted": 6773,
      "legitimate": 6774,
      "engineering": 6775,
      "temporary": 6776,
      "temporarily": 6777,
      "pillar": 6778,
      "pillow": 6779,
      "inevitably": 6780,
      "remarkably": 6781,
      "imposed": 6782,
      "department": 6783,
      "constructive": 6784,
      "evaluate": 6785,
      "blanket": 6786,
      "fruit": 6787,
      "compromised": 6788,
      "virginia": 6789,
      "chapters": 6790,
      "australia": 6791,
      "academic": 6792,
      "data": 6793,
      "hubby": 6794,
      "narrow": 6795,
      "thousand": 6796,
      "remotely": 6797,
      "absence": 6798,
      "forgiveness": 6799,
      "advocate": 6800,
      "provided": 6801,
      "historical": 6802,
      "suppressed": 6803,
      "heartedly": 6804,
      "french": 6805,
      "suffered": 6806,
      "politicians": 6807,
      "moisturizer": 6808,
      "sacrifice": 6809,
      "olym": 6810,
      "scheme": 6811,
      "tantrum": 6812,
      "yarn": 6813,
      "remains": 6814,
      "metaphor": 6815,
      "chicago": 6816,
      "costume": 6817,
      "explanation": 6818,
      "disoriented": 6819,
      "intimacy": 6820,
      "assignments": 6821,
      "aussie": 6822,
      "cuddle": 6823,
      "destroyed": 6824,
      "technology": 6825,
      "profoundly": 6826,
      "complimented": 6827,
      "rejuvenated": 6828,
      "baptized": 6829,
      "jeremy": 6830,
      "junior": 6831,
      "laughter": 6832,
      "luggage": 6833,
      "shades": 6834,
      "thursday": 6835,
      "anniversary": 6836,
      "anatomy": 6837,
      "february": 6838,
      "retrospect": 6839,
      "retirement": 6840,
      "stellar": 6841,
      "albeit": 6842,
      "september": 6843,
      "amsterdam": 6844,
      "abdomen": 6845,
      "explor": 6846,
      "permalink": 6847,
      "aggressive": 6848,
      "automatically": 6849,
      "brilliant": 6850,
      "ao": 6851,
      "aes": 6852,
      "ahaha": 6853,
      "awards": 6854,
      "apathy": 6855,
      "aversion": 6856,
      "aholic": 6857,
      "bou": 6858,
      "bis": 6859,
      "bam": 6860,
      "bout": 6861,
      "bac": 6862,
      "bol": 6863,
      "bang": 6864,
      "bened": 6865,
      "biz": 6866,
      "bies": 6867,
      "batch": 6868,
      "cive": 6869,
      "cine": 6870,
      "cater": 6871,
      "cumber": 6872,
      "ctivity": 6873,
      "din": 6874,
      "dup": 6875,
      "dum": 6876,
      "dine": 6877,
      "dwell": 6878,
      "dled": 6879,
      "dwelling": 6880,
      "dimin": 6881,
      "ew": 6882,
      "een": 6883,
      "eur": 6884,
      "eag": 6885,
      "echo": 6886,
      "fid": 6887,
      "fought": 6888,
      "ffin": 6889,
      "fishing": 6890,
      "gel": 6891,
      "gam": 6892,
      "gul": 6893,
      "gall": 6894,
      "gur": 6895,
      "gag": 6896,
      "gang": 6897,
      "gush": 6898,
      "gments": 6899,
      "gloss": 6900,
      "gates": 6901,
      "ggie": 6902,
      "hic": 6903,
      "hend": 6904,
      "hatch": 6905,
      "hanna": 6906,
      "iat": 6907,
      "ipo": 6908,
      "ival": 6909,
      "ients": 6910,
      "iably": 6911,
      "itors": 6912,
      "iya": 6913,
      "jen": 6914,
      "jay": 6915,
      "jum": 6916,
      "jord": 6917,
      "jumps": 6918,
      "kg": 6919,
      "km": 6920,
      "kers": 6921,
      "krist": 6922,
      "kah": 6923,
      "lb": 6924,
      "lt": 6925,
      "lust": 6926,
      "lace": 6927,
      "lers": 6928,
      "lump": 6929,
      "loun": 6930,
      "lapping": 6931,
      "laced": 6932,
      "ml": 6933,
      "mut": 6934,
      "mouse": 6935,
      "mult": 6936,
      "mills": 6937,
      "mbers": 6938,
      "mund": 6939,
      "nit": 6940,
      "nis": 6941,
      "nce": 6942,
      "nical": 6943,
      "ngest": 6944,
      "nudge": 6945,
      "ore": 6946,
      "och": 6947,
      "owe": 6948,
      "oqu": 6949,
      "obed": 6950,
      "osing": 6951,
      "oils": 6952,
      "ograph": 6953,
      "osition": 6954,
      "py": 6955,
      "pel": 6956,
      "pid": 6957,
      "pus": 6958,
      "pher": 6959,
      "piz": 6960,
      "plight": 6961,
      "ptive": 6962,
      "pms": 6963,
      "pinterest": 6964,
      "panti": 6965,
      "pier": 6966,
      "pgs": 6967,
      "piling": 6968,
      "rin": 6969,
      "ral": 6970,
      "rhe": 6971,
      "rally": 6972,
      "rust": 6973,
      "rug": 6974,
      "rance": 6975,
      "rpgs": 6976,
      "sca": 6977,
      "sive": 6978,
      "sass": 6979,
      "swo": 6980,
      "sang": 6981,
      "snor": 6982,
      "scrap": 6983,
      "signed": 6984,
      "snap": 6985,
      "saint": 6986,
      "tit": 6987,
      "tay": 6988,
      "twe": 6989,
      "tine": 6990,
      "twel": 6991,
      "twin": 6992,
      "tition": 6993,
      "tastic": 6994,
      "tissue": 6995,
      "twing": 6996,
      "tches": 6997,
      "uh": 6998,
      "uan": 6999,
      "uels": 7000,
      "vor": 7001,
      "vend": 7002,
      "wt": 7003,
      "wre": 7004,
      "wright": 7005,
      "wander": 7006,
      "xan": 7007,
      "xed": 7008,
      "xican": 7009,
      "yash": 7010,
      "ygen": 7011,
      "zim": 7012,
      "zach": 7013,
      "zumb": 7014,
      "ths": 7015,
      "thread": 7016,
      "thief": 7017,
      "inent": 7018,
      "inate": 7019,
      "inqu": 7020,
      "instill": 7021,
      "inity": 7022,
      "inspe": 7023,
      "input": 7024,
      "inser": 7025,
      "inations": 7026,
      "inary": 7027,
      "inob": 7028,
      "insincere": 7029,
      "insensitive": 7030,
      "injustice": 7031,
      "incapable": 7032,
      "instruc": 7033,
      "inanimate": 7034,
      "elf": 7035,
      "eli": 7036,
      "eling": 7037,
      "elev": 7038,
      "element": 7039,
      "anny": 7040,
      "feat": 7041,
      "feder": 7042,
      "femin": 7043,
      "ference": 7044,
      "feared": 7045,
      "ferocious": 7046,
      "rer": 7047,
      "rev": 7048,
      "resu": 7049,
      "recon": 7050,
      "reper": 7051,
      "rect": 7052,
      "reread": 7053,
      "reps": 7054,
      "repub": 7055,
      "recreate": 7056,
      "reinfor": 7057,
      "represents": 7058,
      "theories": 7059,
      "atleast": 7060,
      "toy": 7061,
      "toon": 7062,
      "toric": 7063,
      "ony": 7064,
      "onas": 7065,
      "erd": 7066,
      "eri": 7067,
      "eric": 7068,
      "erved": 7069,
      "encom": 7070,
      "eness": 7071,
      "encount": 7072,
      "encies": 7073,
      "stin": 7074,
      "stip": 7075,
      "stitch": 7076,
      "stages": 7077,
      "stared": 7078,
      "stumped": 7079,
      "itd": 7080,
      "itz": 7081,
      "iter": 7082,
      "itll": 7083,
      "itment": 7084,
      "ala": 7085,
      "alth": 7086,
      "aling": 7087,
      "alarm": 7088,
      "orange": 7089,
      "ordeal": 7090,
      "orgas": 7091,
      "iso": 7092,
      "isan": 7093,
      "isher": 7094,
      "issor": 7095,
      "mexican": 7096,
      "lex": 7097,
      "league": 7098,
      "asing": 7099,
      "asion": 7100,
      "ashi": 7101,
      "asian": 7102,
      "beth": 7103,
      "bewild": 7104,
      "arc": 7105,
      "arous": 7106,
      "arious": 7107,
      "ario": 7108,
      "oft": 7109,
      "ofuels": 7110,
      "vere": 7111,
      "sob": 7112,
      "soil": 7113,
      "sober": 7114,
      "soever": 7115,
      "liv": 7116,
      "lily": 7117,
      "lican": 7118,
      "liqu": 7119,
      "lick": 7120,
      "lified": 7121,
      "nood": 7122,
      "nothings": 7123,
      "nomin": 7124,
      "notions": 7125,
      "noisy": 7126,
      "hag": 7127,
      "hap": 7128,
      "hack": 7129,
      "hable": 7130,
      "haik": 7131,
      "hauled": 7132,
      "seed": 7133,
      "immi": 7134,
      "chel": 7135,
      "chal": 7136,
      "chor": 7137,
      "chet": 7138,
      "chunk": 7139,
      "chelle": 7140,
      "aying": 7141,
      "tier": 7142,
      "tile": 7143,
      "tigo": 7144,
      "tiven": 7145,
      "tivis": 7146,
      "tiring": 7147,
      "tidying": 7148,
      "amond": 7149,
      "abide": 7150,
      "absur": 7151,
      "abled": 7152,
      "abroad": 7153,
      "abusive": 7154,
      "verge": 7155,
      "verted": 7156,
      "vertigo": 7157,
      "locked": 7158,
      "loaded": 7159,
      "lowest": 7160,
      "losses": 7161,
      "located": 7162,
      "wie": 7163,
      "wiz": 7164,
      "wipe": 7165,
      "wierd": 7166,
      "utely": 7167,
      "utting": 7168,
      "utiny": 7169,
      "outings": 7170,
      "outburst": 7171,
      "outdoors": 7172,
      "forms": 7173,
      "forcing": 7174,
      "likeable": 7175,
      "gho": 7176,
      "idk": 7177,
      "moves": 7178,
      "moaning": 7179,
      "acne": 7180,
      "acies": 7181,
      "actors": 7182,
      "accompan": 7183,
      "accusto": 7184,
      "accommo": 7185,
      "acutely": 7186,
      "rod": 7187,
      "rose": 7188,
      "rode": 7189,
      "roying": 7190,
      "rolled": 7191,
      "rocking": 7192,
      "adic": 7193,
      "adder": 7194,
      "adults": 7195,
      "lds": 7196,
      "rian": 7197,
      "river": 7198,
      "sums": 7199,
      "subur": 7200,
      "hog": 7201,
      "hover": 7202,
      "hoard": 7203,
      "holes": 7204,
      "coke": 7205,
      "cocon": 7206,
      "cops": 7207,
      "covers": 7208,
      "cogn": 7209,
      "coaching": 7210,
      "withdra": 7211,
      "hem": 7212,
      "une": 7213,
      "uncharacter": 7214,
      "unfit": 7215,
      "unease": 7216,
      "unconscious": 7217,
      "unappreciated": 7218,
      "uninteresting": 7219,
      "unsettled": 7220,
      "unrealistic": 7221,
      "unattractive": 7222,
      "unsavory": 7223,
      "dope": 7224,
      "gered": 7225,
      "icon": 7226,
      "icial": 7227,
      "gos": 7228,
      "youngest": 7229,
      "wea": 7230,
      "weir": 7231,
      "ustion": 7232,
      "pest": 7233,
      "petr": 7234,
      "peeps": 7235,
      "someway": 7236,
      "nest": 7237,
      "neath": 7238,
      "nephe": 7239,
      "iron": 7240,
      "iration": 7241,
      "irky": 7242,
      "ironic": 7243,
      "ppers": 7244,
      "ppling": 7245,
      "ppines": 7246,
      "depress": 7247,
      "define": 7248,
      "default": 7249,
      "cep": 7250,
      "convo": 7251,
      "consum": 7252,
      "conspir": 7253,
      "congest": 7254,
      "console": 7255,
      "congreg": 7256,
      "constit": 7257,
      "convey": 7258,
      "construc": 7259,
      "condesc": 7260,
      "rag": 7261,
      "rail": 7262,
      "ups": 7263,
      "upbeat": 7264,
      "upstairs": 7265,
      "updates": 7266,
      "reduc": 7267,
      "user": 7268,
      "usage": 7269,
      "usions": 7270,
      "usively": 7271,
      "maid": 7272,
      "daycare": 7273,
      "arer": 7274,
      "prejud": 7275,
      "excl": 7276,
      "excess": 7277,
      "exchange": 7278,
      "exceed": 7279,
      "urg": 7280,
      "urgency": 7281,
      "pois": 7282,
      "pover": 7283,
      "posed": 7284,
      "popped": 7285,
      "canad": 7286,
      "cancel": 7287,
      "persu": 7288,
      "perci": 7289,
      "pertain": 7290,
      "persist": 7291,
      "compre": 7292,
      "combo": 7293,
      "shr": 7294,
      "shiny": 7295,
      "shimmer": 7296,
      "shinob": 7297,
      "anyones": 7298,
      "kingdom": 7299,
      "ittle": 7300,
      "agne": 7301,
      "agram": 7302,
      "indication": 7303,
      "whatsoever": 7304,
      "evant": 7305,
      "evident": 7306,
      "whooooo": 7307,
      "wholly": 7308,
      "ndrome": 7309,
      "ilt": 7310,
      "pline": 7311,
      "plastic": 7312,
      "plagu": 7313,
      "quant": 7314,
      "quake": 7315,
      "queasy": 7316,
      "quirky": 7317,
      "lessen": 7318,
      "ationally": 7319,
      "oked": 7320,
      "themed": 7321,
      "oluted": 7322,
      "disability": 7323,
      "disney": 7324,
      "disservice": 7325,
      "disinterested": 7326,
      "displayed": 7327,
      "disclaim": 7328,
      "disconnected": 7329,
      "disappeared": 7330,
      "spa": 7331,
      "spon": 7332,
      "spain": 7333,
      "spine": 7334,
      "spaz": 7335,
      "spouse": 7336,
      "spider": 7337,
      "ums": 7338,
      "civi": 7339,
      "everythings": 7340,
      "boil": 7341,
      "boot": 7342,
      "provo": 7343,
      "proced": 7344,
      "proceed": 7345,
      "proclaim": 7346,
      "eta": 7347,
      "ements": 7348,
      "thanked": 7349,
      "intu": 7350,
      "intent": 7351,
      "sau": 7352,
      "safer": 7353,
      "epi": 7354,
      "ishly": 7355,
      "tram": 7356,
      "trade": 7357,
      "dial": 7358,
      "diary": 7359,
      "divers": 7360,
      "diagno": 7361,
      "diamond": 7362,
      "asser": 7363,
      "assed": 7364,
      "frig": 7365,
      "strutting": 7366,
      "grim": 7367,
      "earning": 7368,
      "vig": 7369,
      "vial": 7370,
      "vivid": 7371,
      "gued": 7372,
      "medio": 7373,
      "wrink": 7374,
      "backward": 7375,
      "backyard": 7376,
      "workplace": 7377,
      "tap": 7378,
      "tape": 7379,
      "hasn": 7380,
      "sheep": 7381,
      "ached": 7382,
      "contam": 7383,
      "josh": 7384,
      "joking": 7385,
      "relating": 7386,
      "relative": 7387,
      "relieve": 7388,
      "relevant": 7389,
      "woe": 7390,
      "tee": 7391,
      "teasing": 7392,
      "ersed": 7393,
      "chore": 7394,
      "choosing": 7395,
      "faking": 7396,
      "greys": 7397,
      "greeted": 7398,
      "aftermath": 7399,
      "pause": 7400,
      "paired": 7401,
      "files": 7402,
      "fierce": 7403,
      "yearn": 7404,
      "impul": 7405,
      "impacted": 7406,
      "blr": 7407,
      "blin": 7408,
      "blake": 7409,
      "blaming": 7410,
      "blues": 7411,
      "bladder": 7412,
      "believ": 7413,
      "shares": 7414,
      "shaming": 7415,
      "pron": 7416,
      "prince": 7417,
      "prison": 7418,
      "berg": 7419,
      "bern": 7420,
      "berate": 7421,
      "heartbreak": 7422,
      "heartache": 7423,
      "thru": 7424,
      "throne": 7425,
      "persona": 7426,
      "persons": 7427,
      "creation": 7428,
      "kindly": 7429,
      "stretches": 7430,
      "cler": 7431,
      "clum": 7432,
      "fined": 7433,
      "finals": 7434,
      "finland": 7435,
      "herent": 7436,
      "logist": 7437,
      "logically": 7438,
      "wellery": 7439,
      "downs": 7440,
      "desired": 7441,
      "desiring": 7442,
      "parall": 7443,
      "izon": 7444,
      "izes": 7445,
      "awing": 7446,
      "jewellery": 7447,
      "partners": 7448,
      "fron": 7449,
      "france": 7450,
      "bru": 7451,
      "brad": 7452,
      "bruce": 7453,
      "gling": 7454,
      "glas": 7455,
      "glory": 7456,
      "glancing": 7457,
      "smir": 7458,
      "smack": 7459,
      "phy": 7460,
      "phoned": 7461,
      "passen": 7462,
      "underground": 7463,
      "underrated": 7464,
      "underneath": 7465,
      "sincer": 7466,
      "tensions": 7467,
      "omin": 7468,
      "treating": 7469,
      "ansing": 7470,
      "careful": 7471,
      "carefully": 7472,
      "mono": 7473,
      "monster": 7474,
      "owned": 7475,
      "ugal": 7476,
      "nathan": 7477,
      "listic": 7478,
      "territory": 7479,
      "clearer": 7480,
      "cleansing": 7481,
      "crim": 7482,
      "crun": 7483,
      "crats": 7484,
      "refused": 7485,
      "refusing": 7486,
      "firmed": 7487,
      "waits": 7488,
      "lighted": 7489,
      "preschool": 7490,
      "prescri": 7491,
      "duties": 7492,
      "raining": 7493,
      "rainbows": 7494,
      "giveaway": 7495,
      "generic": 7496,
      "generated": 7497,
      "generations": 7498,
      "brow": 7499,
      "broom": 7500,
      "comfortably": 7501,
      "trial": 7502,
      "tries": 7503,
      "trimester": 7504,
      "trivial": 7505,
      "senior": 7506,
      "sensory": 7507,
      "babwe": 7508,
      "bodys": 7509,
      "painted": 7510,
      "resort": 7511,
      "resident": 7512,
      "reserved": 7513,
      "momentarily": 7514,
      "suring": 7515,
      "surfacing": 7516,
      "march": 7517,
      "marie": 7518,
      "maria": 7519,
      "markets": 7520,
      "heads": 7521,
      "headphones": 7522,
      "horrid": 7523,
      "runners": 7524,
      "solely": 7525,
      "solace": 7526,
      "hardship": 7527,
      "hardships": 7528,
      "mindful": 7529,
      "serif": 7530,
      "emotionless": 7531,
      "teddy": 7532,
      "shoe": 7533,
      "shook": 7534,
      "shocking": 7535,
      "showered": 7536,
      "shooting": 7537,
      "excel": 7538,
      "excitment": 7539,
      "central": 7540,
      "hurry": 7541,
      "hurrican": 7542,
      "turkey": 7543,
      "functions": 7544,
      "hire": 7545,
      "hier": 7546,
      "prime": 7547,
      "giver": 7548,
      "venting": 7549,
      "freezing": 7550,
      "irrationally": 7551,
      "passionately": 7552,
      "handing": 7553,
      "tutor": 7554,
      "goddess": 7555,
      "cule": 7556,
      "cured": 7557,
      "cubic": 7558,
      "nyc": 7559,
      "buried": 7560,
      "butions": 7561,
      "buzz": 7562,
      "bubbling": 7563,
      "olds": 7564,
      "voices": 7565,
      "pointing": 7566,
      "syndrome": 7567,
      "matic": 7568,
      "mattered": 7569,
      "column": 7570,
      "venge": 7571,
      "vention": 7572,
      "bury": 7573,
      "bursting": 7574,
      "calmer": 7575,
      "calming": 7576,
      "fled": 7577,
      "flag": 7578,
      "singular": 7579,
      "showers": 7580,
      "trappings": 7581,
      "effic": 7582,
      "melting": 7583,
      "reasonably": 7584,
      "sleeps": 7585,
      "shire": 7586,
      "borne": 7587,
      "gap": 7588,
      "skies": 7589,
      "tends": 7590,
      "tendency": 7591,
      "meantime": 7592,
      "weirdly": 7593,
      "sickening": 7594,
      "welcoming": 7595,
      "bars": 7596,
      "differ": 7597,
      "subjected": 7598,
      "longest": 7599,
      "cesses": 7600,
      "sucking": 7601,
      "distant": 7602,
      "kidn": 7603,
      "stein": 7604,
      "greatness": 7605,
      "classmates": 7606,
      "stupidity": 7607,
      "cheers": 7608,
      "admiration": 7609,
      "casm": 7610,
      "casually": 7611,
      "comings": 7612,
      "denied": 7613,
      "charge": 7614,
      "charlie": 7615,
      "lapse": 7616,
      "obtain": 7617,
      "obsess": 7618,
      "obsession": 7619,
      "ruin": 7620,
      "russ": 7621,
      "merry": 7622,
      "productivity": 7623,
      "picking": 7624,
      "picnic": 7625,
      "interactions": 7626,
      "interviews": 7627,
      "interpret": 7628,
      "trustworthy": 7629,
      "frustrations": 7630,
      "offense": 7631,
      "curse": 7632,
      "slighted": 7633,
      "housewife": 7634,
      "musings": 7635,
      "ondent": 7636,
      "compul": 7637,
      "compens": 7638,
      "complic": 7639,
      "glee": 7640,
      "inks": 7641,
      "command": 7642,
      "ficial": 7643,
      "continent": 7644,
      "fuckin": 7645,
      "superman": 7646,
      "supervis": 7647,
      "supermarket": 7648,
      "cooler": 7649,
      "crime": 7650,
      "cries": 7651,
      "honey": 7652,
      "crystal": 7653,
      "igns": 7654,
      "sympath": 7655,
      "sympathize": 7656,
      "visual": 7657,
      "honesty": 7658,
      "virus": 7659,
      "christmass": 7660,
      "exhaustion": 7661,
      "wars": 7662,
      "warri": 7663,
      "hotel": 7664,
      "punct": 7665,
      "ential": 7666,
      "german": 7667,
      "haircut": 7668,
      "convoluted": 7669,
      "ooo": 7670,
      "beats": 7671,
      "givings": 7672,
      "madness": 7673,
      "awkwardness": 7674,
      "phobia": 7675,
      "defeat": 7676,
      "defensive": 7677,
      "license": 7678,
      "sundays": 7679,
      "istics": 7680,
      "babysit": 7681,
      "hopelessly": 7682,
      "embarrassment": 7683,
      "definately": 7684,
      "suffoc": 7685,
      "busines": 7686,
      "messages": 7687,
      "rushing": 7688,
      "wines": 7689,
      "stats": 7690,
      "consideration": 7691,
      "dragon": 7692,
      "mistre": 7693,
      "breaks": 7694,
      "italy": 7695,
      "musician": 7696,
      "musicians": 7697,
      "driver": 7698,
      "drives": 7699,
      "imagining": 7700,
      "festival": 7701,
      "numbers": 7702,
      "follows": 7703,
      "siren": 7704,
      "sibling": 7705,
      "collected": 7706,
      "collective": 7707,
      "resolution": 7708,
      "tones": 7709,
      "legend": 7710,
      "legions": 7711,
      "legacy": 7712,
      "distract": 7713,
      "optimism": 7714,
      "blos": 7715,
      "blown": 7716,
      "bloom": 7717,
      "sounded": 7718,
      "reminding": 7719,
      "secondary": 7720,
      "spoon": 7721,
      "spoiled": 7722,
      "supporters": 7723,
      "disturb": 7724,
      "halfway": 7725,
      "sentences": 7726,
      "slumber": 7727,
      "slugg": 7728,
      "insan": 7729,
      "insight": 7730,
      "machines": 7731,
      "resulted": 7732,
      "despondent": 7733,
      "benign": 7734,
      "benjam": 7735,
      "dropped": 7736,
      "limbo": 7737,
      "limits": 7738,
      "grows": 7739,
      "scum": 7740,
      "scissor": 7741,
      "mentioning": 7742,
      "examination": 7743,
      "smiles": 7744,
      "laurie": 7745,
      "invited": 7746,
      "invaded": 7747,
      "expans": 7748,
      "expressions": 7749,
      "queer": 7750,
      "virtual": 7751,
      "reception": 7752,
      "entering": 7753,
      "harrass": 7754,
      "hardest": 7755,
      "trainer": 7756,
      "bald": 7757,
      "ballet": 7758,
      "dawn": 7759,
      "hunting": 7760,
      "hunger": 7761,
      "explains": 7762,
      "shorts": 7763,
      "fathers": 7764,
      "desert": 7765,
      "humanity": 7766,
      "learns": 7767,
      "riding": 7768,
      "swings": 7769,
      "switched": 7770,
      "beginnings": 7771,
      "faced": 7772,
      "factors": 7773,
      "protest": 7774,
      "direct": 7775,
      "directing": 7776,
      "describing": 7777,
      "biofuels": 7778,
      "nico": 7779,
      "ounced": 7780,
      "presentations": 7781,
      "advances": 7782,
      "stubbornly": 7783,
      "flowy": 7784,
      "continuous": 7785,
      "continuously": 7786,
      "july": 7787,
      "corpse": 7788,
      "hyun": 7789,
      "oscar": 7790,
      "feeds": 7791,
      "teeny": 7792,
      "sara": 7793,
      "sarcasm": 7794,
      "sugary": 7795,
      "sugars": 7796,
      "concert": 7797,
      "concerning": 7798,
      "chain": 7799,
      "chaotic": 7800,
      "chambers": 7801,
      "equation": 7802,
      "gaining": 7803,
      "aneous": 7804,
      "raped": 7805,
      "raphael": 7806,
      "rapidly": 7807,
      "kissed": 7808,
      "socializing": 7809,
      "accum": 7810,
      "strengthen": 7811,
      "respectful": 7812,
      "victims": 7813,
      "tomorrows": 7814,
      "starring": 7815,
      "capital": 7816,
      "belonged": 7817,
      "cardio": 7818,
      "ladder": 7819,
      "includes": 7820,
      "keyboard": 7821,
      "attempts": 7822,
      "flix": 7823,
      "flipped": 7824,
      "netflix": 7825,
      "describes": 7826,
      "milestone": 7827,
      "discussed": 7828,
      "challenging": 7829,
      "celebrated": 7830,
      "celebrations": 7831,
      "dded": 7832,
      "layer": 7833,
      "layout": 7834,
      "layers": 7835,
      "rolling": 7836,
      "complaints": 7837,
      "cupcake": 7838,
      "ipad": 7839,
      "yeast": 7840,
      "educating": 7841,
      "weaker": 7842,
      "deadline": 7843,
      "dancer": 7844,
      "sniff": 7845,
      "signs": 7846,
      "wifes": 7847,
      "transform": 7848,
      "translate": 7849,
      "straightforward": 7850,
      "bounce": 7851,
      "promised": 7852,
      "exercising": 7853,
      "odds": 7854,
      "frail": 7855,
      "fraud": 7856,
      "sales": 7857,
      "increase": 7858,
      "repetition": 7859,
      "organic": 7860,
      "destined": 7861,
      "destiny": 7862,
      "destroying": 7863,
      "transp": 7864,
      "systems": 7865,
      "dramas": 7866,
      "clip": 7867,
      "clients": 7868,
      "hangs": 7869,
      "penn": 7870,
      "penis": 7871,
      "bitches": 7872,
      "fixed": 7873,
      "bloody": 7874,
      "recognition": 7875,
      "tables": 7876,
      "anguished": 7877,
      "strip": 7878,
      "striking": 7879,
      "stripped": 7880,
      "strikes": 7881,
      "secrets": 7882,
      "confession": 7883,
      "quilts": 7884,
      "booth": 7885,
      "earthquake": 7886,
      "fluff": 7887,
      "dependent": 7888,
      "behaviour": 7889,
      "cultures": 7890,
      "ailments": 7891,
      "splash": 7892,
      "windy": 7893,
      "annie": 7894,
      "sucker": 7895,
      "programming": 7896,
      "gradually": 7897,
      "contributions": 7898,
      "similarly": 7899,
      "increased": 7900,
      "increases": 7901,
      "hats": 7902,
      "nicer": 7903,
      "reviews": 7904,
      "lipsticks": 7905,
      "medications": 7906,
      "woods": 7907,
      "meaningless": 7908,
      "secretary": 7909,
      "bbq": 7910,
      "mummy": 7911,
      "instit": 7912,
      "instagram": 7913,
      "boxes": 7914,
      "embracing": 7915,
      "energised": 7916,
      "surroundings": 7917,
      "communic": 7918,
      "communication": 7919,
      "explored": 7920,
      "giggle": 7921,
      "gigantic": 7922,
      "attraction": 7923,
      "attended": 7924,
      "separately": 7925,
      "contrary": 7926,
      "contradic": 7927,
      "preferably": 7928,
      "combat": 7929,
      "beneficial": 7930,
      "fashioned": 7931,
      "pounding": 7932,
      "racing": 7933,
      "racism": 7934,
      "twitchy": 7935,
      "uki": 7936,
      "abandonment": 7937,
      "shifting": 7938,
      "maternal": 7939,
      "materials": 7940,
      "pursuits": 7941,
      "literary": 7942,
      "literature": 7943,
      "flew": 7944,
      "flesh": 7945,
      "yelled": 7946,
      "hollow": 7947,
      "cookie": 7948,
      "necklace": 7949,
      "polish": 7950,
      "politely": 7951,
      "shirts": 7952,
      "bottoms": 7953,
      "dieting": 7954,
      "treasure": 7955,
      "attacked": 7956,
      "bullet": 7957,
      "leness": 7958,
      "sidelines": 7959,
      "schedul": 7960,
      "replies": 7961,
      "reporting": 7962,
      "soothe": 7963,
      "novels": 7964,
      "potter": 7965,
      "comparatively": 7966,
      "improvement": 7967,
      "graduation": 7968,
      "investig": 7969,
      "battles": 7970,
      "ethics": 7971,
      "mrs": 7972,
      "slice": 7973,
      "squad": 7974,
      "squir": 7975,
      "fulfillment": 7976,
      "responding": 7977,
      "publisher": 7978,
      "contributed": 7979,
      "obligations": 7980,
      "randomly": 7981,
      "scrutiny": 7982,
      "wounded": 7983,
      "cherry": 7984,
      "possession": 7985,
      "digging": 7986,
      "digital": 7987,
      "profit": 7988,
      "fellowship": 7989,
      "spirituality": 7990,
      "radiation": 7991,
      "crowded": 7992,
      "garments": 7993,
      "jerk": 7994,
      "influenced": 7995,
      "alternate": 7996,
      "concentrating": 7997,
      "evolution": 7998,
      "britain": 7999,
      "firmly": 8000,
      "bundle": 8001,
      "chairs": 8002,
      "egal": 8003,
      "linked": 8004,
      "micro": 8005,
      "pedest": 8006,
      "snoo": 8007,
      "sources": 8008,
      "texture": 8009,
      "chased": 8010,
      "collabor": 8011,
      "consumed": 8012,
      "consuming": 8013,
      "agony": 8014,
      "cruz": 8015,
      "succeeded": 8016,
      "employers": 8017,
      "introduction": 8018,
      "cultur": 8019,
      "dedicated": 8020,
      "sloth": 8021,
      "features": 8022,
      "referring": 8023,
      "immune": 8024,
      "immersed": 8025,
      "moistur": 8026,
      "accessories": 8027,
      "conservatives": 8028,
      "exhibitions": 8029,
      "spinning": 8030,
      "shadows": 8031,
      "phrases": 8032,
      "minority": 8033,
      "breastfeeding": 8034,
      "participants": 8035,
      "globe": 8036,
      "mildly": 8037,
      "sacred": 8038,
      "telep": 8039,
      "vanilla": 8040,
      "references": 8041,
      "itarian": 8042,
      "measuring": 8043,
      "adapt": 8044,
      "adjustment": 8045,
      "youthful": 8046,
      "selection": 8047,
      "emerge": 8048,
      "fireplace": 8049,
      "deliver": 8050,
      "effective": 8051,
      "defending": 8052,
      "dragged": 8053,
      "occupy": 8054,
      "economic": 8055,
      "figuring": 8056,
      "gaze": 8057,
      "packet": 8058,
      "wrapping": 8059,
      "association": 8060,
      "liberal": 8061,
      "immense": 8062,
      "homophobic": 8063,
      "conducted": 8064,
      "conducive": 8065,
      "vibrant": 8066,
      "studies": 8067,
      "decorate": 8068,
      "resource": 8069,
      "priority": 8070,
      "incidents": 8071,
      "distinctly": 8072,
      "scenario": 8073,
      "portrayal": 8074,
      "smoothly": 8075,
      "enthusiastic": 8076,
      "campus": 8077,
      "dorm": 8078,
      "iii": 8079,
      "james": 8080,
      "miracles": 8081,
      "oxygen": 8082,
      "pastor": 8083,
      "passport": 8084,
      "tumblr": 8085,
      "ville": 8086,
      "independence": 8087,
      "lemonade": 8088,
      "whims": 8089,
      "robin": 8090,
      "robbed": 8091,
      "advertising": 8092,
      "golden": 8093,
      "allergies": 8094,
      "deemed": 8095,
      "declined": 8096,
      "sprint": 8097,
      "bomb": 8098,
      "meditating": 8099,
      "typically": 8100,
      "awaken": 8101,
      "minimal": 8102,
      "minimum": 8103,
      "tornado": 8104,
      "marginalized": 8105,
      "addiction": 8106,
      "legitimately": 8107,
      "technique": 8108,
      "psychologist": 8109,
      "candy": 8110,
      "hilarious": 8111,
      "june": 8112,
      "knee": 8113,
      "mammo": 8114,
      "nuclear": 8115,
      "narrator": 8116,
      "sanity": 8117,
      "scripture": 8118,
      "tango": 8119,
      "tangible": 8120,
      "waters": 8121,
      "yyy": 8122,
      "thirty": 8123,
      "thirsty": 8124,
      "inevitable": 8125,
      "elderly": 8126,
      "remarkable": 8127,
      "adoring": 8128,
      "adorable": 8129,
      "precise": 8130,
      "integrity": 8131,
      "primer": 8132,
      "stretching": 8133,
      "fruits": 8134,
      "floral": 8135,
      "florida": 8136,
      "commitment": 8137,
      "limitations": 8138,
      "chapter": 8139,
      "snacks": 8140,
      "analyzed": 8141,
      "australians": 8142,
      "btw": 8143,
      "ccs": 8144,
      "cabin": 8145,
      "category": 8146,
      "eternal": 8147,
      "knock": 8148,
      "nagging": 8149,
      "vomit": 8150,
      "warehouse": 8151,
      "zombie": 8152,
      "strolling": 8153,
      "wiggle": 8154,
      "george": 8155,
      "consult": 8156,
      "condemning": 8157,
      "compete": 8158,
      "affirmation": 8159,
      "marrying": 8160,
      "sleepless": 8161,
      "laptop": 8162,
      "drowning": 8163,
      "flirty": 8164,
      "appropriate": 8165,
      "appropriately": 8166,
      "patrick": 8167,
      "professor": 8168,
      "professors": 8169,
      "heavier": 8170,
      "heavily": 8171,
      "instinct": 8172,
      "instincts": 8173,
      "hollywood": 8174,
      "luxury": 8175,
      "autumn": 8176,
      "fifteen": 8177,
      "hmmm": 8178,
      "jason": 8179,
      "latter": 8180,
      "nuts": 8181,
      "owls": 8182,
      "signing": 8183,
      "tastes": 8184,
      "yuuki": 8185,
      "thomas": 8186,
      "injured": 8187,
      "instructions": 8188,
      "rewarding": 8189,
      "requests": 8190,
      "attainable": 8191,
      "envelo": 8192,
      "enriched": 8193,
      "assessment": 8194,
      "implement": 8195,
      "acquaint": 8196,
      "roberts": 8197,
      "administration": 8198,
      "supremely": 8199,
      "colored": 8200,
      "weapons": 8201,
      "cautious": 8202,
      "confrontation": 8203,
      "platform": 8204,
      "disregarded": 8205,
      "spontaneous": 8206,
      "guarantee": 8207,
      "relentless": 8208,
      "bleeding": 8209,
      "homeschooling": 8210,
      "paralysed": 8211,
      "philippines": 8212,
      "nightmare": 8213,
      "dubai": 8214,
      "trigger": 8215,
      "flavor": 8216,
      "traumatic": 8217,
      "borders": 8218,
      "skirt": 8219,
      "subscri": 8220,
      "athletic": 8221,
      "internally": 8222,
      "difficulty": 8223,
      "transcend": 8224,
      "transferred": 8225,
      "grieving": 8226,
      "volunteer": 8227,
      "tomatoes": 8228,
      "european": 8229,
      "contemplating": 8230,
      "fascinated": 8231,
      "mournful": 8232,
      "stereotype": 8233,
      "euphoria": 8234,
      "mantra": 8235,
      "infertility": 8236,
      "ancient": 8237,
      "ingredients": 8238,
      "reputation": 8239,
      "recession": 8240,
      "oncologist": 8241,
      "stimulating": 8242,
      "stadium": 8243,
      "stirred": 8244,
      "mystery": 8245,
      "chuffed": 8246,
      "ambulance": 8247,
      "accurate": 8248,
      "unreasonable": 8249,
      "western": 8250,
      "destructive": 8251,
      "conceal": 8252,
      "perfume": 8253,
      "induced": 8254,
      "dialog": 8255,
      "guidance": 8256,
      "taiwan": 8257,
      "pakistan": 8258,
      "bracelet": 8259,
      "established": 8260,
      "privacy": 8261,
      "cussions": 8262,
      "cuddling": 8263,
      "restricted": 8264,
      "travelling": 8265,
      "subtle": 8266,
      "obstacles": 8267,
      "blogosphere": 8268,
      "architect": 8269,
      "harmony": 8270,
      "journals": 8271,
      "champagne": 8272,
      "emphasize": 8273,
      "flexible": 8274,
      "fleeting": 8275,
      "korean": 8276,
      "attachment": 8277,
      "effectively": 8278,
      "chemistry": 8279,
      "olympic": 8280,
      "benedict": 8281,
      "gallery": 8282,
      "ipod": 8283,
      "jumper": 8284,
      "jordan": 8285,
      "lounge": 8286,
      "mundane": 8287,
      "pushover": 8288,
      "pizza": 8289,
      "panties": 8290,
      "rhetoric": 8291,
      "taylor": 8292,
      "twelve": 8293,
      "twinges": 8294,
      "zimbabwe": 8295,
      "zumba": 8296,
      "insert": 8297,
      "federal": 8298,
      "repercussions": 8299,
      "republican": 8300,
      "reinforce": 8301,
      "encountered": 8302,
      "bewildered": 8303,
      "nominated": 8304,
      "haiku": 8305,
      "immigr": 8306,
      "tiveness": 8307,
      "tivism": 8308,
      "absurd": 8309,
      "accustomed": 8310,
      "coconut": 8311,
      "withdrawal": 8312,
      "uncharacteristically": 8313,
      "consumers": 8314,
      "constitution": 8315,
      "condescending": 8316,
      "exceedingly": 8317,
      "shinobi": 8318,
      "plagued": 8319,
      "disclaimer": 8320,
      "procedure": 8321,
      "vividly": 8322,
      "mediocre": 8323,
      "sincerity": 8324,
      "prescribed": 8325,
      "cubicle": 8326,
      "christmassy": 8327,
      "businesses": 8328,
      "sluggish": 8329,
      "benjamin": 8330,
      "aj": 8331,
      "athing": 8332,
      "aish": 8333,
      "avi": 8334,
      "apt": 8335,
      "aways": 8336,
      "aken": 8337,
      "auture": 8338,
      "apron": 8339,
      "bc": 8340,
      "bin": 8341,
      "bant": 8342,
      "bally": 8343,
      "baf": 8344,
      "bure": 8345,
      "bush": 8346,
      "bib": 8347,
      "bump": 8348,
      "bsc": 8349,
      "bbly": 8350,
      "bugs": 8351,
      "bani": 8352,
      "busting": 8353,
      "bouts": 8354,
      "bino": 8355,
      "baker": 8356,
      "cf": 8357,
      "cm": 8358,
      "cin": 8359,
      "cen": 8360,
      "cof": 8361,
      "cke": 8362,
      "css": 8363,
      "cind": 8364,
      "ctic": 8365,
      "ccer": 8366,
      "cush": 8367,
      "cumb": 8368,
      "cities": 8369,
      "cils": 8370,
      "ckey": 8371,
      "ciss": 8372,
      "ckets": 8373,
      "clicking": 8374,
      "dh": 8375,
      "dl": 8376,
      "dm": 8377,
      "dly": 8378,
      "dim": 8379,
      "dut": 8380,
      "dent": 8381,
      "dul": 8382,
      "dic": 8383,
      "dang": 8384,
      "duck": 8385,
      "dging": 8386,
      "dah": 8387,
      "dities": 8388,
      "dried": 8389,
      "dict": 8390,
      "dhar": 8391,
      "dumps": 8392,
      "ditched": 8393,
      "ethe": 8394,
      "eed": 8395,
      "ees": 8396,
      "eid": 8397,
      "eous": 8398,
      "east": 8399,
      "etic": 8400,
      "eater": 8401,
      "ebon": 8402,
      "ebay": 8403,
      "ewan": 8404,
      "fc": 8405,
      "fter": 8406,
      "fred": 8407,
      "fade": 8408,
      "flog": 8409,
      "fty": 8410,
      "fident": 8411,
      "fati": 8412,
      "fud": 8413,
      "floss": 8414,
      "flicking": 8415,
      "gm": 8416,
      "gab": 8417,
      "gust": 8418,
      "gart": 8419,
      "glow": 8420,
      "gau": 8421,
      "gans": 8422,
      "gage": 8423,
      "gance": 8424,
      "grain": 8425,
      "gats": 8426,
      "gimm": 8427,
      "gaming": 8428,
      "gmatic": 8429,
      "hb": 8430,
      "hd": 8431,
      "hr": 8432,
      "hs": 8433,
      "hed": 8434,
      "hsp": 8435,
      "hine": 8436,
      "huck": 8437,
      "hance": 8438,
      "hud": 8439,
      "hills": 8440,
      "hedge": 8441,
      "hrs": 8442,
      "ij": 8443,
      "ix": 8444,
      "iam": 8445,
      "ige": 8446,
      "iful": 8447,
      "iving": 8448,
      "iently": 8449,
      "ield": 8450,
      "ivity": 8451,
      "ivalent": 8452,
      "jin": 8453,
      "jit": 8454,
      "jal": 8455,
      "jil": 8456,
      "jens": 8457,
      "jah": 8458,
      "jude": 8459,
      "jama": 8460,
      "jumble": 8461,
      "jabi": 8462,
      "kl": 8463,
      "kre": 8464,
      "kle": 8465,
      "kim": 8466,
      "kam": 8467,
      "kish": 8468,
      "kang": 8469,
      "knight": 8470,
      "kath": 8471,
      "kia": 8472,
      "kni": 8473,
      "kills": 8474,
      "karen": 8475,
      "lh": 8476,
      "lan": 8477,
      "las": 8478,
      "lent": 8479,
      "lul": 8480,
      "lite": 8481,
      "ltr": 8482,
      "lens": 8483,
      "lash": 8484,
      "lings": 8485,
      "lloy": 8486,
      "lane": 8487,
      "lured": 8488,
      "llion": 8489,
      "mb": 8490,
      "mand": 8491,
      "mme": 8492,
      "mim": 8493,
      "mun": 8494,
      "mould": 8495,
      "mint": 8496,
      "mers": 8497,
      "mph": 8498,
      "mumb": 8499,
      "mull": 8500,
      "mitting": 8501,
      "mda": 8502,
      "mbi": 8503,
      "munch": 8504,
      "mously": 8505,
      "nin": 8506,
      "nas": 8507,
      "nate": 8508,
      "nug": 8509,
      "nude": 8510,
      "niss": 8511,
      "natives": 8512,
      "oi": 8513,
      "oat": 8514,
      "oma": 8515,
      "osh": 8516,
      "ood": 8517,
      "ota": 8518,
      "oily": 8519,
      "ogy": 8520,
      "oreg": 8521,
      "obey": 8522,
      "ological": 8523,
      "opause": 8524,
      "pb": 8525,
      "pg": 8526,
      "ply": 8527,
      "pad": 8528,
      "pent": 8529,
      "pup": 8530,
      "pits": 8531,
      "pure": 8532,
      "pies": 8533,
      "patch": 8534,
      "pses": 8535,
      "pitch": 8536,
      "padding": 8537,
      "rd": 8538,
      "rl": 8539,
      "rt": 8540,
      "rou": 8541,
      "rab": 8542,
      "rint": 8543,
      "rite": 8544,
      "rte": 8545,
      "rash": 8546,
      "rinse": 8547,
      "rayed": 8548,
      "rina": 8549,
      "ranted": 8550,
      "ronic": 8551,
      "roughly": 8552,
      "rased": 8553,
      "sd": 8554,
      "sally": 8555,
      "sce": 8556,
      "sif": 8557,
      "scan": 8558,
      "sack": 8559,
      "sits": 8560,
      "stoo": 8561,
      "sought": 8562,
      "scare": 8563,
      "swa": 8564,
      "sword": 8565,
      "sla": 8566,
      "scold": 8567,
      "sasha": 8568,
      "sized": 8569,
      "sket": 8570,
      "sane": 8571,
      "scares": 8572,
      "sends": 8573,
      "snail": 8574,
      "swarming": 8575,
      "slogging": 8576,
      "tx": 8577,
      "tis": 8578,
      "tly": 8579,
      "tart": 8580,
      "tsa": 8581,
      "tite": 8582,
      "tually": 8583,
      "tank": 8584,
      "tary": 8585,
      "tsun": 8586,
      "tele": 8587,
      "tland": 8588,
      "tmr": 8589,
      "taller": 8590,
      "twat": 8591,
      "titled": 8592,
      "twins": 8593,
      "uv": 8594,
      "ube": 8595,
      "ugh": 8596,
      "ugl": 8597,
      "uhur": 8598,
      "uff": 8599,
      "urious": 8600,
      "uries": 8601,
      "utop": 8602,
      "uito": 8603,
      "vm": 8604,
      "vs": 8605,
      "vit": 8606,
      "vun": 8607,
      "vener": 8608,
      "vations": 8609,
      "vaged": 8610,
      "vase": 8611,
      "vassa": 8612,
      "vbac": 8613,
      "wd": 8614,
      "wu": 8615,
      "wad": 8616,
      "wend": 8617,
      "wain": 8618,
      "waf": 8619,
      "wush": 8620,
      "witty": 8621,
      "wagon": 8622,
      "whack": 8623,
      "xel": 8624,
      "xvi": 8625,
      "xist": 8626,
      "xia": 8627,
      "ym": 8628,
      "yout": 8629,
      "yknow": 8630,
      "yang": 8631,
      "zel": 8632,
      "zor": 8633,
      "zay": 8634,
      "zes": 8635,
      "zend": 8636,
      "zack": 8637,
      "zest": 8638,
      "zap": 8639,
      "thunder": 8640,
      "thumb": 8641,
      "thouse": 8642,
      "thians": 8643,
      "thail": 8644,
      "inf": 8645,
      "iner": 8646,
      "inch": 8647,
      "insat": 8648,
      "infl": 8649,
      "inhal": 8650,
      "infant": 8651,
      "incomplete": 8652,
      "infra": 8653,
      "insom": 8654,
      "inconvenience": 8655,
      "inarticulate": 8656,
      "inherent": 8657,
      "inthians": 8658,
      "elly": 8659,
      "elation": 8660,
      "elph": 8661,
      "eloqu": 8662,
      "elements": 8663,
      "anes": 8664,
      "anothers": 8665,
      "annon": 8666,
      "fede": 8667,
      "feast": 8668,
      "fetched": 8669,
      "feauture": 8670,
      "ingrate": 8671,
      "ree": 8672,
      "rex": 8673,
      "rebe": 8674,
      "ress": 8675,
      "renow": 8676,
      "react": 8677,
      "remed": 8678,
      "renew": 8679,
      "rekind": 8680,
      "recl": 8681,
      "retain": 8682,
      "rewrite": 8683,
      "retired": 8684,
      "reject": 8685,
      "recount": 8686,
      "repay": 8687,
      "retreat": 8688,
      "repor": 8689,
      "revered": 8690,
      "revert": 8691,
      "revol": 8692,
      "represented": 8693,
      "redeem": 8694,
      "rers": 8695,
      "retail": 8696,
      "revenue": 8697,
      "reunited": 8698,
      "restored": 8699,
      "replacement": 8700,
      "retiring": 8701,
      "refined": 8702,
      "revenge": 8703,
      "reigns": 8704,
      "thed": 8705,
      "theo": 8706,
      "thening": 8707,
      "thecar": 8708,
      "theater": 8709,
      "themes": 8710,
      "atle": 8711,
      "atly": 8712,
      "atro": 8713,
      "atri": 8714,
      "atom": 8715,
      "atised": 8716,
      "attribut": 8717,
      "attire": 8718,
      "toe": 8719,
      "tol": 8720,
      "toll": 8721,
      "tous": 8722,
      "toby": 8723,
      "toure": 8724,
      "toned": 8725,
      "towel": 8726,
      "torious": 8727,
      "onent": 8728,
      "ongoing": 8729,
      "onions": 8730,
      "onia": 8731,
      "ongest": 8732,
      "erm": 8733,
      "erup": 8734,
      "erated": 8735,
      "erik": 8736,
      "ervation": 8737,
      "edin": 8738,
      "eden": 8739,
      "edit": 8740,
      "edmon": 8741,
      "edgy": 8742,
      "edition": 8743,
      "enam": 8744,
      "endo": 8745,
      "enable": 8746,
      "ention": 8747,
      "enem": 8748,
      "eners": 8749,
      "enlist": 8750,
      "eney": 8751,
      "encas": 8752,
      "encing": 8753,
      "enches": 8754,
      "envision": 8755,
      "ensue": 8756,
      "enhance": 8757,
      "andy": 8758,
      "andre": 8759,
      "andra": 8760,
      "andover": 8761,
      "stam": 8762,
      "stab": 8763,
      "stful": 8764,
      "stur": 8765,
      "stag": 8766,
      "strom": 8767,
      "steven": 8768,
      "stating": 8769,
      "stamp": 8770,
      "stically": 8771,
      "strained": 8772,
      "stinking": 8773,
      "stumbling": 8774,
      "itter": 8775,
      "itative": 8776,
      "alm": 8777,
      "aly": 8778,
      "alli": 8779,
      "alge": 8780,
      "alter": 8781,
      "alight": 8782,
      "aline": 8783,
      "almon": 8784,
      "alised": 8785,
      "alask": 8786,
      "alene": 8787,
      "alert": 8788,
      "allest": 8789,
      "allocated": 8790,
      "alittle": 8791,
      "albino": 8792,
      "ora": 8793,
      "orchest": 8794,
      "ortho": 8795,
      "orient": 8796,
      "iser": 8797,
      "isra": 8798,
      "isely": 8799,
      "isans": 8800,
      "isms": 8801,
      "isprivate": 8802,
      "islam": 8803,
      "mesh": 8804,
      "metic": 8805,
      "mega": 8806,
      "mechan": 8807,
      "leon": 8808,
      "lege": 8809,
      "leaf": 8810,
      "leans": 8811,
      "leberry": 8812,
      "asa": 8813,
      "ashe": 8814,
      "assure": 8815,
      "asset": 8816,
      "aston": 8817,
      "asians": 8818,
      "assem": 8819,
      "bean": 8820,
      "beast": 8821,
      "beck": 8822,
      "befriend": 8823,
      "betty": 8824,
      "behaving": 8825,
      "becas": 8826,
      "bearing": 8827,
      "bears": 8828,
      "becuz": 8829,
      "beij": 8830,
      "ara": 8831,
      "ari": 8832,
      "arre": 8833,
      "arro": 8834,
      "armor": 8835,
      "arched": 8836,
      "veg": 8837,
      "veget": 8838,
      "veil": 8839,
      "vement": 8840,
      "myst": 8841,
      "myri": 8842,
      "myspace": 8843,
      "mytho": 8844,
      "sored": 8845,
      "soda": 8846,
      "soaked": 8847,
      "soccer": 8848,
      "liz": 8849,
      "liar": 8850,
      "liver": 8851,
      "liate": 8852,
      "lifel": 8853,
      "lyn": 8854,
      "noe": 8855,
      "noti": 8856,
      "noone": 8857,
      "nosy": 8858,
      "noise": 8859,
      "noons": 8860,
      "nomine": 8861,
      "noises": 8862,
      "nodded": 8863,
      "hae": 8864,
      "hai": 8865,
      "haul": 8866,
      "hacking": 8867,
      "haunt": 8868,
      "whal": 8869,
      "whir": 8870,
      "wheat": 8871,
      "whitle": 8872,
      "whiff": 8873,
      "whale": 8874,
      "seo": 8875,
      "sep": 8876,
      "sew": 8877,
      "sein": 8878,
      "seated": 8879,
      "sect": 8880,
      "seaf": 8881,
      "sevent": 8882,
      "segreg": 8883,
      "seeds": 8884,
      "seams": 8885,
      "segments": 8886,
      "severe": 8887,
      "searched": 8888,
      "immed": 8889,
      "immin": 8890,
      "iments": 8891,
      "imming": 8892,
      "imize": 8893,
      "imony": 8894,
      "chats": 8895,
      "chief": 8896,
      "chron": 8897,
      "chronic": 8898,
      "tia": 8899,
      "tid": 8900,
      "tie": 8901,
      "tig": 8902,
      "tist": 8903,
      "tide": 8904,
      "tivi": 8905,
      "tible": 8906,
      "tique": 8907,
      "amish": 8908,
      "amble": 8909,
      "amusing": 8910,
      "amins": 8911,
      "ambi": 8912,
      "amvassa": 8913,
      "abstr": 8914,
      "esses": 8915,
      "esque": 8916,
      "escap": 8917,
      "verbal": 8918,
      "versus": 8919,
      "verbally": 8920,
      "los": 8921,
      "logo": 8922,
      "loans": 8923,
      "loween": 8924,
      "locking": 8925,
      "lotte": 8926,
      "loki": 8927,
      "loathing": 8928,
      "wil": 8929,
      "wip": 8930,
      "wire": 8931,
      "wifi": 8932,
      "wield": 8933,
      "willi": 8934,
      "wistful": 8935,
      "uters": 8936,
      "utality": 8937,
      "utches": 8938,
      "outer": 8939,
      "outra": 8940,
      "outright": 8941,
      "outlet": 8942,
      "outcomes": 8943,
      "outdoor": 8944,
      "outweigh": 8945,
      "forsa": 8946,
      "forces": 8947,
      "formal": 8948,
      "forgiving": 8949,
      "forgett": 8950,
      "ghet": 8951,
      "idal": 8952,
      "idious": 8953,
      "idenced": 8954,
      "idural": 8955,
      "moe": 8956,
      "moil": 8957,
      "mock": 8958,
      "mojo": 8959,
      "modu": 8960,
      "motive": 8961,
      "modif": 8962,
      "motors": 8963,
      "mosqu": 8964,
      "acum": 8965,
      "acity": 8966,
      "accus": 8967,
      "acknowled": 8968,
      "accompany": 8969,
      "activi": 8970,
      "roe": 8971,
      "roo": 8972,
      "ros": 8973,
      "robe": 8974,
      "rots": 8975,
      "root": 8976,
      "rophobic": 8977,
      "rocke": 8978,
      "adul": 8979,
      "addis": 8980,
      "adhere": 8981,
      "adren": 8982,
      "adap": 8983,
      "adverse": 8984,
      "admission": 8985,
      "adoption": 8986,
      "adjective": 8987,
      "adomen": 8988,
      "adelph": 8989,
      "ria": 8990,
      "rio": 8991,
      "rip": 8992,
      "rici": 8993,
      "rified": 8994,
      "rigor": 8995,
      "ricks": 8996,
      "rigued": 8997,
      "entren": 8998,
      "entrance": 8999,
      "suz": 9000,
      "sund": 9001,
      "subar": 9002,
      "hob": 9003,
      "hoho": 9004,
      "holl": 9005,
      "hops": 9006,
      "homely": 9007,
      "hoax": 9008,
      "hobble": 9009,
      "hobby": 9010,
      "hockey": 9011,
      "coh": 9012,
      "cosm": 9013,
      "coction": 9014,
      "coping": 9015,
      "cosmo": 9016,
      "coordin": 9017,
      "coats": 9018,
      "coworker": 9019,
      "withstand": 9020,
      "withdraw": 9021,
      "hein": 9022,
      "heated": 9023,
      "unsu": 9024,
      "uncom": 9025,
      "unwell": 9026,
      "unreal": 9027,
      "undu": 9028,
      "unted": 9029,
      "unsatisfied": 9030,
      "undone": 9031,
      "unusually": 9032,
      "unresolved": 9033,
      "unintelligent": 9034,
      "undeser": 9035,
      "unfinished": 9036,
      "unfur": 9037,
      "unhappiness": 9038,
      "unavoid": 9039,
      "untouched": 9040,
      "unwilling": 9041,
      "unprepared": 9042,
      "unfulfilled": 9043,
      "unpaid": 9044,
      "unnaturally": 9045,
      "unsettling": 9046,
      "unza": 9047,
      "unbearable": 9048,
      "unbeliev": 9049,
      "undesired": 9050,
      "unattainable": 9051,
      "unforgett": 9052,
      "ulum": 9053,
      "ulations": 9054,
      "dos": 9055,
      "gevity": 9056,
      "geared": 9057,
      "geograph": 9058,
      "icted": 9059,
      "thise": 9060,
      "gow": 9061,
      "goat": 9062,
      "gosh": 9063,
      "gosp": 9064,
      "antiso": 9065,
      "weed": 9066,
      "weary": 9067,
      "wealth": 9068,
      "ustered": 9069,
      "llen": 9070,
      "pea": 9071,
      "peas": 9072,
      "pees": 9073,
      "peach": 9074,
      "pete": 9075,
      "petu": 9076,
      "pepper": 9077,
      "caf": 9078,
      "cakes": 9079,
      "ssy": 9080,
      "allusion": 9081,
      "nepal": 9082,
      "newest": 9083,
      "neatly": 9084,
      "irre": 9085,
      "irable": 9086,
      "irresist": 9087,
      "def": 9088,
      "dew": 9089,
      "deer": 9090,
      "deple": 9091,
      "desol": 9092,
      "dejected": 9093,
      "detest": 9094,
      "depressing": 9095,
      "defiance": 9096,
      "dehydr": 9097,
      "termin": 9098,
      "terrain": 9099,
      "justin": 9100,
      "justific": 9101,
      "justifying": 9102,
      "fuls": 9103,
      "ceo": 9104,
      "ceiling": 9105,
      "ceases": 9106,
      "ousers": 9107,
      "ivered": 9108,
      "conc": 9109,
      "conver": 9110,
      "conqu": 9111,
      "conform": 9112,
      "congress": 9113,
      "confirm": 9114,
      "consumption": 9115,
      "conquer": 9116,
      "consecu": 9117,
      "constip": 9118,
      "concoction": 9119,
      "rave": 9120,
      "rapt": 9121,
      "raph": 9122,
      "raise": 9123,
      "rages": 9124,
      "ragged": 9125,
      "rachel": 9126,
      "razor": 9127,
      "uper": 9128,
      "upsetting": 9129,
      "plead": 9130,
      "thern": 9131,
      "redund": 9132,
      "usal": 9133,
      "usly": 9134,
      "usable": 9135,
      "usher": 9136,
      "users": 9137,
      "uscule": 9138,
      "mai": 9139,
      "mathem": 9140,
      "mags": 9141,
      "makin": 9142,
      "daydream": 9143,
      "worms": 9144,
      "timetable": 9145,
      "aret": 9146,
      "arena": 9147,
      "aretha": 9148,
      "prey": 9149,
      "premon": 9150,
      "prepost": 9151,
      "preted": 9152,
      "preaching": 9153,
      "presum": 9154,
      "preform": 9155,
      "pretenti": 9156,
      "premature": 9157,
      "predomin": 9158,
      "preference": 9159,
      "arted": 9160,
      "artisans": 9161,
      "wayne": 9162,
      "extr": 9163,
      "exited": 9164,
      "extern": 9165,
      "expose": 9166,
      "excru": 9167,
      "extension": 9168,
      "exotic": 9169,
      "endur": 9170,
      "endings": 9171,
      "endured": 9172,
      "endorph": 9173,
      "urely": 9174,
      "urgent": 9175,
      "uratively": 9176,
      "poly": 9177,
      "poking": 9178,
      "posto": 9179,
      "pores": 9180,
      "pots": 9181,
      "poles": 9182,
      "poppy": 9183,
      "popping": 9184,
      "poison": 9185,
      "pooped": 9186,
      "pomp": 9187,
      "poetic": 9188,
      "canal": 9189,
      "cantor": 9190,
      "ttt": 9191,
      "tted": 9192,
      "ttest": 9193,
      "perme": 9194,
      "percent": 9195,
      "perpet": 9196,
      "perpetu": 9197,
      "comic": 9198,
      "compress": 9199,
      "composition": 9200,
      "comfy": 9201,
      "sher": 9202,
      "shining": 9203,
      "shina": 9204,
      "shhh": 9205,
      "shattered": 9206,
      "shannon": 9207,
      "anya": 9208,
      "hows": 9209,
      "ittled": 9210,
      "agan": 9211,
      "agious": 9212,
      "agencies": 9213,
      "agraph": 9214,
      "ody": 9215,
      "indis": 9216,
      "indones": 9217,
      "dong": 9218,
      "donut": 9219,
      "getaway": 9220,
      "evidence": 9221,
      "evidenced": 9222,
      "wholeness": 9223,
      "asts": 9224,
      "asting": 9225,
      "astery": 9226,
      "ila": 9227,
      "illic": 9228,
      "illion": 9229,
      "plug": 9230,
      "plates": 9231,
      "planted": 9232,
      "plugs": 9233,
      "plugged": 9234,
      "bites": 9235,
      "quie": 9236,
      "willed": 9237,
      "willingly": 9238,
      "wouldve": 9239,
      "diss": 9240,
      "disgr": 9241,
      "dismiss": 9242,
      "distor": 9243,
      "dissol": 9244,
      "discount": 9245,
      "disabilities": 9246,
      "disregarding": 9247,
      "dissip": 9248,
      "dissolve": 9249,
      "disagreement": 9250,
      "disabled": 9251,
      "disorient": 9252,
      "spen": 9253,
      "spit": 9254,
      "spying": 9255,
      "spacious": 9256,
      "spelt": 9257,
      "umi": 9258,
      "umbled": 9259,
[...]
