{
  "version": "1.0",
  "truncation": null,
  "padding": null,
  "added_tokens": [
    {
      "id": 0,
      "content": "[PAD]",
      "single_word": false,
      "lstrip": false,
      "rstrip": false,
      "normalized": false,
      "special": true
    },
    {
      "id": 1,
      "content": "[UNK]",
      "single_word": false,
      "lstrip": false,
      "rstrip": false,
      "normalized": false,
      "special": true
    }
  ],
  "normalizer": null,
  "pre_tokenizer": {
    "type": "Whitespace"
  },
  "post_processor": null,
  "decoder": null,
  "model": {
    "type": "BPE",
    "dropout": null,
    "unk_token": null,
    "continuing_subword_prefix": null,
    "end_of_word_suffix": null,
    "fuse_unk": false,
    "byte_fallback": false,
    "ignore_merges": false,
    "vocab": {
      "[PAD]": 0,
      "[UNK]": 1,
      "a": 2,
      "b": 3,
      "c": 4,
      "d": 5,
      "e": 6,
      "f": 7,
      "g": 8,
      "h": 9,
      "i": 10,
      "j": 11,
      "k": 12,
      "l": 13,
      "m": 14,
      "n": 15,
      "o": 16,
      "p": 17,
      "q": 18,
      "r": 19,
      "s": 20,
      "t": 21,
      "u": 22,
      "v": 23,
      "w": 24,
      "x": 25,
      "y": 26,
      "z": 27,
      "th": 28,
      "in": 29,
      "el": 30,
      "an": 31,
      "fe": 32,
      "ing": 33,
      "feel": 34,
      "re": 35,
      "the": 36,
      "at": 37,
      "ou": 38,
      "to": 39,
      "ed": 40,
      "er": 41,
      "on": 42,
      "en": 43,
      "and": 44,
      "st": 45,
      "it": 46,
      "al": 47,
      "or": 48,
      "me": 49,
      "is": 50,
      "as": 51,
      "le": 52,
      "be": 53,
      "ar": 54,
      "of": 55,
      "feeling": 56,
      "ve": 57,
      "my": 58,
      "that": 59,
      "so": 60,
      "li": 61,
      "ly": 62,
      "wh": 63,
      "no": 64,
      "ke": 65,
      "ha": 66,
      "se": 67,
      "im": 68,
      "ch": 69,
      "ay": 70,
      "am": 71,
      "ti": 72,
      "ver": 73,
      "lo": 74,
      "ab": 75,
      "es": 76,
      "wi": 77,
      "out": 78,
      "ut": 79,
      "for": 80,
      "gh": 81,
      "like": 82,
      "id": 83,
      "ac": 84,
      "om": 85,
      "ld": 86,
      "su": 87,
      "ad": 88,
      "was": 89,
      "ho": 90,
      "ri": 91,
      "un": 92,
      "but": 93,
      "with": 94,
      "he": 95,
      "ent": 96,
      "mo": 97,
      "ge": 98,
      "we": 99,
      "have": 100,
      "ally": 101,
      "ll": 102,
      "this": 103,
      "you": 104,
      "do": 105,
      "ss": 106,
      "ic": 107,
      "go": 108,
      "ust": 109,
      "not": 110,
      "about": 111,
      "ca": 112,
      "ir": 113,
      "ant": 114,
      "some": 115,
      "pe": 116,
      "ght": 117,
      "all": 118,
      "thing": 119,
      "now": 120,
      "ro": 121,
      "ne": 122,
      "one": 123,
      "ul": 124,
      "ould": 125,
      "ion": 126,
      "ous": 127,
      "very": 128,
      "pp": 129,
      "just": 130,
      "use": 131,
      "when": 132,
      "ter": 133,
      "ce": 134,
      "de": 135,
      "con": 136,
      "pre": 137,
      "up": 138,
      "ive": 139,
      "ther": 140,
      "sh": 141,
      "sel": 142,
      "ple": 143,
      "time": 144,
      "cause": 145,
      "are": 146,
      "ain": 147,
      "way": 148,
      "red": 149,
      "ate": 150,
      "because": 151,
      "art": 152,
      "if": 153,
      "end": 154,
      "by": 155,
      "day": 156,
      "wor": 157,
      "ag": 158,
      "fr": 159,
      "co": 160,
      "tr": 161,
      "self": 162,
      "ake": 163,
      "any": 164,
      "itt": 165,
      "more": 166,
      "ful": 167,
      "com": 168,
      "ex": 169,
      "know": 170,
      "nt": 171,
      "us": 172,
      "can": 173,
      "king": 174,
      "ur": 175,
      "how": 176,
      "ill": 177,
      "get": 178,
      "po": 179,
      "really": 180,
      "per": 181,
      "ated": 182,
      "ind": 183,
      "ely": 184,
      "ough": 185,
      "what": 186,
      "od": 187,
      "don": 188,
      "litt": 189,
      "over": 190,
      "little": 191,
      "bit": 192,
      "want": 193,
      "been": 194,
      "myself": 195,
      "ong": 196,
      "az": 197,
      "ct": 198,
      "tt": 199,
      "ev": 200,
      "ation": 201,
      "str": 202,
      "who": 203,
      "thin": 204,
      "able": 205,
      "ving": 206,
      "il": 207,
      "had": 208,
      "they": 209,
      "nd": 210,
      "ess": 211,
      "pl": 212,
      "qu": 213,
      "ked": 214,
      "will": 215,
      "make": 216,
      "ssed": 217,
      "our": 218,
      "gr": 219,
      "them": 220,
      "her": 221,
      "sp": 222,
      "tic": 223,
      "ople": 224,
      "people": 225,
      "ast": 226,
      "did": 227,
      "bo": 228,
      "would": 229,
      "being": 230,
      "ard": 231,
      "et": 232,
      "from": 233,
      "still": 234,
      "tion": 235,
      "med": 236,
      "every": 237,
      "act": 238,
      "its": 239,
      "ok": 240,
      "whi": 241,
      "ack": 242,
      "him": 243,
      "ell": 244,
      "ol": 245,
      "other": 246,
      "even": 247,
      "te": 248,
      "ound": 249,
      "dis": 250,
      "wn": 251,
      "think": 252,
      "there": 253,
      "ass": 254,
      "mb": 255,
      "see": 256,
      "ort": 257,
      "read": 258,
      "ite": 259,
      "mu": 260,
      "life": 261,
      "ight": 262,
      "pro": 263,
      "than": 264,
      "could": 265,
      "ep": 266,
      "amaz": 267,
      "der": 268,
      "di": 269,
      "love": 270,
      "vi": 271,
      "pr": 272,
      "fri": 273,
      "need": 274,
      "less": 275,
      "ci": 276,
      "ide": 277,
      "gu": 278,
      "say": 279,
      "ish": 280,
      "ace": 281,
      "much": 282,
      "sa": 283,
      "af": 284,
      "start": 285,
      "ved": 286,
      "something": 287,
      "ach": 288,
      "ear": 289,
      "int": 290,
      "fo": 291,
      "going": 292,
      "things": 293,
      "wr": 294,
      "cu": 295,
      "friend": 296,
      "hel": 297,
      "too": 298,
      "she": 299,
      "back": 300,
      "dont": 301,
      "happ": 302,
      "mp": 303,
      "ble": 304,
      "ange": 305,
      "ra": 306,
      "has": 307,
      "ways": 308,
      "ity": 309,
      "sto": 310,
      "au": 311,
      "his": 312,
      "try": 313,
      "unn": 314,
      "most": 315,
      "again": 316,
      "ers": 317,
      "should": 318,
      "work": 319,
      "ine": 320,
      "ry": 321,
      "ment": 322,
      "supp": 323,
      "come": 324,
      "your": 325,
      "low": 326,
      "res": 327,
      "feelings": 328,
      "times": 329,
      "whel": 330,
      "overwhel": 331,
      "tty": 332,
      "app": 333,
      "rel": 334,
      "which": 335,
      "into": 336,
      "feels": 337,
      "after": 338,
      "jo": 339,
      "their": 340,
      "always": 341,
      "ting": 342,
      "uc": 343,
      "pressed": 344,
      "son": 345,
      "overwhelmed": 346,
      "sha": 347,
      "year": 348,
      "mad": 349,
      "whe": 350,
      "good": 351,
      "these": 352,
      "fi": 353,
      "sur": 354,
      "long": 355,
      "ose": 356,
      "ird": 357,
      "right": 358,
      "also": 359,
      "ted": 360,
      "sure": 361,
      "bel": 362,
      "gre": 363,
      "tal": 364,
      "aking": 365,
      "ious": 366,
      "only": 367,
      "mber": 368,
      "weird": 369,
      "though": 370,
      "cho": 371,
      "then": 372,
      "ig": 373,
      "ward": 374,
      "around": 375,
      "were": 376,
      "thr": 377,
      "strange": 378,
      "sho": 379,
      "man": 380,
      "sit": 381,
      "ought": 382,
      "pretty": 383,
      "help": 384,
      "cre": 385,
      "new": 386,
      "ner": 387,
      "ure": 388,
      "ised": 389,
      "cont": 390,
      "mor": 391,
      "ually": 392,
      "log": 393,
      "iss": 394,
      "imp": 395,
      "amazed": 396,
      "fa": 397,
      "used": 398,
      "person": 399,
      "real": 400,
      "ened": 401,
      "ang": 402,
      "ily": 403,
      "may": 404,
      "got": 405,
      "ener": 406,
      "where": 407,
      "fin": 408,
      "today": 409,
      "kind": 410,
      "reme": 411,
      "stre": 412,
      "through": 413,
      "par": 414,
      "cl": 415,
      "pass": 416,
      "impressed": 417,
      "mom": 418,
      "ek": 419,
      "won": 420,
      "ty": 421,
      "iz": 422,
      "bl": 423,
      "des": 424,
      "fel": 425,
      "ever": 426,
      "find": 427,
      "heart": 428,
      "down": 429,
      "wo": 430,
      "surpr": 431,
      "ie": 432,
      "ies": 433,
      "many": 434,
      "week": 435,
      "ick": 436,
      "remember": 437,
      "bet": 438,
      "ist": 439,
      "ning": 440,
      "cant": 441,
      "those": 442,
      "part": 443,
      "off": 444,
      "felt": 445,
      "lot": 446,
      "here": 447,
      "home": 448,
      "didnt": 449,
      "made": 450,
      "age": 451,
      "someone": 452,
      "thought": 453,
      "ence": 454,
      "cer": 455,
      "rious": 456,
      "fore": 457,
      "br": 458,
      "actually": 459,
      "surprised": 460,
      "fort": 461,
      "cr": 462,
      "unny": 463,
      "side": 464,
      "days": 465,
      "makes": 466,
      "car": 467,
      "funny": 468,
      "ten": 469,
      "under": 470,
      "ild": 471,
      "je": 472,
      "sm": 473,
      "op": 474,
      "stu": 475,
      "ak": 476,
      "cep": 477,
      "tain": 478,
      "ance": 479,
      "why": 480,
      "never": 481,
      "fre": 482,
      "well": 483,
      "amazing": 484,
      "while": 485,
      "ky": 486,
      "does": 487,
      "sy": 488,
      "quite": 489,
      "stand": 490,
      "let": 491,
      "tre": 492,
      "curious": 493,
      "book": 494,
      "spe": 495,
      "fam": 496,
      "ice": 497,
      "friends": 498,
      "fied": 499,
      "light": 500,
      "put": 501,
      "aw": 502,
      "having": 503,
      "loo": 504,
      "na": 505,
      "happy": 506,
      "tell": 507,
      "world": 508,
      "doing": 509,
      "pres": 510,
      "sen": 511,
      "cked": 512,
      "du": 513,
      "without": 514,
      "ms": 515,
      "night": 516,
      "look": 517,
      "swe": 518,
      "everything": 519,
      "enough": 520,
      "ft": 521,
      "ip": 522,
      "trying": 523,
      "passion": 524,
      "such": 525,
      "tu": 526,
      "anything": 527,
      "est": 528,
      "joy": 529,
      "ru": 530,
      "tor": 531,
      "child": 532,
      "away": 533,
      "atch": 534,
      "ness": 535,
      "sometimes": 536,
      "blog": 537,
      "sin": 538,
      "list": 539,
      "shocked": 540,
      "keep": 541,
      "getting": 542,
      "ready": 543,
      "call": 544,
      "sat": 545,
      "ans": 546,
      "loved": 547,
      "family": 548,
      "pa": 549,
      "hand": 550,
      "moment": 551,
      "own": 552,
      "before": 553,
      "terri": 554,
      "mon": 555,
      "vely": 556,
      "last": 557,
      "itated": 558,
      "conf": 559,
      "ave": 560,
      "take": 561,
      "left": 562,
      "started": 563,
      "min": 564,
      "hor": 565,
      "ason": 566,
      "aught": 567,
      "gener": 568,
      "iting": 569,
      "passionate": 570,
      "row": 571,
      "give": 572,
      "miss": 573,
      "tive": 574,
      "ating": 575,
      "rest": 576,
      "dec": 577,
      "wal": 578,
      "lear": 579,
      "ys": 580,
      "mi": 581,
      "ph": 582,
      "irr": 583,
      "support": 584,
      "del": 585,
      "accep": 586,
      "loving": 587,
      "pect": 588,
      "better": 589,
      "gir": 590,
      "hu": 591,
      "head": 592,
      "god": 593,
      "post": 594,
      "emo": 595,
      "bod": 596,
      "old": 597,
      "girl": 598,
      "oman": 599,
      "care": 600,
      "toward": 601,
      "place": 602,
      "ts": 603,
      "ref": 604,
      "said": 605,
      "wonder": 606,
      "certain": 607,
      "cou": 608,
      "fir": 609,
      "htt": 610,
      "mind": 611,
      "http": 612,
      "few": 613,
      "comfort": 614,
      "sad": 615,
      "sweet": 616,
      "mar": 617,
      "tru": 618,
      "since": 619,
      "ck": 620,
      "gl": 621,
      "ular": 622,
      "ens": 623,
      "bab": 624,
      "making": 625,
      "vo": 626,
      "gi": 627,
      "beg": 628,
      "tend": 629,
      "bu": 630,
      "ken": 631,
      "dr": 632,
      "tri": 633,
      "offe": 634,
      "understand": 635,
      "ren": 636,
      "stressed": 637,
      "hate": 638,
      "aged": 639,
      "fl": 640,
      "hard": 641,
      "hope": 642,
      "play": 643,
      "ction": 644,
      "pu": 645,
      "watch": 646,
      "ser": 647,
      "body": 648,
      "rather": 649,
      "ste": 650,
      "others": 651,
      "appre": 652,
      "first": 653,
      "bad": 654,
      "clo": 655,
      "daz": 656,
      "thetic": 657,
      "comple": 658,
      "ately": 659,
      "ative": 660,
      "peri": 661,
      "hur": 662,
      "vel": 663,
      "dazed": 664,
      "hes": 665,
      "might": 666,
      "live": 667,
      "exc": 668,
      "bre": 669,
      "reason": 670,
      "gry": 671,
      "ath": 672,
      "bro": 673,
      "dre": 674,
      "talk": 675,
      "ib": 676,
      "yet": 677,
      "often": 678,
      "emotion": 679,
      "years": 680,
      "bed": 681,
      "already": 682,
      "mat": 683,
      "thre": 684,
      "cess": 685,
      "gic": 686,
      "tur": 687,
      "vent": 688,
      "cle": 689,
      "ven": 690,
      "col": 691,
      "pain": 692,
      "maybe": 693,
      "cons": 694,
      "ations": 695,
      "comfortable": 696,
      "chool": 697,
      "href": 698,
      "alone": 699,
      "thinking": 700,
      "aid": 701,
      "ned": 702,
      "xious": 703,
      "pleas": 704,
      "ap": 705,
      "fuc": 706,
      "ob": 707,
      "looking": 708,
      "word": 709,
      "blessed": 710,
      "leep": 711,
      "vie": 712,
      "igh": 713,
      "school": 714,
      "enjoy": 715,
      "ship": 716,
      "cent": 717,
      "two": 718,
      "lovely": 719,
      "face": 720,
      "angry": 721,
      "cially": 722,
      "guess": 723,
      "sk": 724,
      "inc": 725,
      "ond": 726,
      "realiz": 727,
      "fear": 728,
      "sol": 729,
      "che": 730,
      "anyone": 731,
      "rent": 732,
      "hear": 733,
      "eas": 734,
      "fect": 735,
      "sul": 736,
      "symp": 737,
      "sing": 738,
      "comp": 739,
      "ks": 740,
      "dif": 741,
      "same": 742,
      "write": 743,
      "accepted": 744,
      "bor": 745,
      "vous": 746,
      "mean": 747,
      "import": 748,
      "ses": 749,
      "sured": 750,
      "hot": 751,
      "ited": 752,
      "nothing": 753,
      "gent": 754,
      "set": 755,
      "each": 756,
      "show": 757,
      "ustr": 758,
      "nervous": 759,
      "anger": 760,
      "came": 761,
      "saying": 762,
      "wrong": 763,
      "stop": 764,
      "caring": 765,
      "everyone": 766,
      "went": 767,
      "ise": 768,
      "ions": 769,
      "point": 770,
      "slight": 771,
      "whole": 772,
      "coming": 773,
      "afr": 774,
      "led": 775,
      "mother": 776,
      "ject": 777,
      "wanted": 778,
      "sleep": 779,
      "afraid": 780,
      "ef": 781,
      "writing": 782,
      "ces": 783,
      "leave": 784,
      "usu": 785,
      "room": 786,
      "hour": 787,
      "kid": 788,
      "men": 789,
      "gy": 790,
      "once": 791,
      "arent": 792,
      "ff": 793,
      "fu": 794,
      "ny": 795,
      "worth": 796,
      "didn": 797,
      "ouch": 798,
      "reading": 799,
      "partic": 800,
      "another": 801,
      "ati": 802,
      "satis": 803,
      "cour": 804,
      "nor": 805,
      "pri": 806,
      "tely": 807,
      "ump": 808,
      "stal": 809,
      "cared": 810,
      "agitated": 811,
      "xt": 812,
      "liked": 813,
      "sub": 814,
      "ug": 815,
      "adm": 816,
      "athetic": 817,
      "great": 818,
      "towards": 819,
      "cur": 820,
      "anxious": 821,
      "belo": 822,
      "completely": 823,
      "char": 824,
      "til": 825,
      "ider": 826,
      "free": 827,
      "important": 828,
      "slightly": 829,
      "found": 830,
      "naught": 831,
      "ash": 832,
      "espe": 833,
      "pless": 834,
      "frustr": 835,
      "ieve": 836,
      "especially": 837,
      "cal": 838,
      "morning": 839,
      "ouse": 840,
      "cial": 841,
      "supporting": 842,
      "tot": 843,
      "cold": 844,
      "helpless": 845,
      "ual": 846,
      "experi": 847,
      "strong": 848,
      "done": 849,
      "situ": 850,
      "sense": 851,
      "sort": 852,
      "val": 853,
      "particular": 854,
      "naughty": 855,
      "totally": 856,
      "bur": 857,
      "ically": 858,
      "enti": 859,
      "hone": 860,
      "mus": 861,
      "wish": 862,
      "inter": 863,
      "almost": 864,
      "best": 865,
      "nostal": 866,
      "suppor": 867,
      "class": 868,
      "ile": 869,
      "sympathetic": 870,
      "taking": 871,
      "least": 872,
      "distr": 873,
      "delic": 874,
      "hurt": 875,
      "ey": 876,
      "run": 877,
      "press": 878,
      "ps": 879,
      "usted": 880,
      "sick": 881,
      "scared": 882,
      "dream": 883,
      "fact": 884,
      "until": 885,
      "ia": 886,
      "longing": 887,
      "satisfied": 888,
      "mer": 889,
      "terrified": 890,
      "past": 891,
      "wa": 892,
      "ical": 893,
      "next": 894,
      "dd": 895,
      "beloved": 896,
      "nostalgic": 897,
      "big": 898,
      "anno": 899,
      "arm": 900,
      "loy": 901,
      "ished": 902,
      "frustrated": 903,
      "honest": 904,
      "annoy": 905,
      "house": 906,
      "roman": 907,
      "resent": 908,
      "imid": 909,
      "tired": 910,
      "tured": 911,
      "romantic": 912,
      "viol": 913,
      "become": 914,
      "ult": 915,
      "ame": 916,
      "sor": 917,
      "fer": 918,
      "amp": 919,
      "excited": 920,
      "thats": 921,
      "supportive": 922,
      "lon": 923,
      "ger": 924,
      "pic": 925,
      "les": 926,
      "month": 927,
      "ibly": 928,
      "vul": 929,
      "hair": 930,
      "uncertain": 931,
      "acted": 932,
      "happen": 933,
      "consider": 934,
      "cra": 935,
      "add": 936,
      "confused": 937,
      "generous": 938,
      "else": 939,
      "poss": 940,
      "bitch": 941,
      "tortured": 942,
      "wear": 943,
      "believe": 944,
      "irrit": 945,
      "fun": 946,
      "hated": 947,
      "vious": 948,
      "starting": 949,
      "plain": 950,
      "cy": 951,
      "must": 952,
      "ary": 953,
      "ented": 954,
      "plan": 955,
      "ible": 956,
      "ons": 957,
      "unsure": 958,
      "leg": 959,
      "job": 960,
      "horny": 961,
      "fol": 962,
      "ones": 963,
      "vers": 964,
      "ident": 965,
      "hop": 966,
      "relation": 967,
      "gentle": 968,
      "diffe": 969,
      "itting": 970,
      "comm": 971,
      "cut": 972,
      "emp": 973,
      "song": 974,
      "ue": 975,
      "ano": 976,
      "lost": 977,
      "tender": 978,
      "admit": 979,
      "trem": 980,
      "turn": 981,
      "irritable": 982,
      "dou": 983,
      "touch": 984,
      "words": 985,
      "wasnt": 986,
      "trust": 987,
      "spend": 988,
      "guil": 989,
      "relationship": 990,
      "inside": 991,
      "ves": 992,
      "heal": 993,
      "antly": 994,
      "shaken": 995,
      "vulner": 996,
      "mel": 997,
      "expect": 998,
      "ensive": 999,
      "meet": 1000,
      "thank": 1001,
      "dist": 1002,
      "ith": 1003,
      "sed": 1004,
      "inse": 1005,
      "stay": 1006,
      "walk": 1007,
      "vulnerable": 1008,
      "vis": 1009,
      "ater": 1010,
      "ents": 1011,
      "ma": 1012,
      "thered": 1013,
      "selfish": 1014,
      "cure": 1015,
      "giving": 1016,
      "skin": 1017,
      "particularly": 1018,
      "fall": 1019,
      "wer": 1020,
      "guy": 1021,
      "begin": 1022,
      "bt": 1023,
      "ween": 1024,
      "extrem": 1025,
      "seeing": 1026,
      "move": 1027,
      "safe": 1028,
      "parano": 1029,
      "loyal": 1030,
      "action": 1031,
      "children": 1032,
      "kids": 1033,
      "cry": 1034,
      "uct": 1035,
      "bothered": 1036,
      "listen": 1037,
      "mis": 1038,
      "oint": 1039,
      "havent": 1040,
      "ade": 1041,
      "appoint": 1042,
      "contin": 1043,
      "extremely": 1044,
      "cri": 1045,
      "far": 1046,
      "alous": 1047,
      "uncomfortable": 1048,
      "cond": 1049,
      "tra": 1050,
      "uring": 1051,
      "posit": 1052,
      "grate": 1053,
      "finally": 1054,
      "stuff": 1055,
      "books": 1056,
      "view": 1057,
      "fond": 1058,
      "ling": 1059,
      "ww": 1060,
      "wel": 1061,
      "ities": 1062,
      "knowing": 1063,
      "bitter": 1064,
      "jealous": 1065,
      "cas": 1066,
      "fic": 1067,
      "ters": 1068,
      "deep": 1069,
      "shy": 1070,
      "faith": 1071,
      "stud": 1072,
      "living": 1073,
      "kep": 1074,
      "hours": 1075,
      "violent": 1076,
      "grateful": 1077,
      "toge": 1078,
      "edy": 1079,
      "lic": 1080,
      "probab": 1081,
      "usually": 1082,
      "probably": 1083,
      "stup": 1084,
      "rol": 1085,
      "conne": 1086,
      "fully": 1087,
      "intimid": 1088,
      "situation": 1089,
      "paranoid": 1090,
      "danger": 1091,
      "nu": 1092,
      "iness": 1093,
      "share": 1094,
      "doesnt": 1095,
      "pressured": 1096,
      "delicate": 1097,
      "ah": 1098,
      "ont": 1099,
      "boy": 1100,
      "hensive": 1101,
      "rist": 1102,
      "annoyed": 1103,
      "together": 1104,
      "stupid": 1105,
      "sim": 1106,
      "told": 1107,
      "shed": 1108,
      "ign": 1109,
      "open": 1110,
      "offend": 1111,
      "apprehensive": 1112,
      "emb": 1113,
      "ng": 1114,
      "memor": 1115,
      "ask": 1116,
      "suc": 1117,
      "hold": 1118,
      "appreci": 1119,
      "close": 1120,
      "intimidated": 1121,
      "dam": 1122,
      "lately": 1123,
      "ars": 1124,
      "using": 1125,
      "threat": 1126,
      "resentful": 1127,
      "quest": 1128,
      "ink": 1129,
      "respect": 1130,
      "luc": 1131,
      "insul": 1132,
      "between": 1133,
      "pho": 1134,
      "sl": 1135,
      "resp": 1136,
      "als": 1137,
      "sex": 1138,
      "working": 1139,
      "spent": 1140,
      "reluct": 1141,
      "stunn": 1142,
      "dangerous": 1143,
      "high": 1144,
      "woke": 1145,
      "fucked": 1146,
      "charac": 1147,
      "stunned": 1148,
      "eat": 1149,
      "unity": 1150,
      "disappoint": 1151,
      "greedy": 1152,
      "irritated": 1153,
      "threatened": 1154,
      "band": 1155,
      "remind": 1156,
      "shaky": 1157,
      "insecure": 1158,
      "bas": 1159,
      "ju": 1160,
      "woman": 1161,
      "inte": 1162,
      "small": 1163,
      "fearful": 1164,
      "full": 1165,
      "valu": 1166,
      "reluctant": 1167,
      "change": 1168,
      "youre": 1169,
      "tten": 1170,
      "story": 1171,
      "issed": 1172,
      "io": 1173,
      "ord": 1174,
      "couldnt": 1175,
      "ments": 1176,
      "control": 1177,
      "decis": 1178,
      "truly": 1179,
      "music": 1180,
      "ago": 1181,
      "dar": 1182,
      "gn": 1183,
      "sil": 1184,
      "allow": 1185,
      "ided": 1186,
      "spir": 1187,
      "idea": 1188,
      "doubt": 1189,
      "different": 1190,
      "parent": 1191,
      "perfect": 1192,
      "happened": 1193,
      "wont": 1194,
      "atient": 1195,
      "oo": 1196,
      "arr": 1197,
      "sun": 1198,
      "cran": 1199,
      "photo": 1200,
      "pissed": 1201,
      "ount": 1202,
      "oud": 1203,
      "absol": 1204,
      "content": 1205,
      "thoughts": 1206,
      "horri": 1207,
      "incred": 1208,
      "months": 1209,
      "cranky": 1210,
      "absolut": 1211,
      "ber": 1212,
      "ings": 1213,
      "seems": 1214,
      "stead": 1215,
      "follow": 1216,
      "gro": 1217,
      "antic": 1218,
      "eyes": 1219,
      "health": 1220,
      "mach": 1221,
      "hesit": 1222,
      "matter": 1223,
      "tim": 1224,
      "baby": 1225,
      "offended": 1226,
      "insulted": 1227,
      "during": 1228,
      "mal": 1229,
      "soon": 1230,
      "const": 1231,
      "minut": 1232,
      "lonely": 1233,
      "gor": 1234,
      "mine": 1235,
      "runn": 1236,
      "issu": 1237,
      "cool": 1238,
      "rude": 1239,
      "fine": 1240,
      "main": 1241,
      "christ": 1242,
      "cannot": 1243,
      "experience": 1244,
      "interest": 1245,
      "spo": 1246,
      "ton": 1247,
      "somehow": 1248,
      "peace": 1249,
      "watching": 1250,
      "ging": 1251,
      "wake": 1252,
      "asked": 1253,
      "ility": 1254,
      "seem": 1255,
      "sorry": 1256,
      "hesitant": 1257,
      "gle": 1258,
      "ither": 1259,
      "win": 1260,
      "omen": 1261,
      "front": 1262,
      "impatient": 1263,
      "weekend": 1264,
      "distracted": 1265,
      "fut": 1266,
      "instead": 1267,
      "pped": 1268,
      "born": 1269,
      "bitchy": 1270,
      "ced": 1271,
      "ying": 1272,
      "ature": 1273,
      "colle": 1274,
      "honestly": 1275,
      "disappointed": 1276,
      "hon": 1277,
      "deal": 1278,
      "defin": 1279,
      "anymore": 1280,
      "fright": 1281,
      "realize": 1282,
      "thankful": 1283,
      "faithful": 1284,
      "pop": 1285,
      "talking": 1286,
      "emotional": 1287,
      "opp": 1288,
      "reg": 1289,
      "att": 1290,
      "mess": 1291,
      "decided": 1292,
      "cious": 1293,
      "creative": 1294,
      "wronged": 1295,
      "incredibly": 1296,
      "future": 1297,
      "grow": 1298,
      "sum": 1299,
      "exha": 1300,
      "dissatisfied": 1301,
      "aching": 1302,
      "special": 1303,
      "frightened": 1304,
      "fit": 1305,
      "ele": 1306,
      "ank": 1307,
      "comes": 1308,
      "kinda": 1309,
      "running": 1310,
      "ered": 1311,
      "iev": 1312,
      "conv": 1313,
      "ended": 1314,
      "against": 1315,
      "rushed": 1316,
      "three": 1317,
      "realized": 1318,
      "ax": 1319,
      "hus": 1320,
      "vir": 1321,
      "eless": 1322,
      "somewhat": 1323,
      "needed": 1324,
      "coun": 1325,
      "dden": 1326,
      "guilty": 1327,
      "pie": 1328,
      "tonight": 1329,
      "sudden": 1330,
      "ross": 1331,
      "near": 1332,
      "proble": 1333,
      "food": 1334,
      "whether": 1335,
      "aken": 1336,
      "air": 1337,
      "second": 1338,
      "super": 1339,
      "tical": 1340,
      "fair": 1341,
      "knew": 1342,
      "nice": 1343,
      "petty": 1344,
      "energy": 1345,
      "ester": 1346,
      "husband": 1347,
      "blo": 1348,
      "bus": 1349,
      "lit": 1350,
      "yester": 1351,
      "ried": 1352,
      "wonderful": 1353,
      "absolutely": 1354,
      "yesterday": 1355,
      "av": 1356,
      "cus": 1357,
      "sitting": 1358,
      "lead": 1359,
      "needs": 1360,
      "ize": 1361,
      "human": 1362,
      "given": 1363,
      "eating": 1364,
      "women": 1365,
      "although": 1366,
      "dev": 1367,
      "began": 1368,
      "success": 1369,
      "ire": 1370,
      "ture": 1371,
      "order": 1372,
      "imag": 1373,
      "form": 1374,
      "ries": 1375,
      "lives": 1376,
      "pun": 1377,
      "howe": 1378,
      "however": 1379,
      "taken": 1380,
      "aring": 1381,
      "chang": 1382,
      "longer": 1383,
      "line": 1384,
      "sw": 1385,
      "rebel": 1386,
      "suf": 1387,
      "theres": 1388,
      "deser": 1389,
      "tried": 1390,
      "serious": 1391,
      "broken": 1392,
      "amount": 1393,
      "mood": 1394,
      "shes": 1395,
      "disg": 1396,
      "guys": 1397,
      "umpy": 1398,
      "horrible": 1399,
      "game": 1400,
      "simp": 1401,
      "ition": 1402,
      "called": 1403,
      "current": 1404,
      "burd": 1405,
      "lucky": 1406,
      "spirit": 1407,
      "arrass": 1408,
      "exhausted": 1409,
      "dri": 1410,
      "iet": 1411,
      "mone": 1412,
      "lious": 1413,
      "movie": 1414,
      "easy": 1415,
      "miser": 1416,
      "parents": 1417,
      "rebellious": 1418,
      "gen": 1419,
      "slow": 1420,
      "arch": 1421,
      "tice": 1422,
      "net": 1423,
      "grumpy": 1424,
      "fill": 1425,
      "stic": 1426,
      "beat": 1427,
      "weight": 1428,
      "upset": 1429,
      "ained": 1430,
      "explain": 1431,
      "both": 1432,
      "missed": 1433,
      "break": 1434,
      "pleasant": 1435,
      "bal": 1436,
      "ors": 1437,
      "cap": 1438,
      "spi": 1439,
      "stress": 1440,
      "clu": 1441,
      "phys": 1442,
      "girls": 1443,
      "couple": 1444,
      "glad": 1445,
      "positive": 1446,
      "money": 1447,
      "fac": 1448,
      "land": 1449,
      "race": 1450,
      "sent": 1451,
      "wed": 1452,
      "beau": 1453,
      "ulous": 1454,
      "dro": 1455,
      "hi": 1456,
      "mas": 1457,
      "site": 1458,
      "scre": 1459,
      "sist": 1460,
      "depressed": 1461,
      "discu": 1462,
      "stomach": 1463,
      "hands": 1464,
      "lau": 1465,
      "osed": 1466,
      "rid": 1467,
      "table": 1468,
      "anna": 1469,
      "wasn": 1470,
      "icious": 1471,
      "defe": 1472,
      "iling": 1473,
      "personal": 1474,
      "restless": 1475,
      "embarrass": 1476,
      "dark": 1477,
      "hal": 1478,
      "hun": 1479,
      "late": 1480,
      "took": 1481,
      "sty": 1482,
      "met": 1483,
      "asha": 1484,
      "ently": 1485,
      "urch": 1486,
      "weeks": 1487,
      "name": 1488,
      "stat": 1489,
      "ising": 1490,
      "assured": 1491,
      "etc": 1492,
      "smile": 1493,
      "stub": 1494,
      "possible": 1495,
      "simply": 1496,
      "ital": 1497,
      "soci": 1498,
      "uni": 1499,
      "lled": 1500,
      "istic": 1501,
      "spec": 1502,
      "offer": 1503,
      "clean": 1504,
      "hind": 1505,
      "tiful": 1506,
      "relax": 1507,
      "looks": 1508,
      "learn": 1509,
      "stubborn": 1510,
      "fil": 1511,
      "lack": 1512,
      "ot": 1513,
      "resul": 1514,
      "arti": 1515,
      "sett": 1516,
      "deter": 1517,
      "que": 1518,
      "supposed": 1519,
      "mention": 1520,
      "calm": 1521,
      "beautiful": 1522,
      "embarrassed": 1523,
      "ben": 1524,
      "either": 1525,
      "reach": 1526,
      "outside": 1527,
      "ssion": 1528,
      "ext": 1529,
      "exact": 1530,
      "temp": 1531,
      "descri": 1532,
      "putting": 1533,
      "truth": 1534,
      "entire": 1535,
      "hopeless": 1536,
      "disgusted": 1537,
      "gone": 1538,
      "sound": 1539,
      "exam": 1540,
      "azy": 1541,
      "ground": 1542,
      "memories": 1543,
      "devast": 1544,
      "sc": 1545,
      "warm": 1546,
      "forward": 1547,
      "unch": 1548,
      "pping": 1549,
      "cover": 1550,
      "wanting": 1551,
      "strug": 1552,
      "finish": 1553,
      "looked": 1554,
      "confident": 1555,
      "generally": 1556,
      "kward": 1557,
      "behind": 1558,
      "cted": 1559,
      "ized": 1560,
      "awful": 1561,
      "awkward": 1562,
      "course": 1563,
      "experien": 1564,
      "waiting": 1565,
      "constantly": 1566,
      "definit": 1567,
      "suddenly": 1568,
      "suffer": 1569,
      "awe": 1570,
      "da": 1571,
      "equ": 1572,
      "fab": 1573,
      "lar": 1574,
      "skep": 1575,
      "tight": 1576,
      "goes": 1577,
      "devo": 1578,
      "short": 1579,
      "frantic": 1580,
      "proud": 1581,
      "fortun": 1582,
      "aware": 1583,
      "terrible": 1584,
      "learning": 1585,
      "buy": 1586,
      "ashamed": 1587,
      "skeptical": 1588,
      "fing": 1589,
      "fat": 1590,
      "inspi": 1591,
      "envious": 1592,
      "doubtful": 1593,
      "successful": 1594,
      "miserable": 1595,
      "definitely": 1596,
      "bra": 1597,
      "ged": 1598,
      "ming": 1599,
      "um": 1600,
      "isol": 1601,
      "seen": 1602,
      "utter": 1603,
      "aded": 1604,
      "unhappy": 1605,
      "dep": 1606,
      "selves": 1607,
      "express": 1608,
      "prote": 1609,
      "father": 1610,
      "spending": 1611,
      "characters": 1612,
      "minutes": 1613,
      "ieved": 1614,
      "pick": 1615,
      "si": 1616,
      "sn": 1617,
      "level": 1618,
      "ppy": 1619,
      "ager": 1620,
      "readers": 1621,
      "effect": 1622,
      "country": 1623,
      "inspired": 1624,
      "bi": 1625,
      "rep": 1626,
      "itu": 1627,
      "amer": 1628,
      "wife": 1629,
      "susp": 1630,
      "enter": 1631,
      "igno": 1632,
      "inced": 1633,
      "continue": 1634,
      "half": 1635,
      "bar": 1636,
      "state": 1637,
      "along": 1638,
      "rich": 1639,
      "gotten": 1640,
      "concer": 1641,
      "shit": 1642,
      "itty": 1643,
      "space": 1644,
      "treat": 1645,
      "due": 1646,
      "count": 1647,
      "cute": 1648,
      "empty": 1649,
      "duc": 1650,
      "flow": 1651,
      "oh": 1652,
      "uro": 1653,
      "loss": 1654,
      "advent": 1655,
      "heard": 1656,
      "convers": 1657,
      "thanks": 1658,
      "prom": 1659,
      "company": 1660,
      "summer": 1661,
      "hy": 1662,
      "thri": 1663,
      "whate": 1664,
      "tiv": 1665,
      "devel": 1666,
      "shitty": 1667,
      "project": 1668,
      "dull": 1669,
      "beginning": 1670,
      "respons": 1671,
      "fight": 1672,
      "jour": 1673,
      "oul": 1674,
      "isnt": 1675,
      "ric": 1676,
      "sharing": 1677,
      "compl": 1678,
      "tem": 1679,
      "teach": 1680,
      "talented": 1681,
      "fav": 1682,
      "bring": 1683,
      "telling": 1684,
      "whatever": 1685,
      "ns": 1686,
      "oc": 1687,
      "ze": 1688,
      "inv": 1689,
      "lett": 1690,
      "lol": 1691,
      "host": 1692,
      "train": 1693,
      "quick": 1694,
      "grand": 1695,
      "produ": 1696,
      "reasons": 1697,
      "single": 1698,
      "jected": 1699,
      "college": 1700,
      "opport": 1701,
      "laugh": 1702,
      "cor": 1703,
      "thar": 1704,
      "ins": 1705,
      "regre": 1706,
      "recent": 1707,
      "iment": 1708,
      "ched": 1709,
      "holi": 1710,
      "upon": 1711,
      "trou": 1712,
      "itten": 1713,
      "ational": 1714,
      "astic": 1715,
      "pray": 1716,
      "inten": 1717,
      "managed": 1718,
      "doesn": 1719,
      "answer": 1720,
      "true": 1721,
      "usual": 1722,
      "devastated": 1723,
      "lethar": 1724,
      "church": 1725,
      "iding": 1726,
      "pregn": 1727,
      "tention": 1728,
      "learned": 1729,
      "www": 1730,
      "simple": 1731,
      "determin": 1732,
      "exactly": 1733,
      "lethargic": 1734,
      "ggy": 1735,
      "mid": 1736,
      "pay": 1737,
      "vide": 1738,
      "attention": 1739,
      "alled": 1740,
      "allen": 1741,
      "saw": 1742,
      "intel": 1743,
      "numb": 1744,
      "dir": 1745,
      "ending": 1746,
      "tray": 1747,
      "known": 1748,
      "ils": 1749,
      "teen": 1750,
      "broke": 1751,
      "bly": 1752,
      "gif": 1753,
      "non": 1754,
      "pur": 1755,
      "notice": 1756,
      "search": 1757,
      "hood": 1758,
      "dow": 1759,
      "grou": 1760,
      "discour": 1761,
      "desp": 1762,
      "speak": 1763,
      "appe": 1764,
      "distur": 1765,
      "convinced": 1766,
      "burdened": 1767,
      "discuss": 1768,
      "lu": 1769,
      "lay": 1770,
      "ability": 1771,
      "gest": 1772,
      "young": 1773,
      "whats": 1774,
      "regret": 1775,
      "cing": 1776,
      "dan": 1777,
      "wanna": 1778,
      "arms": 1779,
      "acc": 1780,
      "precious": 1781,
      "seless": 1782,
      "power": 1783,
      "div": 1784,
      "delight": 1785,
      "students": 1786,
      "question": 1787,
      "devoted": 1788,
      "fortunate": 1789,
      "discouraged": 1790,
      "fli": 1791,
      "ring": 1792,
      "useless": 1793,
      "lose": 1794,
      "across": 1795,
      "whenever": 1796,
      "compassionate": 1797,
      "gets": 1798,
      "ilities": 1799,
      "grac": 1800,
      "wouldnt": 1801,
      "finding": 1802,
      "dumb": 1803,
      "pathetic": 1804,
      "moments": 1805,
      "relationships": 1806,
      "connection": 1807,
      "punished": 1808,
      "seriously": 1809,
      "isolated": 1810,
      "ian": 1811,
      "ingly": 1812,
      "rejected": 1813,
      "challen": 1814,
      "sug": 1815,
      "ared": 1816,
      "excep": 1817,
      "team": 1818,
      "fool": 1819,
      "paper": 1820,
      "sadness": 1821,
      "flu": 1822,
      "strongly": 1823,
      "considering": 1824,
      "listening": 1825,
      "respected": 1826,
      "style": 1827,
      "suspicious": 1828,
      "dad": 1829,
      "gs": 1830,
      "gan": 1831,
      "ili": 1832,
      "mil": 1833,
      "raged": 1834,
      "indecis": 1835,
      "uty": 1836,
      "adv": 1837,
      "geous": 1838,
      "ants": 1839,
      "ilar": 1840,
      "theyre": 1841,
      "die": 1842,
      "figu": 1843,
      "desper": 1844,
      "homesick": 1845,
      "smell": 1846,
      "pub": 1847,
      "serv": 1848,
      "effort": 1849,
      "distraught": 1850,
      "dirty": 1851,
      "indecisive": 1852,
      "ding": 1853,
      "four": 1854,
      "water": 1855,
      "thor": 1856,
      "ined": 1857,
      "top": 1858,
      "total": 1859,
      "ket": 1860,
      "dem": 1861,
      "event": 1862,
      "produc": 1863,
      "suppose": 1864,
      "streng": 1865,
      "desire": 1866,
      "path": 1867,
      "emotions": 1868,
      "welcome": 1869,
      "kept": 1870,
      "ignored": 1871,
      "hostile": 1872,
      "bag": 1873,
      "fant": 1874,
      "rely": 1875,
      "ancho": 1876,
      "oun": 1877,
      "worked": 1878,
      "comments": 1879,
      "usion": 1880,
      "dire": 1881,
      "distressed": 1882,
      "friendly": 1883,
      "stories": 1884,
      "walking": 1885,
      "rence": 1886,
      "boring": 1887,
      "normal": 1888,
      "internet": 1889,
      "melancho": 1890,
      "gorgeous": 1891,
      "spot": 1892,
      "problems": 1893,
      "develop": 1894,
      "quickly": 1895,
      "bing": 1896,
      "gon": 1897,
      "por": 1898,
      "ase": 1899,
      "verse": 1900,
      "moving": 1901,
      "worry": 1902,
      "earth": 1903,
      "popular": 1904,
      "brave": 1905,
      "avo": 1906,
      "jump": 1907,
      "itch": 1908,
      "means": 1909,
      "chance": 1910,
      "wash": 1911,
      "anyway": 1912,
      "wants": 1913,
      "tions": 1914,
      "focus": 1915,
      "audi": 1916,
      "morrow": 1917,
      "finished": 1918,
      "blank": 1919,
      "present": 1920,
      "sens": 1921,
      "walked": 1922,
      "understanding": 1923,
      "expected": 1924,
      "groggy": 1925,
      "healthy": 1926,
      "melancholy": 1927,
      "ni": 1928,
      "rece": 1929,
      "tomorrow": 1930,
      "forget": 1931,
      "area": 1932,
      "aster": 1933,
      "stood": 1934,
      "calling": 1935,
      "hateful": 1936,
      "fucking": 1937,
      "ugly": 1938,
      "community": 1939,
      "imagine": 1940,
      "describe": 1941,
      "awesome": 1942,
      "itude": 1943,
      "opportunity": 1944,
      "ather": 1945,
      "apart": 1946,
      "clear": 1947,
      "gave": 1948,
      "yes": 1949,
      "incre": 1950,
      "ree": 1951,
      "tory": 1952,
      "step": 1953,
      "arri": 1954,
      "lie": 1955,
      "admi": 1956,
      "death": 1957,
      "agic": 1958,
      "knows": 1959,
      "writ": 1960,
      "passed": 1961,
      "diffic": 1962,
      "deeply": 1963,
      "determined": 1964,
      "strength": 1965,
      "daught": 1966,
      "gloo": 1967,
      "ier": 1968,
      "nal": 1969,
      "soul": 1970,
      "ures": 1971,
      "ane": 1972,
      "fest": 1973,
      "losing": 1974,
      "idio": 1975,
      "roll": 1976,
      "neg": 1977,
      "neuro": 1978,
      "ific": 1979,
      "polit": 1980,
      "belong": 1981,
      "personally": 1982,
      "typ": 1983,
      "type": 1984,
      "ief": 1985,
      "joyful": 1986,
      "ease": 1987,
      "actions": 1988,
      "issues": 1989,
      "christmas": 1990,
      "group": 1991,
      "gracious": 1992,
      "gloomy": 1993,
      "kill": 1994,
      "wall": 1995,
      "sts": 1996,
      "sever": 1997,
      "load": 1998,
      "door": 1999,
      "sely": 2000,
      "comput": 2001,
      "black": 2002,
      "heartless": 2003,
      "phone": 2004,
      "mark": 2005,
      "enjoyed": 2006,
      "compan": 2007,
      "subject": 2008,
      "falling": 2009,
      "entertain": 2010,
      "aim": 2011,
      "aving": 2012,
      "date": 2013,
      "fake": 2014,
      "har": 2015,
      "later": 2016,
      "psy": 2017,
      "sar": 2018,
      "vic": 2019,
      "season": 2020,
      "ages": 2021,
      "trans": 2022,
      "complain": 2023,
      "rap": 2024,
      "mostly": 2025,
      "heartbroken": 2026,
      "songs": 2027,
      "touched": 2028,
      "trusting": 2029,
      "jud": 2030,
      "sister": 2031,
      "ush": 2032,
      "ya": 2033,
      "fection": 2034,
      "asses": 2035,
      "odd": 2036,
      "gram": 2037,
      "appro": 2038,
      "uck": 2039,
      "bled": 2040,
      "syste": 2041,
      "pull": 2042,
      "fuck": 2043,
      "worthless": 2044,
      "mellow": 2045,
      "adequ": 2046,
      "continu": 2047,
      "photos": 2048,
      "issue": 2049,
      "film": 2050,
      "disturbed": 2051,
      "bir": 2052,
      "ial": 2053,
      "jaded": 2054,
      "eld": 2055,
      "feed": 2056,
      "social": 2057,
      "notic": 2058,
      "sequ": 2059,
      "contr": 2060,
      "epis": 2061,
      "prac": 2062,
      "written": 2063,
      "smiling": 2064,
      "presence": 2065,
      "keeping": 2066,
      "possibly": 2067,
      "regard": 2068,
      "piece": 2069,
      "fairly": 2070,
      "suffering": 2071,
      "intelli": 2072,
      "cli": 2073,
      "den": 2074,
      "dle": 2075,
      "dra": 2076,
      "ta": 2077,
      "vain": 2078,
      "tho": 2079,
      "inno": 2080,
      "resol": 2081,
      "leaving": 2082,
      "vered": 2083,
      "disheart": 2084,
      "gress": 2085,
      "optim": 2086,
      "pressure": 2087,
      "older": 2088,
      "privi": 2089,
      "case": 2090,
      "questions": 2091,
      "valuable": 2092,
      "beaten": 2093,
      "computer": 2094,
      "disheartened": 2095,
      "ahead": 2096,
      "card": 2097,
      "ctor": 2098,
      "dic": 2099,
      "em": 2100,
      "hit": 2101,
      "throw": 2102,
      "ality": 2103,
      "ably": 2104,
      "unwelcome": 2105,
      "weak": 2106,
      "useful": 2107,
      "aste": 2108,
      "boys": 2109,
      "medi": 2110,
      "smart": 2111,
      "drink": 2112,
      "crappy": 2113,
      "similar": 2114,
      "damn": 2115,
      "character": 2116,
      "hibit": 2117,
      "recently": 2118,
      "audience": 2119,
      "several": 2120,
      "round": 2121,
      "ices": 2122,
      "rotten": 2123,
      "core": 2124,
      "ills": 2125,
      "says": 2126,
      "talked": 2127,
      "voice": 2128,
      "leaves": 2129,
      "worthy": 2130,
      "connect": 2131,
      "appreciated": 2132,
      "nearly": 2133,
      "iety": 2134,
      "troubled": 2135,
      "divine": 2136,
      "innocent": 2137,
      "cha": 2138,
      "lame": 2139,
      "ster": 2140,
      "key": 2141,
      "amor": 2142,
      "comed": 2143,
      "extra": 2144,
      "sitive": 2145,
      "street": 2146,
      "sensitive": 2147,
      "sincere": 2148,
      "hopeful": 2149,
      "entirely": 2150,
      "following": 2151,
      "peaceful": 2152,
      "relaxed": 2153,
      "favor": 2154,
      "public": 2155,
      "fantastic": 2156,
      "negative": 2157,
      "auty": 2158,
      "hide": 2159,
      "lous": 2160,
      "og": 2161,
      "ored": 2162,
      "ured": 2163,
      "inner": 2164,
      "inadequ": 2165,
      "ances": 2166,
      "edom": 2167,
      "educ": 2168,
      "beauty": 2169,
      "ties": 2170,
      "agree": 2171,
      "exp": 2172,
      "media": 2173,
      "process": 2174,
      "freedom": 2175,
      "color": 2176,
      "guilt": 2177,
      "meeting": 2178,
      "damaged": 2179,
      "valued": 2180,
      "honored": 2181,
      "changes": 2182,
      "defeated": 2183,
      "struggl": 2184,
      "effects": 2185,
      "letting": 2186,
      "gonna": 2187,
      "amorous": 2188,
      "lousy": 2189,
      "fur": 2190,
      "rain": 2191,
      "sof": 2192,
      "wave": 2193,
      "zz": 2194,
      "inst": 2195,
      "ines": 2196,
      "repe": 2197,
      "attemp": 2198,
      "tom": 2199,
      "idence": 2200,
      "accompl": 2201,
      "unfortunate": 2202,
      "themselves": 2203,
      "ache": 2204,
      "shouldn": 2205,
      "create": 2206,
      "fail": 2207,
      "spect": 2208,
      "tures": 2209,
      "huge": 2210,
      "breath": 2211,
      "sleeping": 2212,
      "ouchy": 2213,
      "wait": 2214,
      "considerate": 2215,
      "americ": 2216,
      "aul": 2217,
      "kick": 2218,
      "len": 2219,
      "rc": 2220,
      "ris": 2221,
      "sign": 2222,
      "oured": 2223,
      "ands": 2224,
      "lying": 2225,
      "within": 2226,
      "worried": 2227,
      "frid": 2228,
      "grouchy": 2229,
      "boo": 2230,
      "early": 2231,
      "throughout": 2232,
      "brain": 2233,
      "listless": 2234,
      "drained": 2235,
      "wearing": 2236,
      "crying": 2237,
      "growing": 2238,
      "large": 2239,
      "product": 2240,
      "despite": 2241,
      "regretful": 2242,
      "delighted": 2243,
      "except": 2244,
      "optimistic": 2245,
      "war": 2246,
      "ates": 2247,
      "organ": 2248,
      "noxious": 2249,
      "haps": 2250,
      "unimportant": 2251,
      "getic": 2252,
      "doom": 2253,
      "gover": 2254,
      "necess": 2255,
      "previous": 2256,
      "uptight": 2257,
      "gra": 2258,
      "test": 2259,
      "tech": 2260,
      "tears": 2261,
      "assaul": 2262,
      "party": 2263,
      "lets": 2264,
      "treas": 2265,
      "general": 2266,
      "posting": 2267,
      "wondering": 2268,
      "certainly": 2269,
      "push": 2270,
      "cles": 2271,
      "pleased": 2272,
      "obnoxious": 2273,
      "leged": 2274,
      "fabulous": 2275,
      "utterly": 2276,
      "training": 2277,
      "pregnant": 2278,
      "productive": 2279,
      "birth": 2280,
      "privileged": 2281,
      "inadequate": 2282,
      "flo": 2283,
      "jes": 2284,
      "src": 2285,
      "itself": 2286,
      "wild": 2287,
      "ungrateful": 2288,
      "depri": 2289,
      "confe": 2290,
      "overall": 2291,
      "proper": 2292,
      "needy": 2293,
      "relieved": 2294,
      "wards": 2295,
      "shoes": 2296,
      "helping": 2297,
      "news": 2298,
      "energetic": 2299,
      "mili": 2300,
      "humili": 2301,
      "brea": 2302,
      "emotionally": 2303,
      "travel": 2304,
      "based": 2305,
      "scream": 2306,
      "gift": 2307,
      "figure": 2308,
      "ball": 2309,
      "dance": 2310,
      "fan": 2311,
      "hell": 2312,
      "kiss": 2313,
      "la": 2314,
      "ove": 2315,
      "rac": 2316,
      "review": 2317,
      "beside": 2318,
      "became": 2319,
      "superi": 2320,
      "tered": 2321,
      "discontent": 2322,
      "author": 2323,
      "brought": 2324,
      "brother": 2325,
      "enjoying": 2326,
      "allowed": 2327,
      "fingers": 2328,
      "responsib": 2329,
      "increas": 2330,
      "victim": 2331,
      "deprived": 2332,
      "humiliated": 2333,
      "superior": 2334,
      "apo": 2335,
      "hang": 2336,
      "sand": 2337,
      "wise": 2338,
      "ene": 2339,
      "itle": 2340,
      "acking": 2341,
      "unless": 2342,
      "covered": 2343,
      "exist": 2344,
      "perfor": 2345,
      "couldn": 2346,
      "crazy": 2347,
      "blogging": 2348,
      "carefree": 2349,
      "playing": 2350,
      "easily": 2351,
      "mothers": 2352,
      "eye": 2353,
      "picture": 2354,
      "happening": 2355,
      "equally": 2356,
      "holiday": 2357,
      "trayed": 2358,
      "difficult": 2359,
      "festive": 2360,
      "neurotic": 2361,
      "cele": 2362,
      "iv": 2363,
      "ians": 2364,
      "lab": 2365,
      "mass": 2366,
      "rad": 2367,
      "tw": 2368,
      "wimp": 2369,
      "thro": 2370,
      "atur": 2371,
      "erc": 2372,
      "stick": 2373,
      "ism": 2374,
      "lived": 2375,
      "immedi": 2376,
      "worse": 2377,
      "knowled": 2378,
      "stra": 2379,
      "evening": 2380,
      "diet": 2381,
      "stopped": 2382,
      "shake": 2383,
      "missing": 2384,
      "mix": 2385,
      "hurts": 2386,
      "turned": 2387,
      "clever": 2388,
      "hearing": 2389,
      "delicious": 2390,
      "currently": 2391,
      "physical": 2392,
      "psycho": 2393,
      "intelligent": 2394,
      "resolved": 2395,
      "celebr": 2396,
      "cking": 2397,
      "hat": 2398,
      "ied": 2399,
      "lord": 2400,
      "anx": 2401,
      "onto": 2402,
      "stage": 2403,
      "chest": 2404,
      "unloved": 2405,
      "dest": 2406,
      "prefer": 2407,
      "perhaps": 2408,
      "bits": 2409,
      "spite": 2410,
      "himself": 2411,
      "vigor": 2412,
      "affection": 2413,
      "happens": 2414,
      "fault": 2415,
      "opin": 2416,
      "career": 2417,
      "drin": 2418,
      "complete": 2419,
      "norm": 2420,
      "crap": 2421,
      "welcomed": 2422,
      "virtu": 2423,
      "physically": 2424,
      "societ": 2425,
      "conversation": 2426,
      "recei": 2427,
      "daughter": 2428,
      "soft": 2429,
      "assaulted": 2430,
      "cro": 2431,
      "eager": 2432,
      "nic": 2433,
      "pt": 2434,
      "rr": 2435,
      "ye": 2436,
      "inely": 2437,
      "bey": 2438,
      "abused": 2439,
      "outraged": 2440,
      "acy": 2441,
      "movi": 2442,
      "motiv": 2443,
      "road": 2444,
      "ney": 2445,
      "ously": 2446,
      "depress": 2447,
      "exper": 2448,
      "plac": 2449,
      "profe": 2450,
      "created": 2451,
      "centr": 2452,
      "pictures": 2453,
      "boyfriend": 2454,
      "genu": 2455,
      "slowly": 2456,
      "daily": 2457,
      "thrilled": 2458,
      "temper": 2459,
      "friday": 2460,
      "graph": 2461,
      "wimpy": 2462,
      "knowledge": 2463,
      "nes": 2464,
      "pat": 2465,
      "tad": 2466,
      "ining": 2467,
      "reaction": 2468,
      "ator": 2469,
      "enthr": 2470,
      "asking": 2471,
      "artic": 2472,
      "doll": 2473,
      "tern": 2474,
      "cop": 2475,
      "pool": 2476,
      "quo": 2477,
      "mbers": 2478,
      "logy": 2479,
      "famili": 2480,
      "pair": 2481,
      "gives": 2482,
      "dram": 2483,
      "flash": 2484,
      "dress": 2485,
      "submiss": 2486,
      "experienced": 2487,
      "middle": 2488,
      "foolish": 2489,
      "anxiety": 2490,
      "movies": 2491,
      "enthralled": 2492,
      "city": 2493,
      "ee": 2494,
      "lad": 2495,
      "pen": 2496,
      "tough": 2497,
      "img": 2498,
      "above": 2499,
      "weather": 2500,
      "dead": 2501,
      "quiet": 2502,
      "everyday": 2503,
      "program": 2504,
      "foot": 2505,
      "choices": 2506,
      "handle": 2507,
      "acceptable": 2508,
      "situations": 2509,
      "dreams": 2510,
      "sorrow": 2511,
      "craving": 2512,
      "legs": 2513,
      "commun": 2514,
      "visit": 2515,
      "interested": 2516,
      "problem": 2517,
      "deserve": 2518,
      "drive": 2519,
      "invol": 2520,
      "milli": 2521,
      "doomed": 2522,
      "treasured": 2523,
      "jesus": 2524,
      "cult": 2525,
      "wro": 2526,
      "iny": 2527,
      "beha": 2528,
      "web": 2529,
      "comment": 2530,
      "urous": 2531,
      "struc": 2532,
      "medic": 2533,
      "progress": 2534,
      "field": 2535,
      "lots": 2536,
      "tenti": 2537,
      "frequ": 2538,
      "pleasantly": 2539,
      "grown": 2540,
      "window": 2541,
      "results": 2542,
      "six": 2543,
      "adventurous": 2544,
      "video": 2545,
      "straight": 2546,
      "affectionate": 2547,
      "society": 2548,
      "wrote": 2549,
      "bath": 2550,
      "cup": 2551,
      "dom": 2552,
      "ination": 2553,
      "rec": 2554,
      "iculous": 2555,
      "dear": 2556,
      "overly": 2557,
      "mug": 2558,
      "ideas": 2559,
      "choice": 2560,
      "chocol": 2561,
      "reality": 2562,
      "wood": 2563,
      "treated": 2564,
      "sweat": 2565,
      "confidence": 2566,
      "vision": 2567,
      "slut": 2568,
      "decision": 2569,
      "minute": 2570,
      "universe": 2571,
      "imental": 2572,
      "accident": 2573,
      "system": 2574,
      "further": 2575,
      "genuinely": 2576,
      "submissive": 2577,
      "bon": 2578,
      "catch": 2579,
      "cross": 2580,
      "five": 2581,
      "ki": 2582,
      "smo": 2583,
      "wing": 2584,
      "ina": 2585,
      "inhibit": 2586,
      "edge": 2587,
      "beach": 2588,
      "betrayed": 2589,
      "lim": 2590,
      "lips": 2591,
      "secre": 2592,
      "castic": 2593,
      "potenti": 2594,
      "strang": 2595,
      "foc": 2596,
      "relig": 2597,
      "creep": 2598,
      "contented": 2599,
      "brand": 2600,
      "build": 2601,
      "watched": 2602,
      "obvious": 2603,
      "facebook": 2604,
      "worthwhile": 2605,
      "distance": 2606,
      "memory": 2607,
      "busy": 2608,
      "club": 2609,
      "sentimental": 2610,
      "sarcastic": 2611,
      "virtuous": 2612,
      "behavi": 2613,
      "inhibited": 2614,
      "cir": 2615,
      "gri": 2616,
      "jor": 2617,
      "ler": 2618,
      "lazy": 2619,
      "mic": 2620,
      "ode": 2621,
      "sion": 2622,
      "inclu": 2623,
      "reco": 2624,
      "return": 2625,
      "meant": 2626,
      "lect": 2627,
      "access": 2628,
      "somewhere": 2629,
      "exerc": 2630,
      "grab": 2631,
      "acting": 2632,
      "died": 2633,
      "ishing": 2634,
      "mentally": 2635,
      "decide": 2636,
      "triump": 2637,
      "please": 2638,
      "major": 2639,
      "appreciative": 2640,
      "sexual": 2641,
      "basically": 2642,
      "honoured": 2643,
      "artistic": 2644,
      "writer": 2645,
      "triumph": 2646,
      "chair": 2647,
      "ec": 2648,
      "nature": 2649,
      "oper": 2650,
      "port": 2651,
      "ride": 2652,
      "sal": 2653,
      "tv": 2654,
      "uce": 2655,
      "invigor": 2656,
      "els": 2657,
      "remor": 2658,
      "lip": 2659,
      "whom": 2660,
      "noon": 2661,
      "ends": 2662,
      "pose": 2663,
      "sport": 2664,
      "happiness": 2665,
      "history": 2666,
      "claim": 2667,
      "terribly": 2668,
      "accept": 2669,
      "trip": 2670,
      "flat": 2671,
      "function": 2672,
      "pieces": 2673,
      "appear": 2674,
      "admired": 2675,
      "episode": 2676,
      "culture": 2677,
      "invigorated": 2678,
      "remorse": 2679,
      "bless": 2680,
      "bought": 2681,
      "fast": 2682,
      "mou": 2683,
      "mist": 2684,
      "smug": 2685,
      "tar": 2686,
      "timid": 2687,
      "elder": 2688,
      "remain": 2689,
      "town": 2690,
      "sting": 2691,
      "star": 2692,
      "doctor": 2693,
      "tragic": 2694,
      "bother": 2695,
      "seemed": 2696,
      "pride": 2697,
      "startled": 2698,
      "yourself": 2699,
      "series": 2700,
      "furious": 2701,
      "number": 2702,
      "interesting": 2703,
      "blood": 2704,
      "business": 2705,
      "formation": 2706,
      "extent": 2707,
      "bike": 2708,
      "direction": 2709,
      "secret": 2710,
      "dinner": 2711,
      "gut": 2712,
      "jam": 2713,
      "vital": 2714,
      "anim": 2715,
      "thes": 2716,
      "onment": 2717,
      "eng": 2718,
      "members": 2719,
      "tran": 2720,
      "illusion": 2721,
      "grat": 2722,
      "realise": 2723,
      "partner": 2724,
      "crit": 2725,
      "speaking": 2726,
      "miles": 2727,
      "conscious": 2728,
      "muscles": 2729,
      "safety": 2730,
      "views": 2731,
      "ordin": 2732,
      "balance": 2733,
      "ridiculous": 2734,
      "result": 2735,
      "favorite": 2736,
      "attempt": 2737,
      "responsibilities": 2738,
      "performan": 2739,
      "immediately": 2740,
      "chocolate": 2741,
      "triumphant": 2742,
      "gain": 2743,
      "gard": 2744,
      "ires": 2745,
      "lunch": 2746,
      "sched": 2747,
      "recall": 2748,
      "attr": 2749,
      "lyric": 2750,
      "ides": 2751,
      "cares": 2752,
      "negle": 2753,
      "agu": 2754,
      "indiv": 2755,
      "works": 2756,
      "afternoon": 2757,
      "chosen": 2758,
      "igned": 2759,
      "energ": 2760,
      "final": 2761,
      "blue": 2762,
      "fresh": 2763,
      "terrific": 2764,
      "obli": 2765,
      "skills": 2766,
      "check": 2767,
      "becomes": 2768,
      "staying": 2769,
      "holding": 2770,
      "silly": 2771,
      "silent": 2772,
      "teacher": 2773,
      "development": 2774,
      "target": 2775,
      "individ": 2776,
      "bun": 2777,
      "none": 2778,
      "nur": 2779,
      "page": 2780,
      "scar": 2781,
      "vity": 2782,
      "winter": 2783,
      "inob": 2784,
      "ats": 2785,
      "session": 2786,
      "acade": 2787,
      "suck": 2788,
      "cau": 2789,
      "cape": 2790,
      "concentr": 2791,
      "shi": 2792,
      "shinob": 2793,
      "comb": 2794,
      "events": 2795,
      "relief": 2796,
      "cream": 2797,
      "finan": 2798,
      "remem": 2799,
      "passing": 2800,
      "posts": 2801,
      "girlfriend": 2802,
      "harder": 2803,
      "adding": 2804,
      "casual": 2805,
      "reminder": 2806,
      "static": 2807,
      "report": 2808,
      "intention": 2809,
      "challenge": 2810,
      "avoid": 2811,
      "ecstatic": 2812,
      "lyrics": 2813,
      "shinobi": 2814,
      "blow": 2815,
      "boun": 2816,
      "dy": 2817,
      "eze": 2818,
      "itor": 2819,
      "ively": 2820,
      "law": 2821,
      "ince": 2822,
      "ann": 2823,
      "reassured": 2824,
      "envir": 2825,
      "andom": 2826,
      "stri": 2827,
      "stuck": 2828,
      "itter": 2829,
      "becoming": 2830,
      "sore": 2831,
      "lil": 2832,
      "acked": 2833,
      "unable": 2834,
      "unpleasant": 2835,
      "moist": 2836,
      "caused": 2837,
      "aging": 2838,
      "poor": 2839,
      "plant": 2840,
      "herself": 2841,
      "acts": 2842,
      "okay": 2843,
      "discover": 2844,
      "disillusion": 2845,
      "afterwards": 2846,
      "fix": 2847,
      "surround": 2848,
      "choose": 2849,
      "manner": 2850,
      "blah": 2851,
      "standing": 2852,
      "tree": 2853,
      "keeps": 2854,
      "badly": 2855,
      "appreciate": 2856,
      "luck": 2857,
      "respon": 2858,
      "oooo": 2859,
      "anticip": 2860,
      "messy": 2861,
      "example": 2862,
      "occas": 2863,
      "purpose": 2864,
      "desperately": 2865,
      "noticed": 2866,
      "necessary": 2867,
      "recogn": 2868,
      "oblig": 2869,
      "disillusioned": 2870,
      "dun": 2871,
      "fans": 2872,
      "hom": 2873,
      "rat": 2874,
      "taste": 2875,
      "var": 2876,
      "feet": 2877,
      "online": 2878,
      "isn": 2879,
      "bered": 2880,
      "arily": 2881,
      "haven": 2882,
      "image": 2883,
      "hol": 2884,
      "unk": 2885,
      "neigh": 2886,
      "degre": 2887,
      "fulfill": 2888,
      "tta": 2889,
      "grad": 2890,
      "actual": 2891,
      "display": 2892,
      "shouldnt": 2893,
      "shared": 2894,
      "manage": 2895,
      "design": 2896,
      "brown": 2897,
      "courage": 2898,
      "folks": 2899,
      "reminded": 2900,
      "male": 2901,
      "mentioned": 2902,
      "sounds": 2903,
      "warmth": 2904,
      "finger": 2905,
      "barely": 2906,
      "concerned": 2907,
      "journal": 2908,
      "journey": 2909,
      "dancing": 2910,
      "normally": 2911,
      "experiment": 2912,
      "cat": 2913,
      "ctive": 2914,
      "ges": 2915,
      "mr": 2916,
      "natur": 2917,
      "pan": 2918,
      "wound": 2919,
      "zer": 2920,
      "angu": 2921,
      "refe": 2922,
      "sole": 2923,
      "sess": 2924,
      "impress": 2925,
      "button": 2926,
      "hea": 2927,
      "youn": 2928,
      "dog": 2929,
      "ics": 2930,
      "catho": 2931,
      "term": 2932,
      "iled": 2933,
      "hadnt": 2934,
      "otherwise": 2935,
      "affect": 2936,
      "achieve": 2937,
      "minor": 2938,
      "marri": 2939,
      "clothes": 2940,
      "ships": 2941,
      "cheer": 2942,
      "studying": 2943,
      "liter": 2944,
      "leader": 2945,
      "changed": 2946,
      "discussing": 2947,
      "companion": 2948,
      "struggling": 2949,
      "profession": 2950,
      "potential": 2951,
      "exercise": 2952,
      "environment": 2953,
      "occasion": 2954,
      "neighbor": 2955,
      "catholic": 2956,
      "ded": 2957,
      "eve": 2958,
      "fal": 2959,
      "thus": 2960,
      "thigh": 2961,
      "ery": 2962,
      "ences": 2963,
      "keen": 2964,
      "impro": 2965,
      "und": 2966,
      "hey": 2967,
      "cast": 2968,
      "neither": 2969,
      "ulation": 2970,
      "prep": 2971,
      "shif": 2972,
      "common": 2973,
      "spring": 2974,
      "bow": 2975,
      "aches": 2976,
      "apping": 2977,
      "apped": 2978,
      "forever": 2979,
      "cru": 2980,
      "letter": 2981,
      "blogs": 2982,
      "meaning": 2983,
      "points": 2984,
      "intern": 2985,
      "difference": 2986,
      "condition": 2987,
      "message": 2988,
      "facing": 2989,
      "snack": 2990,
      "conversations": 2991,
      "suggest": 2992,
      "idiotic": 2993,
      "zzy": 2994,
      "increasingly": 2995,
      "drinking": 2996,
      "beyond": 2997,
      "quote": 2998,
      "involved": 2999,
      "website": 3000,
      "remorseful": 3001,
      "degree": 3002,
      "ech": 3003,
      "gers": 3004,
      "gig": 3005,
      "inve": 3006,
      "stars": 3007,
      "alive": 3008,
      "lier": 3009,
      "immen": 3010,
      "amed": 3011,
      "amused": 3012,
      "outfit": 3013,
      "butt": 3014,
      "dece": 3015,
      "shir": 3016,
      "cancer": 3017,
      "ourselves": 3018,
      "grace": 3019,
      "reader": 3020,
      "starts": 3021,
      "izing": 3022,
      "awake": 3023,
      "consist": 3024,
      "burn": 3025,
      "annoying": 3026,
      "swim": 3027,
      "wedding": 3028,
      "settle": 3029,
      "depend": 3030,
      "service": 3031,
      "confess": 3032,
      "apolog": 3033,
      "depression": 3034,
      "mistake": 3035,
      "remembered": 3036,
      "aa": 3037,
      "ail": 3038,
      "jer": 3039,
      "nia": 3040,
      "os": 3041,
      "ror": 3042,
      "rous": 3043,
      "spl": 3044,
      "ution": 3045,
      "vol": 3046,
      "wast": 3047,
      "wers": 3048,
      "wine": 3049,
      "waking": 3050,
      "oned": 3051,
      "asleep": 3052,
      "lik": 3053,
      "among": 3054,
      "activ": 3055,
      "unt": 3056,
      "gotta": 3057,
      "anywhere": 3058,
      "comfor": 3059,
      "pol": 3060,
      "quil": 3061,
      "quality": 3062,
      "lifestyle": 3063,
      "prov": 3064,
      "vibe": 3065,
      "contact": 3066,
      "logical": 3067,
      "blind": 3068,
      "tells": 3069,
      "mont": 3070,
      "voc": 3071,
      "bum": 3072,
      "period": 3073,
      "turning": 3074,
      "drove": 3075,
      "depth": 3076,
      "flowers": 3077,
      "projects": 3078,
      "nsive": 3079,
      "ludic": 3080,
      "desperate": 3081,
      "govern": 3082,
      "birthday": 3083,
      "slutty": 3084,
      "mouth": 3085,
      "gratitude": 3086,
      "garden": 3087,
      "ludicrous": 3088,
      "bird": 3089,
      "bio": 3090,
      "ffe": 3091,
      "ku": 3092,
      "kle": 3093,
      "loud": 3094,
      "mag": 3095,
      "ore": 3096,
      "ran": 3097,
      "yell": 3098,
      "thom": 3099,
      "recomm": 3100,
      "research": 3101,
      "atures": 3102,
      "itar": 3103,
      "ory": 3104,
      "mes": 3105,
      "armed": 3106,
      "whil": 3107,
      "white": 3108,
      "formed": 3109,
      "idly": 3110,
      "weep": 3111,
      "neck": 3112,
      "ceed": 3113,
      "areas": 3114,
      "pos": 3115,
      "grav": 3116,
      "boss": 3117,
      "discovered": 3118,
      "itement": 3119,
      "provide": 3120,
      "dial": 3121,
      "gue": 3122,
      "mped": 3123,
      "angered": 3124,
      "mental": 3125,
      "appalled": 3126,
      "shamed": 3127,
      "offic": 3128,
      "trees": 3129,
      "presented": 3130,
      "childhood": 3131,
      "headed": 3132,
      "excitement": 3133,
      "importance": 3134,
      "silence": 3135,
      "screen": 3136,
      "hungry": 3137,
      "treatment": 3138,
      "responsible": 3139,
      "pursu": 3140,
      "sugar": 3141,
      "advice": 3142,
      "apartment": 3143,
      "typing": 3144,
      "sequel": 3145,
      "lenses": 3146,
      "breathe": 3147,
      "places": 3148,
      "communic": 3149,
      "obviously": 3150,
      "neglect": 3151,
      "individual": 3152,
      "whilst": 3153,
      "aper": 3154,
      "ban": 3155,
      "cam": 3156,
      "crow": 3157,
      "ds": 3158,
      "dru": 3159,
      "dying": 3160,
      "ka": 3161,
      "kitch": 3162,
      "mount": 3163,
      "oil": 3164,
      "size": 3165,
      "uu": 3166,
      "wind": 3167,
      "information": 3168,
      "ana": 3169,
      "stance": 3170,
      "ork": 3171,
      "asks": 3172,
      "haha": 3173,
      "unworthy": 3174,
      "note": 3175,
      "somebody": 3176,
      "shall": 3177,
      "ified": 3178,
      "ury": 3179,
      "plate": 3180,
      "box": 3181,
      "therefore": 3182,
      "lessons": 3183,
      "guide": 3184,
      "store": 3185,
      "shopping": 3186,
      "moms": 3187,
      "office": 3188,
      "freak": 3189,
      "posted": 3190,
      "market": 3191,
      "closed": 3192,
      "possib": 3193,
      "hoping": 3194,
      "position": 3195,
      "respond": 3196,
      "sunday": 3197,
      "regular": 3198,
      "explaining": 3199,
      "lands": 3200,
      "sentence": 3201,
      "wednes": 3202,
      "specific": 3203,
      "benef": 3204,
      "thanksgiving": 3205,
      "laying": 3206,
      "eventually": 3207,
      "sensation": 3208,
      "products": 3209,
      "likely": 3210,
      "kitchen": 3211,
      "wednesday": 3212,
      "bs": 3213,
      "cred": 3214,
      "coffe": 3215,
      "lun": 3216,
      "mir": 3217,
      "pati": 3218,
      "sli": 3219,
      "sigh": 3220,
      "vas": 3221,
      "vac": 3222,
      "vil": 3223,
      "thy": 3224,
      "engl": 3225,
      "ander": 3226,
      "stair": 3227,
      "aspect": 3228,
      "beating": 3229,
      "forgot": 3230,
      "forgive": 3231,
      "shut": 3232,
      "shine": 3233,
      "aggrav": 3234,
      "cos": 3235,
      "ctly": 3236,
      "stranger": 3237,
      "print": 3238,
      "earlier": 3239,
      "workout": 3240,
      "creati": 3241,
      "parts": 3242,
      "bookmark": 3243,
      "lighter": 3244,
      "nap": 3245,
      "nause": 3246,
      "nail": 3247,
      "bloggers": 3248,
      "takes": 3249,
      "mike": 3250,
      "glamorous": 3251,
      "tended": 3252,
      "flaw": 3253,
      "playful": 3254,
      "compare": 3255,
      "price": 3256,
      "greater": 3257,
      "embrace": 3258,
      "holidays": 3259,
      "cards": 3260,
      "focused": 3261,
      "response": 3262,
      "weepy": 3263,
      "coffee": 3264,
      "stairs": 3265,
      "aggravated": 3266,
      "bunch": 3267,
      "fy": 3268,
      "gay": 3269,
      "gant": 3270,
      "mur": 3271,
      "ow": 3272,
      "pal": 3273,
      "rate": 3274,
      "tat": 3275,
      "tch": 3276,
      "text": 3277,
      "reci": 3278,
      "tool": 3279,
      "alarmed": 3280,
      "lies": 3281,
      "separ": 3282,
      "section": 3283,
      "tively": 3284,
      "acles": 3285,
      "hehe": 3286,
      "youd": 3287,
      "usting": 3288,
      "deta": 3289,
      "consequ": 3290,
      "construc": 3291,
      "coz": 3292,
      "cook": 3293,
      "urge": 3294,
      "loves": 3295,
      "guitar": 3296,
      "intim": 3297,
      "cum": 3298,
      "stor": 3299,
      "green": 3300,
      "helps": 3301,
      "mini": 3302,
      "mater": 3303,
      "easier": 3304,
      "ashion": 3305,
      "runs": 3306,
      "values": 3307,
      "photograph": 3308,
      "constant": 3309,
      "maintain": 3310,
      "dealing": 3311,
      "ieving": 3312,
      "adventure": 3313,
      "efforts": 3314,
      "arrived": 3315,
      "idiot": 3316,
      "instantly": 3317,
      "received": 3318,
      "dollars": 3319,
      "record": 3320,
      "thighs": 3321,
      "bb": 3322,
      "bul": 3323,
      "bash": 3324,
      "dating": 3325,
      "ema": 3326,
      "fashion": 3327,
      "jon": 3328,
      "kn": 3329,
      "link": 3330,
      "pes": 3331,
      "rup": 3332,
      "range": 3333,
      "sam": 3334,
      "sour": 3335,
      "twin": 3336,
      "title": 3337,
      "vicious": 3338,
      "yard": 3339,
      "init": 3340,
      "eliness": 3341,
      "anal": 3342,
      "ancy": 3343,
      "ret": 3344,
      "altern": 3345,
      "meat": 3346,
      "assu": 3347,
      "kets": 3348,
      "ham": 3349,
      "till": 3350,
      "local": 3351,
      "abilities": 3352,
      "acent": 3353,
      "suspect": 3354,
      "heav": 3355,
      "pered": 3356,
      "uses": 3357,
      "dered": 3358,
      "pretend": 3359,
      "worst": 3360,
      "itted": 3361,
      "spr": 3362,
      "spider": 3363,
      "peoples": 3364,
      "tea": 3365,
      "thinks": 3366,
      "assist": 3367,
      "needing": 3368,
      "intro": 3369,
      "classes": 3370,
      "blamed": 3371,
      "fellow": 3372,
      "freaking": 3373,
      "satur": 3374,
      "married": 3375,
      "hopefully": 3376,
      "publ": 3377,
      "sympath": 3378,
      "curity": 3379,
      "sorts": 3380,
      "loneliness": 3381,
      "version": 3382,
      "decisions": 3383,
      "block": 3384,
      "drop": 3385,
      "struggle": 3386,
      "experiences": 3387,
      "complacent": 3388,
      "produce": 3389,
      "laughing": 3390,
      "corn": 3391,
      "demand": 3392,
      "repeated": 3393,
      "yeah": 3394,
      "families": 3395,
      "dramat": 3396,
      "medicine": 3397,
      "strangely": 3398,
      "caught": 3399,
      "younger": 3400,
      "vacation": 3401,
      "bic": 3402,
      "bby": 3403,
      "eg": 3404,
      "fle": 3405,
      "gly": 3406,
      "hill": 3407,
      "kic": 3408,
      "langu": 3409,
      "magic": 3410,
      "rhy": 3411,
      "sac": 3412,
      "sides": 3413,
      "tiny": 3414,
      "yog": 3415,
      "york": 3416,
      "zed": 3417,
      "influ": 3418,
      "meal": 3419,
      "bewild": 3420,
      "soph": 3421,
      "novel": 3422,
      "sea": 3423,
      "lock": 3424,
      "escape": 3425,
      "likes": 3426,
      "active": 3427,
      "west": 3428,
      "goal": 3429,
      "conven": 3430,
      "console": 3431,
      "anybody": 3432,
      "tte": 3433,
      "plus": 3434,
      "oken": 3435,
      "held": 3436,
      "shadow": 3437,
      "contri": 3438,
      "desires": 3439,
      "hearts": 3440,
      "option": 3441,
      "speech": 3442,
      "awfully": 3443,
      "gods": 3444,
      "glasses": 3445,
      "rences": 3446,
      "steve": 3447,
      "mature": 3448,
      "checking": 3449,
      "priv": 3450,
      "valid": 3451,
      "bigger": 3452,
      "added": 3453,
      "employ": 3454,
      "student": 3455,
      "oppo": 3456,
      "attack": 3457,
      "convince": 3458,
      "faces": 3459,
      "flower": 3460,
      "demands": 3461,
      "companies": 3462,
      "complaining": 3463,
      "continued": 3464,
      "draw": 3465,
      "radio": 3466,
      "twitter": 3467,
      "spiteful": 3468,
      "motivated": 3469,
      "behavior": 3470,
      "literally": 3471,
      "professional": 3472,
      "invest": 3473,
      "immensely": 3474,
      "shirt": 3475,
      "wasted": 3476,
      "possibility": 3477,
      "saturday": 3478,
      "bewildered": 3479,
      "amy": 3480,
      "ba": 3481,
      "dess": 3482,
      "dread": 3483,
      "eight": 3484,
      "ifor": 3485,
      "ially": 3486,
      "lin": 3487,
      "mill": 3488,
      "ots": 3489,
      "pas": 3490,
      "pound": 3491,
      "squ": 3492,
      "twi": 3493,
      "uri": 3494,
      "wis": 3495,
      "thous": 3496,
      "reve": 3497,
      "nobody": 3498,
      "habit": 3499,
      "cher": 3500,
      "aband": 3501,
      "geor": 3502,
      "weve": 3503,
      "cake": 3504,
      "selling": 3505,
      "aren": 3506,
      "ifically": 3507,
      "bye": 3508,
      "trad": 3509,
      "canvas": 3510,
      "perspec": 3511,
      "azz": 3512,
      "bot": 3513,
      "lessly": 3514,
      "shoulder": 3515,
      "surger": 3516,
      "blan": 3517,
      "remembering": 3518,
      "crash": 3519,
      "tension": 3520,
      "confli": 3521,
      "mission": 3522,
      "babies": 3523,
      "breaking": 3524,
      "cheated": 3525,
      "xture": 3526,
      "califor": 3527,
      "arming": 3528,
      "cyber": 3529,
      "jealousy": 3530,
      "silently": 3531,
      "attitude": 3532,
      "spiritual": 3533,
      "specifically": 3534,
      "cleaning": 3535,
      "artists": 3536,
      "reached": 3537,
      "protected": 3538,
      "pregnancy": 3539,
      "teenager": 3540,
      "entertained": 3541,
      "judge": 3542,
      "practice": 3543,
      "properly": 3544,
      "opinions": 3545,
      "performance": 3546,
      "schedu": 3547,
      "financial": 3548,
      "moisturi": 3549,
      "gradu": 3550,
      "dialog": 3551,
      "repeatedly": 3552,
      "rhyth": 3553,
      "yoga": 3554,
      "reveal": 3555,
      "perspective": 3556,
      "fro": 3557,
      "gin": 3558,
      "gas": 3559,
      "gare": 3560,
      "gained": 3561,
      "ker": 3562,
      "mild": 3563,
      "oes": 3564,
      "oce": 3565,
      "pin": 3566,
      "ped": 3567,
      "sle": 3568,
      "sno": 3569,
      "sci": 3570,
      "umb": 3571,
      "wit": 3572,
      "anti": 3573,
      "todd": 3574,
      "topic": 3575,
      "enraged": 3576,
      "stare": 3577,
      "soo": 3578,
      "socially": 3579,
      "lively": 3580,
      "whine": 3581,
      "chose": 3582,
      "forced": 3583,
      "forgotten": 3584,
      "omb": 3585,
      "hosp": 3586,
      "butter": 3587,
      "moved": 3588,
      "motor": 3589,
      "agon": 3590,
      "trau": 3591,
      "compar": 3592,
      "usa": 3593,
      "poli": 3594,
      "aze": 3595,
      "willing": 3596,
      "asters": 3597,
      "fold": 3598,
      "yours": 3599,
      "shame": 3600,
      "park": 3601,
      "brush": 3602,
      "carried": 3603,
      "speed": 3604,
      "blogger": 3605,
      "mixture": 3606,
      "hum": 3607,
      "glass": 3608,
      "offensive": 3609,
      "admitting": 3610,
      "below": 3611,
      "distin": 3612,
      "sexy": 3613,
      "horribly": 3614,
      "deserves": 3615,
      "settled": 3616,
      "concerns": 3617,
      "lettuce": 3618,
      "challenges": 3619,
      "avoiding": 3620,
      "admire": 3621,
      "judged": 3622,
      "accomplish": 3623,
      "america": 3624,
      "temperature": 3625,
      "language": 3626,
      "california": 3627,
      "austr": 3628,
      "bil": 3629,
      "bright": 3630,
      "glo": 3631,
      "hsp": 3632,
      "nut": 3633,
      "ogle": 3634,
      "pace": 3635,
      "pages": 3636,
      "rare": 3637,
      "sque": 3638,
      "woken": 3639,
      "inge": 3640,
      "requ": 3641,
      "repressed": 3642,
      "ense": 3643,
      "ency": 3644,
      "stro": 3645,
      "orig": 3646,
      "ashes": 3647,
      "ids": 3648,
      "hole": 3649,
      "unit": 3650,
      "unnecessary": 3651,
      "motion": 3652,
      "google": 3653,
      "pet": 3654,
      "petri": 3655,
      "conserv": 3656,
      "predic": 3657,
      "therap": 3658,
      "expressed": 3659,
      "indul": 3660,
      "quake": 3661,
      "bored": 3662,
      "dig": 3663,
      "guest": 3664,
      "sav": 3665,
      "achieved": 3666,
      "sheer": 3667,
      "raising": 3668,
      "overwhelming": 3669,
      "joke": 3670,
      "goodbye": 3671,
      "belly": 3672,
      "creature": 3673,
      "logic": 3674,
      "realised": 3675,
      "brings": 3676,
      "carry": 3677,
      "tug": 3678,
      "handed": 3679,
      "learnt": 3680,
      "humor": 3681,
      "headache": 3682,
      "pulled": 3683,
      "pleasure": 3684,
      "substance": 3685,
      "wishing": 3686,
      "hoped": 3687,
      "expectations": 3688,
      "cried": 3689,
      "study": 3690,
      "base": 3691,
      "perfectly": 3692,
      "elegant": 3693,
      "filled": 3694,
      "scen": 3695,
      "protein": 3696,
      "fighting": 3697,
      "favour": 3698,
      "grandmother": 3699,
      "corre": 3700,
      "discussions": 3701,
      "powerful": 3702,
      "earthquake": 3703,
      "washing": 3704,
      "aneously": 3705,
      "approach": 3706,
      "climb": 3707,
      "education": 3708,
      "explo": 3709,
      "techni": 3710,
      "thrown": 3711,
      "opinion": 3712,
      "occasionally": 3713,
      "shift": 3714,
      "activities": 3715,
      "mountain": 3716,
      "creativity": 3717,
      "surgery": 3718,
      "rhythm": 3719,
      "whiney": 3720,
      "hospital": 3721,
      "austral": 3722,
      "petrified": 3723,
      "bast": 3724,
      "camer": 3725,
      "flying": 3726,
      "hh": 3727,
      "jol": 3728,
      "mate": 3729,
      "pink": 3730,
      "rar": 3731,
      "slo": 3732,
      "swo": 3733,
      "sky": 3734,
      "tour": 3735,
      "aning": 3736,
      "fever": 3737,
      "tone": 3738,
      "ises": 3739,
      "lied": 3740,
      "whis": 3741,
      "nowhere": 3742,
      "habits": 3743,
      "imately": 3744,
      "chi": 3745,
      "unkind": 3746,
      "gold": 3747,
      "ustry": 3748,
      "antsy": 3749,
      "role": 3750,
      "rober": 3751,
      "rolled": 3752,
      "ulate": 3753,
      "justice": 3754,
      "terms": 3755,
      "terror": 3756,
      "shar": 3757,
      "poo": 3758,
      "industry": 3759,
      "plans": 3760,
      "tee": 3761,
      "teaching": 3762,
      "mum": 3763,
      "vibr": 3764,
      "lesson": 3765,
      "save": 3766,
      "saving": 3767,
      "aft": 3768,
      "intens": 3769,
      "shots": 3770,
      "helped": 3771,
      "impacted": 3772,
      "cringe": 3773,
      "amazingly": 3774,
      "naked": 3775,
      "wonderfully": 3776,
      "minds": 3777,
      "matters": 3778,
      "stronger": 3779,
      "versity": 3780,
      "expecting": 3781,
      "reminds": 3782,
      "sunshine": 3783,
      "absolute": 3784,
      "growth": 3785,
      "blown": 3786,
      "humans": 3787,
      "capture": 3788,
      "status": 3789,
      "sociable": 3790,
      "setting": 3791,
      "scene": 3792,
      "trouble": 3793,
      "advant": 3794,
      "portray": 3795,
      "jumped": 3796,
      "clearly": 3797,
      "political": 3798,
      "struggled": 3799,
      "american": 3800,
      "breathing": 3801,
      "critical": 3802,
      "attracted": 3803,
      "agues": 3804,
      "heaven": 3805,
      "international": 3806,
      "government": 3807,
      "biology": 3808,
      "recommend": 3809,
      "bashful": 3810,
      "private": 3811,
      "origin": 3812,
      "camera": 3813,
      "rarely": 3814,
      "bat": 3815,
      "bbed": 3816,
      "bap": 3817,
      "cs": 3818,
      "dare": 3819,
      "econ": 3820,
      "hall": 3821,
      "pi": 3822,
      "snow": 3823,
      "scr": 3824,
      "van": 3825,
      "returned": 3826,
      "atly": 3827,
      "attend": 3828,
      "ert": 3829,
      "libr": 3830,
      "tips": 3831,
      "force": 3832,
      "actively": 3833,
      "unte": 3834,
      "heat": 3835,
      "moder": 3836,
      "docu": 3837,
      "neatly": 3838,
      "demo": 3839,
      "prepar": 3840,
      "shout": 3841,
      "shell": 3842,
      "poe": 3843,
      "posed": 3844,
      "odes": 3845,
      "overload": 3846,
      "sphere": 3847,
      "everywhere": 3848,
      "viv": 3849,
      "prof": 3850,
      "cuz": 3851,
      "rage": 3852,
      "apparent": 3853,
      "fire": 3854,
      "believing": 3855,
      "ignor": 3856,
      "partly": 3857,
      "brit": 3858,
      "cramp": 3859,
      "nails": 3860,
      "decor": 3861,
      "walks": 3862,
      "https": 3863,
      "sadd": 3864,
      "flor": 3865,
      "played": 3866,
      "talks": 3867,
      "mates": 3868,
      "fears": 3869,
      "north": 3870,
      "charming": 3871,
      "sorta": 3872,
      "ential": 3873,
      "pics": 3874,
      "planning": 3875,
      "legit": 3876,
      "hopes": 3877,
      "allowing": 3878,
      "custo": 3879,
      "deserted": 3880,
      "fabric": 3881,
      "protect": 3882,
      "ificant": 3883,
      "extraordin": 3884,
      "booth": 3885,
      "lady": 3886,
      "football": 3887,
      "million": 3888,
      "frequently": 3889,
      "december": 3890,
      "volunte": 3891,
      "english": 3892,
      "photography": 3893,
      "kicked": 3894,
      "sacri": 3895,
      "opposite": 3896,
      "george": 3897,
      "library": 3898,
      "bble": 3899,
      "bank": 3900,
      "dred": 3901,
      "gar": 3902,
      "gun": 3903,
      "gely": 3904,
      "ias": 3905,
      "lines": 3906,
      "ome": 3907,
      "pam": 3908,
      "rout": 3909,
      "rise": 3910,
      "twent": 3911,
      "vell": 3912,
      "yy": 3913,
      "ani": 3914,
      "feelin": 3915,
      "reven": 3916,
      "ering": 3917,
      "mester": 3918,
      "associ": 3919,
      "sooo": 3920,
      "imate": 3921,
      "ches": 3922,
      "tized": 3923,
      "vert": 3924,
      "omic": 3925,
      "ador": 3926,
      "ung": 3927,
      "uncle": 3928,
      "gear": 3929,
      "someones": 3930,
      "depart": 3931,
      "demon": 3932,
      "sell": 3933,
      "endless": 3934,
      "frag": 3935,
      "whos": 3936,
      "ques": 3937,
      "spin": 3938,
      "spar": 3939,
      "wouldn": 3940,
      "dizzy": 3941,
      "cigare": 3942,
      "shoulders": 3943,
      "reson": 3944,
      "resses": 3945,
      "resigned": 3946,
      "join": 3947,
      "grey": 3948,
      "shot": 3949,
      "mommy": 3950,
      "understood": 3951,
      "opened": 3952,
      "dump": 3953,
      "humb": 3954,
      "matic": 3955,
      "shows": 3956,
      "dreaming": 3957,
      "cycle": 3958,
      "plane": 3959,
      "touches": 3960,
      "tongue": 3961,
      "honor": 3962,
      "games": 3963,
      "burden": 3964,
      "defend": 3965,
      "personality": 3966,
      "hundred": 3967,
      "films": 3968,
      "artist": 3969,
      "benjam": 3970,
      "awareness": 3971,
      "levels": 3972,
      "rolls": 3973,
      "episodes": 3974,
      "familiar": 3975,
      "accidentally": 3976,
      "smoo": 3977,
      "limit": 3978,
      "religion": 3979,
      "appearance": 3980,
      "blessings": 3981,
      "engage": 3982,
      "academic": 3983,
      "anticipated": 3984,
      "marriage": 3985,
      "neighborhood": 3986,
      "improve": 3987,
      "consistently": 3988,
      "neglectful": 3989,
      "analy": 3990,
      "demanding": 3991,
      "schedule": 3992,
      "stroke": 3993,
      "modern": 3994,
      "saddened": 3995,
      "extraordinarily": 3996,
      "twenty": 3997,
      "benjamin": 3998,
      "aj": 3999,
      "awhile": 4000,
      "aunt": 4001,
      "bare": 4002,
      "batt": 4003,
      "emer": 4004,
      "euro": 4005,
      "fits": 4006,
      "fandom": 4007,
      "lacking": 4008,
      "match": 4009,
      "pour": 4010,
      "purch": 4011,
      "rom": 4012,
      "sake": 4013,
      "tually": 4014,
      "vive": 4015,
      "inj": 4016,
      "informed": 4017,
      "remove": 4018,
      "toms": 4019,
      "ony": 4020,
      "aries": 4021,
      "hah": 4022,
      "hael": 4023,
      "security": 4024,
      "chick": 4025,
      "uttered": 4026,
      "ford": 4027,
      "unfold": 4028,
      "weigh": 4029,
      "aller": 4030,
      "consu": 4031,
      "cost": 4032,
      "extended": 4033,
      "plants": 4034,
      "grade": 4035,
      "board": 4036,
      "vile": 4037,
      "prim": 4038,
      "ears": 4039,
      "friendships": 4040,
      "workers": 4041,
      "belief": 4042,
      "greg": 4043,
      "grew": 4044,
      "shop": 4045,
      "contain": 4046,
      "clin": 4047,
      "clar": 4048,
      "clined": 4049,
      "handled": 4050,
      "confir": 4051,
      "firm": 4052,
      "marath": 4053,
      "hardly": 4054,
      "player": 4055,
      "breeze": 4056,
      "solution": 4057,
      "showing": 4058,
      "shower": 4059,
      "satisf": 4060,
      "violence": 4061,
      "viewing": 4062,
      "highly": 4063,
      "darling": 4064,
      "virtually": 4065,
      "offers": 4066,
      "largely": 4067,
      "expressing": 4068,
      "fluff": 4069,
      "thorough": 4070,
      "politics": 4071,
      "approve": 4072,
      "noticing": 4073,
      "contrast": 4074,
      "contractions": 4075,
      "similarly": 4076,
      "failure": 4077,
      "screaming": 4078,
      "victimized": 4079,
      "receiving": 4080,
      "millions": 4081,
      "religious": 4082,
      "operation": 4083,
      "ridiculously": 4084,
      "energized": 4085,
      "concentrate": 4086,
      "bouncy": 4087,
      "comforting": 4088,
      "providing": 4089,
      "depths": 4090,
      "ministr": 4091,
      "scenes": 4092,
      "techniques": 4093,
      "intensity": 4094,
      "baptized": 4095,
      "marathon": 4096,
      "bri": 4097,
      "brow": 4098,
      "bitten": 4099,
      "cel": 4100,
      "cand": 4101,
      "fas": 4102,
      "fly": 4103,
      "fice": 4104,
      "faster": 4105,
      "lap": 4106,
      "mam": 4107,
      "mask": 4108,
      "master": 4109,
      "nag": 4110,
      "san": 4111,
      "spre": 4112,
      "send": 4113,
      "sco": 4114,
      "scent": 4115,
      "tack": 4116,
      "thod": 4117,
      "third": 4118,
      "inent": 4119,
      "inspir": 4120,
      "feature": 4121,
      "tori": 4122,
      "itions": 4123,
      "alot": 4124,
      "album": 4125,
      "ori": 4126,
      "aside": 4127,
      "soli": 4128,
      "nose": 4129,
      "imm": 4130,
      "chat": 4131,
      "chal": 4132,
      "tip": 4133,
      "suit": 4134,
      "adop": 4135,
      "advoc": 4136,
      "entry": 4137,
      "dogs": 4138,
      "goals": 4139,
      "causing": 4140,
      "pee": 4141,
      "peep": 4142,
      "peers": 4143,
      "rock": 4144,
      "pper": 4145,
      "deed": 4146,
      "aint": 4147,
      "poke": 4148,
      "perman": 4149,
      "perform": 4150,
      "stral": 4151,
      "hero": 4152,
      "tics": 4153,
      "proclaim": 4154,
      "dign": 4155,
      "pra": 4156,
      "worker": 4157,
      "apple": 4158,
      "relative": 4159,
      "angel": 4160,
      "eks": 4161,
      "surprise": 4162,
      "ancestral": 4163,
      "presents": 4164,
      "calls": 4165,
      "deli": 4166,
      "mary": 4167,
      "serve": 4168,
      "closer": 4169,
      "hurting": 4170,
      "breast": 4171,
      "painful": 4172,
      "compli": 4173,
      "compared": 4174,
      "rooms": 4175,
      "gym": 4176,
      "greatness": 4177,
      "picked": 4178,
      "appointment": 4179,
      "traitor": 4180,
      "opening": 4181,
      "christian": 4182,
      "interests": 4183,
      "collection": 4184,
      "fitness": 4185,
      "custom": 4186,
      "driving": 4187,
      "capac": 4188,
      "dropped": 4189,
      "truthful": 4190,
      "prominent": 4191,
      "thrift": 4192,
      "intensely": 4193,
      "gifts": 4194,
      "dads": 4195,
      "bags": 4196,
      "receive": 4197,
      "pulling": 4198,
      "continues": 4199,
      "practic": 4200,
      "practical": 4201,
      "regarding": 4202,
      "repeat": 4203,
      "floor": 4204,
      "existance": 4205,
      "throat": 4206,
      "article": 4207,
      "copy": 4208,
      "sweaty": 4209,
      "building": 4210,
      "circum": 4211,
      "flattered": 4212,
      "secretly": 4213,
      "discovering": 4214,
      "surrounded": 4215,
      "dunno": 4216,
      "naturally": 4217,
      "klein": 4218,
      "nauseous": 4219,
      "sympathy": 4220,
      "contribut": 4221,
      "passport": 4222,
      "bastard": 4223,
      "jolly": 4224,
      "document": 4225,
      "sacrifice": 4226,
      "injury": 4227,
      "fasc": 4228,
      "spread": 4229,
      "athe": 4230,
      "aur": 4231,
      "cul": 4232,
      "cous": 4233,
      "cough": 4234,
      "dv": 4235,
      "eath": 4236,
      "hiding": 4237,
      "ium": 4238,
      "lur": 4239,
      "lbs": 4240,
      "mc": 4241,
      "pity": 4242,
      "pson": 4243,
      "pile": 4244,
      "random": 4245,
      "uk": 4246,
      "va": 4247,
      "femin": 4248,
      "atmo": 4249,
      "onic": 4250,
      "ening": 4251,
      "stable": 4252,
      "ites": 4253,
      "ala": 4254,
      "altogether": 4255,
      "alene": 4256,
      "ories": 4257,
      "meas": 4258,
      "ison": 4259,
      "asy": 4260,
      "lift": 4261,
      "seat": 4262,
      "semester": 4263,
      "identi": 4264,
      "omi": 4265,
      "unusual": 4266,
      "unappreciated": 4267,
      "height": 4268,
      "entered": 4269,
      "wet": 4270,
      "caffe": 4271,
      "peter": 4272,
      "condem": 4273,
      "fru": 4274,
      "coll": 4275,
      "ural": 4276,
      "string": 4277,
      "willingly": 4278,
      "grant": 4279,
      "spont": 4280,
      "hasnt": 4281,
      "resist": 4282,
      "moral": 4283,
      "blur": 4284,
      "ister": 4285,
      "smiled": 4286,
      "stumped": 4287,
      "welling": 4288,
      "swear": 4289,
      "rule": 4290,
      "paget": 4291,
      "minim": 4292,
      "wonders": 4293,
      "marks": 4294,
      "puppy": 4295,
      "dreamy": 4296,
      "colour": 4297,
      "apt": 4298,
      "centered": 4299,
      "cheeks": 4300,
      "atively": 4301,
      "curl": 4302,
      "housewife": 4303,
      "empath": 4304,
      "distri": 4305,
      "positions": 4306,
      "connected": 4307,
      "succeed": 4308,
      "sexually": 4309,
      "allows": 4310,
      "elect": 4311,
      "changing": 4312,
      "itional": 4313,
      "netfli": 4314,
      "states": 4315,
      "beneath": 4316,
      "experiencing": 4317,
      "concern": 4318,
      "teachers": 4319,
      "bringing": 4320,
      "intellect": 4321,
      "accord": 4322,
      "connections": 4323,
      "killing": 4324,
      "walls": 4325,
      "drawn": 4326,
      "boost": 4327,
      "sticky": 4328,
      "destro": 4329,
      "nicely": 4330,
      "rrrr": 4331,
      "include": 4332,
      "majority": 4333,
      "doctors": 4334,
      "animals": 4335,
      "blowing": 4336,
      "obligations": 4337,
      "references": 4338,
      "apologize": 4339,
      "thompson": 4340,
      "apers": 4341,
      "credit": 4342,
      "aspects": 4343,
      "email": 4344,
      "dramatically": 4345,
      "conflict": 4346,
      "moisturizer": 4347,
      "poetry": 4348,
      "atmosphere": 4349,
      "netflix": 4350,
      "aked": 4351,
      "bread": 4352,
      "bond": 4353,
      "cell": 4354,
      "dry": 4355,
      "dav": 4356,
      "flight": 4357,
      "gel": 4358,
      "hm": 4359,
      "han": 4360,
      "hitting": 4361,
      "ilo": 4362,
      "iation": 4363,
      "jim": 4364,
      "jason": 4365,
      "loun": 4366,
      "nam": 4367,
      "plot": 4368,
      "padding": 4369,
      "rab": 4370,
      "tou": 4371,
      "wander": 4372,
      "zone": 4373,
      "independ": 4374,
      "tomat": 4375,
      "encourage": 4376,
      "stell": 4377,
      "itation": 4378,
      "method": 4379,
      "bear": 4380,
      "arc": 4381,
      "liking": 4382,
      "limb": 4383,
      "chemo": 4384,
      "tied": 4385,
      "esday": 4386,
      "outs": 4387,
      "uted": 4388,
      "ida": 4389,
      "sus": 4390,
      "adul": 4391,
      "adjust": 4392,
      "heck": 4393,
      "moon": 4394,
      "noted": 4395,
      "ulating": 4396,
      "ppl": 4397,
      "coat": 4398,
      "track": 4399,
      "illa": 4400,
      "indic": 4401,
      "ttes": 4402,
      "struct": 4403,
      "itect": 4404,
      "intended": 4405,
      "backs": 4406,
      "backward": 4407,
      "stopping": 4408,
      "related": 4409,
      "shape": 4410,
      "kinds": 4411,
      "aker": 4412,
      "puts": 4413,
      "nights": 4414,
      "tuesday": 4415,
      "rug": 4416,
      "answers": 4417,
      "phili": 4418,
      "philo": 4419,
      "supported": 4420,
      "hug": 4421,
      "bodies": 4422,
      "olds": 4423,
      "couch": 4424,
      "vote": 4425,
      "gia": 4426,
      "buying": 4427,
      "drag": 4428,
      "drunk": 4429,
      "trials": 4430,
      "obst": 4431,
      "center": 4432,
      "symptoms": 4433,
      "subm": 4434,
      "frustration": 4435,
      "value": 4436,
      "burst": 4437,
      "classroom": 4438,
      "planet": 4439,
      "emphas": 4440,
      "turns": 4441,
      "touching": 4442,
      "stayed": 4443,
      "appreciation": 4444,
      "spoken": 4445,
      "images": 4446,
      "misery": 4447,
      "architect": 4448,
      "factor": 4449,
      "masala": 4450,
      "riding": 4451,
      "finishing": 4452,
      "equal": 4453,
      "reply": 4454,
      "totaled": 4455,
      "steps": 4456,
      "writers": 4457,
      "daughters": 4458,
      "killed": 4459,
      "entertainers": 4460,
      "feeding": 4461,
      "streets": 4462,
      "waves": 4463,
      "accomplished": 4464,
      "kicks": 4465,
      "conference": 4466,
      "hangs": 4467,
      "temperatures": 4468,
      "bonus": 4469,
      "circle": 4470,
      "grabbing": 4471,
      "functions": 4472,
      "shiver": 4473,
      "natural": 4474,
      "panic": 4475,
      "blinded": 4476,
      "pursue": 4477,
      "drugs": 4478,
      "benefit": 4479,
      "consequences": 4480,
      "intimacy": 4481,
      "bbish": 4482,
      "alternative": 4483,
      "heavy": 4484,
      "thousand": 4485,
      "canvases": 4486,
      "ocean": 4487,
      "therapy": 4488,
      "guests": 4489,
      "apparently": 4490,
      "department": 4491,
      "cigarettes": 4492,
      "advocate": 4493,
      "cousin": 4494,
      "lounge": 4495,
      "stellar": 4496,
      "bay": 4497,
      "dim": 4498,
      "duty": 4499,
      "fell": 4500,
      "gt": 4501,
      "harm": 4502,
      "ii": 4503,
      "ilet": 4504,
      "kore": 4505,
      "pack": 4506,
      "rag": 4507,
      "sou": 4508,
      "sight": 4509,
      "vamp": 4510,
      "answe": 4511,
      "refer": 4512,
      "ators": 4513,
      "tox": 4514,
      "toilet": 4515,
      "eri": 4516,
      "encour": 4517,
      "stances": 4518,
      "itd": 4519,
      "itating": 4520,
      "aland": 4521,
      "alys": 4522,
      "isses": 4523,
      "army": 4524,
      "amish": 4525,
      "tiger": 4526,
      "une": 4527,
      "unsuccessful": 4528,
      "model": 4529,
      "concep": 4530,
      "prec": 4531,
      "upload": 4532,
      "sele": 4533,
      "endor": 4534,
      "traf": 4535,
      "compassion": 4536,
      "illness": 4537,
      "strate": 4538,
      "whose": 4539,
      "ilt": 4540,
      "quant": 4541,
      "oluted": 4542,
      "tear": 4543,
      "dislike": 4544,
      "disori": 4545,
      "lifetime": 4546,
      "via": 4547,
      "civil": 4548,
      "cumber": 4549,
      "hellip": 4550,
      "background": 4551,
      "unnatur": 4552,
      "resour": 4553,
      "release": 4554,
      "longed": 4555,
      "shoots": 4556,
      "manu": 4557,
      "stretch": 4558,
      "paralys": 4559,
      "bling": 4560,
      "bliss": 4561,
      "blush": 4562,
      "brid": 4563,
      "crim": 4564,
      "monday": 4565,
      "phr": 4566,
      "reflect": 4567,
      "glam": 4568,
      "hardships": 4569,
      "serving": 4570,
      "closure": 4571,
      "pains": 4572,
      "painting": 4573,
      "incident": 4574,
      "fearless": 4575,
      "particip": 4576,
      "situated": 4577,
      "wishes": 4578,
      "waited": 4579,
      "resentment": 4580,
      "sory": 4581,
      "legacy": 4582,
      "bitterly": 4583,
      "lications": 4584,
      "memorized": 4585,
      "machine": 4586,
      "babysit": 4587,
      "coolum": 4588,
      "population": 4589,
      "attach": 4590,
      "convoluted": 4591,
      "capable": 4592,
      "discussion": 4593,
      "names": 4594,
      "statistic": 4595,
      "unique": 4596,
      "settling": 4597,
      "descrip": 4598,
      "depending": 4599,
      "ignore": 4600,
      "promised": 4601,
      "zealand": 4602,
      "paying": 4603,
      "despised": 4604,
      "milk": 4605,
      "pathy": 4606,
      "arrive": 4607,
      "difficul": 4608,
      "typically": 4609,
      "subjects": 4610,
      "rapture": 4611,
      "rapidly": 4612,
      "systems": 4613,
      "regardless": 4614,
      "expensive": 4615,
      "accomplishing": 4616,
      "organiz": 4617,
      "laund": 4618,
      "celebrate": 4619,
      "atory": 4620,
      "articulate": 4621,
      "drama": 4622,
      "smoke": 4623,
      "including": 4624,
      "sale": 4625,
      "starved": 4626,
      "combined": 4627,
      "polite": 4628,
      "officially": 4629,
      "tools": 4630,
      "material": 4631,
      "jonah": 4632,
      "assume": 4633,
      "conveni": 4634,
      "scienti": 4635,
      "witness": 4636,
      "squeeze": 4637,
      "advantage": 4638,
      "economic": 4639,
      "routine": 4640,
      "smooth": 4641,
      "romance": 4642,
      "customers": 4643,
      "identify": 4644,
      "philosoph": 4645,
      "answered": 4646,
      "laundry": 4647,
      "bin": 4648,
      "buc": 4649,
      "bbing": 4650,
      "cate": 4651,
      "dat": 4652,
      "dor": 4653,
      "gal": 4654,
      "gaze": 4655,
      "kat": 4656,
      "kisses": 4657,
      "lend": 4658,
      "mmy": 4659,
      "mul": 4660,
      "mart": 4661,
      "nast": 4662,
      "nine": 4663,
      "oting": 4664,
      "ping": 4665,
      "pang": 4666,
      "patch": 4667,
      "sis": 4668,
      "tex": 4669,
      "tation": 4670,
      "vint": 4671,
      "infl": 4672,
      "incess": 4673,
      "insist": 4674,
      "ancing": 4675,
      "rend": 4676,
      "reproduce": 4677,
      "toe": 4678,
      "towel": 4679,
      "stim": 4680,
      "staring": 4681,
      "alu": 4682,
      "member": 4683,
      "isy": 4684,
      "asing": 4685,
      "beer": 4686,
      "vember": 4687,
      "lian": 4688,
      "lion": 4689,
      "limp": 4690,
      "liber": 4691,
      "november": 4692,
      "chic": 4693,
      "ays": 4694,
      "tire": 4695,
      "tivis": 4696,
      "lovers": 4697,
      "ades": 4698,
      "unsafe": 4699,
      "unities": 4700,
      "unknown": 4701,
      "unprotected": 4702,
      "weir": 4703,
      "lls": 4704,
      "youll": 4705,
      "dope": 4706,
      "robbed": 4707,
      "ulse": 4708,
      "causes": 4709,
      "atest": 4710,
      "iff": 4711,
      "hadn": 4712,
      "span": 4713,
      "spur": 4714,
      "spouse": 4715,
      "bore": 4716,
      "dismay": 4717,
      "disabilities": 4718,
      "affair": 4719,
      "raw": 4720,
      "stone": 4721,
      "apply": 4722,
      "joining": 4723,
      "file": 4724,
      "surface": 4725,
      "survive": 4726,
      "greatest": 4727,
      "manager": 4728,
      "morose": 4729,
      "logically": 4730,
      "finance": 4731,
      "blame": 4732,
      "surprising": 4733,
      "forearm": 4734,
      "foreign": 4735,
      "crack": 4736,
      "crush": 4737,
      "naomi": 4738,
      "sensory": 4739,
      "paid": 4740,
      "mile": 4741,
      "headaches": 4742,
      "refuse": 4743,
      "budd": 4744,
      "puzz": 4745,
      "steal": 4746,
      "complex": 4747,
      "hurry": 4748,
      "colors": 4749,
      "cesses": 4750,
      "subt": 4751,
      "curled": 4752,
      "foundation": 4753,
      "burned": 4754,
      "dreamed": 4755,
      "facturing": 4756,
      "tiredness": 4757,
      "london": 4758,
      "empathetic": 4759,
      "trail": 4760,
      "fiction": 4761,
      "slug": 4762,
      "integr": 4763,
      "incredible": 4764,
      "definition": 4765,
      "punch": 4766,
      "swing": 4767,
      "suffe": 4768,
      "gency": 4769,
      "hike": 4770,
      "statement": 4771,
      "temple": 4772,
      "templ": 4773,
      "invitation": 4774,
      "opportunities": 4775,
      "insane": 4776,
      "appeared": 4777,
      "dancer": 4778,
      "director": 4779,
      "presentation": 4780,
      "entertaining": 4781,
      "harry": 4782,
      "transc": 4783,
      "significant": 4784,
      "races": 4785,
      "mixed": 4786,
      "hatred": 4787,
      "crossed": 4788,
      "pattern": 4789,
      "bathroom": 4790,
      "strangers": 4791,
      "grabbed": 4792,
      "consciously": 4793,
      "ordinary": 4794,
      "performances": 4795,
      "energies": 4796,
      "targeted": 4797,
      "recognize": 4798,
      "various": 4799,
      "holly": 4800,
      "marriages": 4801,
      "falsely": 4802,
      "prepared": 4803,
      "graceful": 4804,
      "swimming": 4805,
      "communicate": 4806,
      "crowded": 4807,
      "miracles": 4808,
      "twice": 4809,
      "wisdom": 4810,
      "blanket": 4811,
      "toddler": 4812,
      "billy": 4813,
      "favourite": 4814,
      "florida": 4815,
      "volunteered": 4816,
      "analyses": 4817,
      "solid": 4818,
      "condemning": 4819,
      "spontaneously": 4820,
      "david": 4821,
      "limbs": 4822,
      "emphasize": 4823,
      "korean": 4824,
      "traffic": 4825,
      "manufacturing": 4826,
      "philosophy": 4827,
      "vintage": 4828,
      "tivism": 4829,
      "dismayed": 4830,
      "ai": 4831,
      "bomb": 4832,
      "cash": 4833,
      "gall": 4834,
      "gence": 4835,
      "glimp": 4836,
      "hip": 4837,
      "ior": 4838,
      "ired": 4839,
      "ius": 4840,
      "jan": 4841,
      "otion": 4842,
      "pil": 4843,
      "packing": 4844,
      "rance": 4845,
      "score": 4846,
      "taller": 4847,
      "vine": 4848,
      "wars": 4849,
      "waste": 4850,
      "yed": 4851,
      "female": 4852,
      "reward": 4853,
      "reaching": 4854,
      "era": 4855,
      "erce": 4856,
      "erved": 4857,
      "errat": 4858,
      "enlist": 4859,
      "stin": 4860,
      "stared": 4861,
      "alarming": 4862,
      "islands": 4863,
      "argu": 4864,
      "arvo": 4865,
      "immature": 4866,
      "chris": 4867,
      "loki": 4868,
      "wide": 4869,
      "account": 4870,
      "suic": 4871,
      "unreason": 4872,
      "unfair": 4873,
      "weap": 4874,
      "youve": 4875,
      "sometime": 4876,
      "rospect": 4877,
      "justified": 4878,
      "ceo": 4879,
      "conse": 4880,
      "concl": 4881,
      "ify": 4882,
      "agers": 4883,
      "costu": 4884,
      "compress": 4885,
      "exe": 4886,
      "usive": 4887,
      "pot": 4888,
      "persist": 4889,
      "evil": 4890,
      "evalu": 4891,
      "quar": 4892,
      "spell": 4893,
      "spine": 4894,
      "medical": 4895,
      "ella": 4896,
      "disasters": 4897,
      "mble": 4898,
      "item": 4899,
      "processes": 4900,
      "cieve": 4901,
      "cucumber": 4902,
      "friendship": 4903,
      "stole": 4904,
      "stores": 4905,
      "reserved": 4906,
      "relate": 4907,
      "joint": 4908,
      "goodnight": 4909,
      "surf": 4910,
      "surge": 4911,
      "mani": 4912,
      "helpful": 4913,
      "realm": 4914,
      "wherever": 4915,
      "cloud": 4916,
      "blu": 4917,
      "blon": 4918,
      "finds": 4919,
      "hearted": 4920,
      "ists": 4921,
      "cerin": 4922,
      "craft": 4923,
      "jective": 4924,
      "letters": 4925,
      "tummy": 4926,
      "lovedi": 4927,
      "paused": 4928,
      "paign": 4929,
      "restaur": 4930,
      "hubby": 4931,
      "marie": 4932,
      "marvel": 4933,
      "margin": 4934,
      "begun": 4935,
      "built": 4936,
      "stepped": 4937,
      "closet": 4938,
      "paint": 4939,
      "obsession": 4940,
      "compens": 4941,
      "prior": 4942,
      "prize": 4943,
      "admir": 4944,
      "cale": 4945,
      "valent": 4946,
      "musical": 4947,
      "nostalgia": 4948,
      "uncertainty": 4949,
      "addic": 4950,
      "wearily": 4951,
      "healing": 4952,
      "continually": 4953,
      "slu": 4954,
      "sooner": 4955,
      "airport": 4956,
      "imagining": 4957,
      "breakfast": 4958,
      "lauren": 4959,
      "latest": 4960,
      "queen": 4961,
      "mentioning": 4962,
      "tempted": 4963,
      "promotion": 4964,
      "developer": 4965,
      "prayer": 4966,
      "intense": 4967,
      "answering": 4968,
      "determination": 4969,
      "flipped": 4970,
      "papers": 4971,
      "developed": 4972,
      "jumping": 4973,
      "presenting": 4974,
      "nik": 4975,
      "increase": 4976,
      "regards": 4977,
      "agreement": 4978,
      "pushing": 4979,
      "twitch": 4980,
      "placed": 4981,
      "profess": 4982,
      "flashback": 4983,
      "creeps": 4984,
      "schedul": 4985,
      "scary": 4986,
      "sucks": 4987,
      "management": 4988,
      "designers": 4989,
      "affected": 4990,
      "neighbors": 4991,
      "giggle": 4992,
      "jerked": 4993,
      "campaign": 4994,
      "crowd": 4995,
      "patients": 4996,
      "details": 4997,
      "constructivism": 4998,
      "retrospect": 4999,
      "glycerin": 5000,
      "dessert": 5001,
      "bottom": 5002,
      "crashing": 5003,
      "revealed": 5004,
      "slept": 5005,
      "motors": 5006,
      "police": 5007,
      "global": 5008,
      "savage": 5009,
      "swoons": 5010,
      "portrayal": 5011,
      "preparing": 5012,
      "revenge": 5013,
      "europe": 5014,
      "purchase": 5015,
      "clinic": 5016,
      "thoroughly": 5017,
      "brows": 5018,
      "delivery": 5019,
      "capacity": 5020,
      "dvd": 5021,
      "lurking": 5022,
      "according": 5023,
      "arcade": 5024,
      "obstacles": 5025,
      "concept": 5026,
      "quantities": 5027,
      "difficulty": 5028,
      "scientists": 5029,
      "nasty": 5030,
      "stimulating": 5031,
      "chicago": 5032,
      "weirdo": 5033,
      "gallery": 5034,
      "erratic": 5035,
      "aver": 5036,
      "apathetic": 5037,
      "awards": 5038,
      "bf": 5039,
      "bout": 5040,
      "biz": 5041,
      "dust": 5042,
      "fare": 5043,
      "fate": 5044,
      "font": 5045,
      "gage": 5046,
      "gather": 5047,
      "hint": 5048,
      "hating": 5049,
      "hilar": 5050,
      "kne": 5051,
      "lou": 5052,
      "lashes": 5053,
      "muse": 5054,
      "mast": 5055,
      "omy": 5056,
      "pm": 5057,
      "pip": 5058,
      "patient": 5059,
      "rite": 5060,
      "rising": 5061,
      "sab": 5062,
      "scri": 5063,
      "snap": 5064,
      "tread": 5065,
      "tiness": 5066,
      "tasks": 5067,
      "waf": 5068,
      "zing": 5069,
      "thir": 5070,
      "injustice": 5071,
      "elet": 5072,
      "fet": 5073,
      "reacting": 5074,
      "thed": 5075,
      "toes": 5076,
      "toler": 5077,
      "enced": 5078,
      "enthus": 5079,
      "stature": 5080,
      "alex": 5081,
      "meter": 5082,
      "ley": 5083,
      "sold": 5084,
      "lif": 5085,
      "whim": 5086,
      "keys": 5087,
      "sey": 5088,
      "chin": 5089,
      "chip": 5090,
      "chances": 5091,
      "china": 5092,
      "ami": 5093,
      "verses": 5094,
      "lover": 5095,
      "wicked": 5096,
      "forth": 5097,
      "aced": 5098,
      "holy": 5099,
      "rian": 5100,
      "unwanted": 5101,
      "unemploy": 5102,
      "enty": 5103,
      "mode": 5104,
      "youth": 5105,
      "dot": 5106,
      "consum": 5107,
      "pret": 5108,
      "ender": 5109,
      "endure": 5110,
      "cope": 5111,
      "cooperation": 5112,
      "exhibit": 5113,
      "pois": 5114,
      "potat": 5115,
      "percep": 5116,
      "evol": 5117,
      "whoever": 5118,
      "plenty": 5119,
      "quit": 5120,
      "grin": 5121,
      "tick": 5122,
      "bob": 5123,
      "boast": 5124,
      "meds": 5125,
      "disorder": 5126,
      "seek": 5127,
      "mud": 5128,
      "proced": 5129,
      "thanked": 5130,
      "earn": 5131,
      "wrapped": 5132,
      "happier": 5133,
      "ucin": 5134,
      "shaking": 5135,
      "believed": 5136,
      "choir": 5137,
      "newsp": 5138,
      "newtown": 5139,
      "context": 5140,
      "impending": 5141,
      "stream": 5142,
      "desk": 5143,
      "wowed": 5144,
      "iest": 5145,
      "homework": 5146,
      "crunch": 5147,
      "jection": 5148,
      "studi": 5149,
      "lightly": 5150,
      "lightmeter": 5151,
      "duce": 5152,
      "rush": 5153,
      "torn": 5154,
      "childish": 5155,
      "sinking": 5156,
      "satan": 5157,
      "phen": 5158,
      "giant": 5159,
      "hardcore": 5160,
      "closing": 5161,
      "excell": 5162,
      "exciting": 5163,
      "brew": 5164,
      "dressed": 5165,
      "threw": 5166,
      "pained": 5167,
      "object": 5168,
      "observ": 5169,
      "guessing": 5170,
      "cheap": 5171,
      "hears": 5172,
      "border": 5173,
      "readings": 5174,
      "classic": 5175,
      "waits": 5176,
      "ddling": 5177,
      "resenting": 5178,
      "craves": 5179,
      "planned": 5180,
      "visitor": 5181,
      "fallen": 5182,
      "ficial": 5183,
      "gratefulness": 5184,
      "lication": 5185,
      "boyfriends": 5186,
      "respecting": 5187,
      "basis": 5188,
      "basic": 5189,
      "juli": 5190,
      "juice": 5191,
      "differently": 5192,
      "followed": 5193,
      "followers": 5194,
      "mainly": 5195,
      "christchurch": 5196,
      "fitch": 5197,
      "swath": 5198,
      "driven": 5199,
      "offering": 5200,
      "scad": 5201,
      "covering": 5202,
      "equation": 5203,
      "umn": 5204,
      "expression": 5205,
      "hyper": 5206,
      "laughed": 5207,
      "teenagers": 5208,
      "disturb": 5209,
      "lux": 5210,
      "powerless": 5211,
      "exception": 5212,
      "worrying": 5213,
      "washroom": 5214,
      "rolling": 5215,
      "belonging": 5216,
      "loads": 5217,
      "harsh": 5218,
      "feedback": 5219,
      "connecting": 5220,
      "educated": 5221,
      "attempting": 5222,
      "racing": 5223,
      "responsibility": 5224,
      "drinks": 5225,
      "graphic": 5226,
      "patri": 5227,
      "copies": 5228,
      "frequency": 5229,
      "cupcake": 5230,
      "elderly": 5231,
      "nurse": 5232,
      "shield": 5233,
      "combination": 5234,
      "financially": 5235,
      "anticipation": 5236,
      "fulfilling": 5237,
      "minority": 5238,
      "comforted": 5239,
      "ffed": 5240,
      "individuals": 5241,
      "drug": 5242,
      "patience": 5243,
      "pale": 5244,
      "storm": 5245,
      "source": 5246,
      "sprit": 5247,
      "introduce": 5248,
      "publishing": 5249,
      "cherished": 5250,
      "traditional": 5251,
      "distinct": 5252,
      "conservative": 5253,
      "australians": 5254,
      "british": 5255,
      "demons": 5256,
      "resonate": 5257,
      "compliment": 5258,
      "circumstances": 5259,
      "caffeine": 5260,
      "fruits": 5261,
      "tourist": 5262,
      "submit": 5263,
      "architectural": 5264,
      "encouraging": 5265,
      "phrase": 5266,
      "inflated": 5267,
      "suffered": 5268,
      "conclusion": 5269,
      "restaurant": 5270,
      "average": 5271,
      "treadmill": 5272,
      "procedure": 5273,
      "bill": 5274,
      "bour": 5275,
      "cd": 5276,
      "cit": 5277,
      "cated": 5278,
      "dge": 5279,
      "ese": 5280,
      "fb": 5281,
      "hence": 5282,
      "hanna": 5283,
      "jack": 5284,
      "lust": 5285,
      "laid": 5286,
      "mall": 5287,
      "mous": 5288,
      "ox": 5289,
      "otic": 5290,
      "ram": 5291,
      "rant": 5292,
      "sche": 5293,
      "tin": 5294,
      "tan": 5295,
      "tro": 5296,
      "tang": 5297,
      "tween": 5298,
      "task": 5299,
      "ux": 5300,
      "vase": 5301,
      "wder": 5302,
      "wright": 5303,
      "xx": 5304,
      "yo": 5305,
      "thick": 5306,
      "info": 5307,
      "income": 5308,
      "elses": 5309,
      "anced": 5310,
      "reactions": 5311,
      "tober": 5312,
      "erm": 5313,
      "ende": 5314,
      "ali": 5315,
      "alized": 5316,
      "messed": 5317,
      "ased": 5318,
      "ases": 5319,
      "besides": 5320,
      "arre": 5321,
      "vey": 5322,
      "veget": 5323,
      "som": 5324,
      "nosy": 5325,
      "sets": 5326,
      "impossible": 5327,
      "imposed": 5328,
      "loaded": 5329,
      "wipe": 5330,
      "wifi": 5331,
      "outcome": 5332,
      "acelet": 5333,
      "adf": 5334,
      "adult": 5335,
      "adore": 5336,
      "adapt": 5337,
      "hoo": 5338,
      "wee": 5339,
      "dose": 5340,
      "docs": 5341,
      "notes": 5342,
      "newest": 5343,
      "ppines": 5344,
      "dee": 5345,
      "declined": 5346,
      "ivered": 5347,
      "compet": 5348,
      "poll": 5349,
      "powers": 5350,
      "powder": 5351,
      "overworked": 5352,
      "makeup": 5353,
      "everybody": 5354,
      "diss": 5355,
      "disaster": 5356,
      "items": 5357,
      "princess": 5358,
      "needle": 5359,
      "aff": 5360,
      "afford": 5361,
      "affirm": 5362,
      "lower": 5363,
      "application": 5364,
      "relented": 5365,
      "surely": 5366,
      "sition": 5367,
      "creating": 5368,
      "failing": 5369,
      "whereas": 5370,
      "parties": 5371,
      "clue": 5372,
      "designed": 5373,
      "bracelet": 5374,
      "crated": 5375,
      "oped": 5376,
      "akin": 5377,
      "lights": 5378,
      "tutor": 5379,
      "lists": 5380,
      "listed": 5381,
      "handsome": 5382,
      "decade": 5383,
      "wallow": 5384,
      "mia": 5385,
      "mihm": 5386,
      "delivered": 5387,
      "refle": 5388,
      "marke": 5389,
      "cks": 5390,
      "bution": 5391,
      "drank": 5392,
      "pushed": 5393,
      "clothing": 5394,
      "clock": 5395,
      "solve": 5396,
      "cheese": 5397,
      "complications": 5398,
      "sleepy": 5399,
      "prick": 5400,
      "ames": 5401,
      "wears": 5402,
      "emptiness": 5403,
      "double": 5404,
      "max": 5405,
      "falls": 5406,
      "positively": 5407,
      "damage": 5408,
      "higher": 5409,
      "eaten": 5410,
      "reminding": 5411,
      "spoke": 5412,
      "wins": 5413,
      "weekends": 5414,
      "colleagues": 5415,
      "exhausting": 5416,
      "counter": 5417,
      "foods": 5418,
      "superficial": 5419,
      "avors": 5420,
      "avail": 5421,
      "switch": 5422,
      "swarming": 5423,
      "spiel": 5424,
      "hunt": 5425,
      "university": 5426,
      "exams": 5427,
      "grounded": 5428,
      "devastating": 5429,
      "tightly": 5430,
      "isolation": 5431,
      "siren": 5432,
      "october": 5433,
      "lola": 5434,
      "grandfather": 5435,
      "intentions": 5436,
      "groups": 5437,
      "figured": 5438,
      "politic": 5439,
      "belongs": 5440,
      "aimless": 5441,
      "seasons": 5442,
      "oddly": 5443,
      "intelligence": 5444,
      "chap": 5445,
      "risks": 5446,
      "organised": 5447,
      "sandwi": 5448,
      "psychological": 5449,
      "motivation": 5450,
      "straightforward": 5451,
      "baths": 5452,
      "reciting": 5453,
      "clubbing": 5454,
      "grief": 5455,
      "accessory": 5456,
      "acceptance": 5457,
      "blessing": 5458,
      "transp": 5459,
      "critic": 5460,
      "academy": 5461,
      "examples": 5462,
      "recognised": 5463,
      "homely": 5464,
      "variety": 5465,
      "false": 5466,
      "giggly": 5467,
      "consistent": 5468,
      "osity": 5469,
      "amongst": 5470,
      "polish": 5471,
      "birds": 5472,
      "kuya": 5473,
      "thomas": 5474,
      "flawless": 5475,
      "recipe": 5476,
      "twins": 5477,
      "yardage": 5478,
      "initial": 5479,
      "validation": 5480,
      "attacks": 5481,
      "square": 5482,
      "abandoned": 5483,
      "hsps": 5484,
      "require": 5485,
      "corrected": 5486,
      "climbed": 5487,
      "teeth": 5488,
      "attending": 5489,
      "demographic": 5490,
      "anime": 5491,
      "chicken": 5492,
      "primer": 5493,
      "beliefs": 5494,
      "proclaiming": 5495,
      "dignity": 5496,
      "collar": 5497,
      "pagetitle": 5498,
      "district": 5499,
      "adults": 5500,
      "indication": 5501,
      "structure": 5502,
      "philippines": 5503,
      "resources": 5504,
      "paralysis": 5505,
      "hollywood": 5506,
      "rewarding": 5507,
      "weapons": 5508,
      "consecrated": 5509,
      "heartedly": 5510,
      "slumber": 5511,
      "developers": 5512,
      "bizarre": 5513,
      "poisoned": 5514,
      "potatoes": 5515,
      "excellent": 5516,
      "citiz": 5517,
      "available": 5518,
      "aut": 5519,
      "aust": 5520,
      "bell": 5521,
      "bang": 5522,
      "bible": 5523,
      "bones": 5524,
      "backed": 5525,
      "ctic": 5526,
      "cket": 5527,
      "dnt": 5528,
      "dresses": 5529,
      "eck": 5530,
      "gles": 5531,
      "juni": 5532,
      "jazz": 5533,
      "ko": 5534,
      "kin": 5535,
      "lapping": 5536,
      "mirr": 5537,
      "mset": 5538,
      "masters": 5539,
      "nour": 5540,
      "pit": 5541,
      "pure": 5542,
      "packed": 5543,
      "ron": 5544,
      "ral": 5545,
      "sig": 5546,
      "tel": 5547,
      "tab": 5548,
      "tac": 5549,
      "tant": 5550,
      "tastic": 5551,
      "uary": 5552,
      "vort": 5553,
      "wrest": 5554,
      "wrist": 5555,
      "xel": 5556,
      "inn": 5557,
      "intr": 5558,
      "inated": 5559,
      "inev": 5560,
      "indeed": 5561,
      "elic": 5562,
      "anne": 5563,
      "feef": 5564,
      "revul": 5565,
      "repair": 5566,
      "theme": 5567,
      "attain": 5568,
      "toss": 5569,
      "staff": 5570,
      "itment": 5571,
      "itched": 5572,
      "alge": 5573,
      "meals": 5574,
      "memset": 5575,
      "lege": 5576,
      "lered": 5577,
      "sep": 5578,
      "secure": 5579,
      "chill": 5580,
      "ama": 5581,
      "ams": 5582,
      "ambul": 5583,
      "los": 5584,
      "loser": 5585,
      "abber": 5586,
      "escap": 5587,
      "wid": 5588,
      "utral": 5589,
      "acle": 5590,
      "oma": 5591,
      "sust": 5592,
      "address": 5593,
      "hog": 5594,
      "hook": 5595,
      "hobic": 5596,
      "ril": 5597,
      "wered": 5598,
      "irate": 5599,
      "peice": 5600,
      "neva": 5601,
      "neutral": 5602,
      "consul": 5603,
      "confront": 5604,
      "contempl": 5605,
      "prevent": 5606,
      "endid": 5607,
      "worn": 5608,
      "worship": 5609,
      "agent": 5610,
      "cow": 5611,
      "usively": 5612,
      "urgency": 5613,
      "perce": 5614,
      "permal": 5615,
      "percieve": 5616,
      "overcome": 5617,
      "overtake": 5618,
      "cting": 5619,
      "theyd": 5620,
      "essence": 5621,
      "pled": 5622,
      "plug": 5623,
      "gras": 5624,
      "grass": 5625,
      "bott": 5626,
      "ards": 5627,
      "eted": 5628,
      "meditating": 5629,
      "tests": 5630,
      "disbelieving": 5631,
      "dip": 5632,
      "diversity": 5633,
      "diapers": 5634,
      "prone": 5635,
      "guild": 5636,
      "earning": 5637,
      "cured": 5638,
      "raised": 5639,
      "stolen": 5640,
      "autom": 5641,
      "reli": 5642,
      "joie": 5643,
      "goods": 5644,
      "survi": 5645,
      "greed": 5646,
      "tale": 5647,
      "tales": 5648,
      "choke": 5649,
      "shock": 5650,
      "shops": 5651,
      "logist": 5652,
      "realness": 5653,
      "angels": 5654,
      "wondered": 5655,
      "blabber": 5656,
      "desir": 5657,
      "despair": 5658,
      "herent": 5659,
      "homes": 5660,
      "forest": 5661,
      "carthy": 5662,
      "tense": 5663,
      "undertaking": 5664,
      "jewel": 5665,
      "options": 5666,
      "tains": 5667,
      "syn": 5668,
      "preschool": 5669,
      "rules": 5670,
      "blogspot": 5671,
      "sati": 5672,
      "handful": 5673,
      "confusion": 5674,
      "horse": 5675,
      "generated": 5676,
      "accepting": 5677,
      "markets": 5678,
      "begging": 5679,
      "drake": 5680,
      "tribut": 5681,
      "harden": 5682,
      "obtain": 5683,
      "incor": 5684,
      "differ": 5685,
      "roommate": 5686,
      "admitted": 5687,
      "curities": 5688,
      "charmed": 5689,
      "calmed": 5690,
      "burnt": 5691,
      "wished": 5692,
      "mercy": 5693,
      "pasta": 5694,
      "biggest": 5695,
      "ultimately": 5696,
      "identity": 5697,
      "committed": 5698,
      "visited": 5699,
      "mai": 5700,
      "skinny": 5701,
      "misunderstood": 5702,
      "rollered": 5703,
      "tones": 5704,
      "seemingly": 5705,
      "leads": 5706,
      "humanize": 5707,
      "disgusting": 5708,
      "balancing": 5709,
      "capital": 5710,
      "factory": 5711,
      "riders": 5712,
      "hunger": 5713,
      "tempor": 5714,
      "larger": 5715,
      "snapping": 5716,
      "countless": 5717,
      "corner": 5718,
      "praying": 5719,
      "prayed": 5720,
      "searching": 5721,
      "questioning": 5722,
      "sensational": 5723,
      "roller": 5724,
      "neuropathy": 5725,
      "raphael": 5726,
      "deny": 5727,
      "drawing": 5728,
      "weaknes": 5729,
      "warn": 5730,
      "previously": 5731,
      "property": 5732,
      "balls": 5733,
      "sandblog": 5734,
      "existed": 5735,
      "label": 5736,
      "radi": 5737,
      "immediate": 5738,
      "celebration": 5739,
      "yefo": 5740,
      "depressing": 5741,
      "central": 5742,
      "ladies": 5743,
      "sorrows": 5744,
      "cravings": 5745,
      "medicated": 5746,
      "bonka": 5747,
      "behaviors": 5748,
      "directions": 5749,
      "guts": 5750,
      "splendid": 5751,
      "montagues": 5752,
      "communication": 5753,
      "knitting": 5754,
      "heaviness": 5755,
      "assistance": 5756,
      "introduc": 5757,
      "eggs": 5758,
      "convention": 5759,
      "pedest": 5760,
      "trauma": 5761,
      "traumatic": 5762,
      "policy": 5763,
      "humility": 5764,
      "nutr": 5765,
      "nuts": 5766,
      "predictable": 5767,
      "explore": 5768,
      "australia": 5769,
      "whispered": 5770,
      "sharp": 5771,
      "original": 5772,
      "hallucin": 5773,
      "cramping": 5774,
      "legitimately": 5775,
      "pampered": 5776,
      "humbled": 5777,
      "battle": 5778,
      "consumer": 5779,
      "satisfaction": 5780,
      "candy": 5781,
      "nagalene": 5782,
      "tackling": 5783,
      "inspiration": 5784,
      "adopting": 5785,
      "performing": 5786,
      "practically": 5787,
      "fascination": 5788,
      "mccarthy": 5789,
      "electric": 5790,
      "dryers": 5791,
      "rabbits": 5792,
      "stellarium": 5793,
      "organization": 5794,
      "multi": 5795,
      "unreasonable": 5796,
      "fetish": 5797,
      "unemployed": 5798,
      "spritzer": 5799,
      "marketing": 5800,
      "transparent": 5801,
      "ecker": 5802,
      "junior": 5803,
      "nourished": 5804,
      "vortex": 5805,
      "inevit": 5806,
      "elicits": 5807,
      "feefyefo": 5808,
      "revulsion": 5809,
      "algebra": 5810,
      "permalink": 5811,
      "automation": 5812,
      "jewelry": 5813,
      "weaknesses": 5814,
      "ape": 5815,
      "award": 5816,
      "bate": 5817,
      "cis": 5818,
      "cine": 5819,
      "dates": 5820,
      "eh": 5821,
      "fid": 5822,
      "gid": 5823,
      "gie": 5824,
      "hits": 5825,
      "iya": 5826,
      "junk": 5827,
      "kah": 5828,
      "lj": 5829,
      "ls": 5830,
      "lor": 5831,
      "lis": 5832,
      "mm": 5833,
      "mn": 5834,
      "mant": 5835,
      "nup": 5836,
      "nations": 5837,
      "narr": 5838,
      "pill": 5839,
      "phas": 5840,
      "pulse": 5841,
      "rated": 5842,
      "scale": 5843,
      "swallow": 5844,
      "tut": 5845,
      "taught": 5846,
      "tsun": 5847,
      "vagu": 5848,
      "wl": 5849,
      "wan": 5850,
      "wat": 5851,
      "ware": 5852,
      "winced": 5853,
      "warri": 5854,
      "yuu": 5855,
      "zen": 5856,
      "thumb": 5857,
      "ini": 5858,
      "inability": 5859,
      "infection": 5860,
      "insati": 5861,
      "ingred": 5862,
      "reid": 5863,
      "remo": 5864,
      "refr": 5865,
      "refre": 5866,
      "replace": 5867,
      "revel": 5868,
      "request": 5869,
      "rejection": 5870,
      "onco": 5871,
      "enor": 5872,
      "endo": 5873,
      "encount": 5874,
      "sted": 5875,
      "stated": 5876,
      "station": 5877,
      "stack": 5878,
      "iter": 5879,
      "orci": 5880,
      "ordered": 5881,
      "orcis": 5882,
      "mere": 5883,
      "iso": 5884,
      "isra": 5885,
      "assess": 5886,
      "leaning": 5887,
      "arrow": 5888,
      "vet": 5889,
      "veins": 5890,
      "soever": 5891,
      "soak": 5892,
      "sooooo": 5893,
      "noah": 5894,
      "sees": 5895,
      "seren": 5896,
      "immer": 5897,
      "imony": 5898,
      "impolite": 5899,
      "chet": 5900,
      "aming": 5901,
      "tie": 5902,
      "tiven": 5903,
      "tials": 5904,
      "lore": 5905,
      "outgoing": 5906,
      "forgetting": 5907,
      "acuse": 5908,
      "sures": 5909,
      "suff": 5910,
      "ado": 5911,
      "advert": 5912,
      "administr": 5913,
      "unmotivated": 5914,
      "unrewarding": 5915,
      "heater": 5916,
      "doors": 5917,
      "ica": 5918,
      "ici": 5919,
      "ican": 5920,
      "rome": 5921,
      "neys": 5922,
      "ulated": 5923,
      "tering": 5924,
      "debt": 5925,
      "deem": 5926,
      "destruc": 5927,
      "detox": 5928,
      "condu": 5929,
      "premature": 5930,
      "upside": 5931,
      "update": 5932,
      "ples": 5933,
      "wayne": 5934,
      "bya": 5935,
      "agger": 5936,
      "frapp": 5937,
      "frank": 5938,
      "coaster": 5939,
      "trash": 5940,
      "comedy": 5941,
      "compromised": 5942,
      "canad": 5943,
      "url": 5944,
      "whatsoever": 5945,
      "overhearing": 5946,
      "essential": 5947,
      "plat": 5948,
      "gray": 5949,
      "boat": 5950,
      "beings": 5951,
      "everytime": 5952,
      "disco": 5953,
      "dishes": 5954,
      "disrespected": 5955,
      "disagree": 5956,
      "disappear": 5957,
      "disapprove": 5958,
      "disappeared": 5959,
      "seeking": 5960,
      "muddling": 5961,
      "prove": 5962,
      "prospect": 5963,
      "provoc": 5964,
      "proceed": 5965,
      "dia": 5966,
      "needlessly": 5967,
      "ishes": 5968,
      "saved": 5969,
      "footing": 5970,
      "wrink": 5971,
      "cumb": 5972,
      "cudnt": 5973,
      "happily": 5974,
      "bleed": 5975,
      "stored": 5976,
      "relent": 5977,
      "releas": 5978,
      "yearning": 5979,
      "rights": 5980,
      "talent": 5981,
      "throne": 5982,
      "shook": 5983,
      "manip": 5984,
      "contained": 5985,
      "controlled": 5986,
      "mormon": 5987,
      "fahad": 5988,
      "kindness": 5989,
      "parti": 5990,
      "cling": 5991,
      "blink": 5992,
      "downright": 5993,
      "wot": 5994,
      "wow": 5995,
      "brag": 5996,
      "carni": 5997,
      "frens": 5998,
      "dubya": 5999,
      "rum": 6000,
      "torture": 6001,
      "monster": 6002,
      "generations": 6003,
      "decent": 6004,
      "miya": 6005,
      "coupled": 6006,
      "march": 6007,
      "vocal": 6008,
      "bush": 6009,
      "bubble": 6010,
      "trigon": 6011,
      "playroom": 6012,
      "playwright": 6013,
      "pump": 6014,
      "bedroom": 6015,
      "column": 6016,
      "april": 6017,
      "skele": 6018,
      "realization": 6019,
      "singing": 6020,
      "showcase": 6021,
      "stops": 6022,
      "slightest": 6023,
      "norma": 6024,
      "curtains": 6025,
      "charred": 6026,
      "charity": 6027,
      "ashi": 6028,
      "muscle": 6029,
      "ultimate": 6030,
      "uncertainties": 6031,
      "tremend": 6032,
      "doub": 6033,
      "insecurities": 6034,
      "givings": 6035,
      "skinner": 6036,
      "begins": 6037,
      "travell": 6038,
      "cases": 6039,
      "connectic": 6040,
      "succumb": 6041,
      "highschool": 6042,
      "disappointment": 6043,
      "bands": 6044,
      "steady": 6045,
      "leading": 6046,
      "moods": 6047,
      "burdens": 6048,
      "network": 6049,
      "stressful": 6050,
      "screwed": 6051,
      "sisters": 6052,
      "darkness": 6053,
      "speculation": 6054,
      "examination": 6055,
      "devote": 6056,
      "fortunately": 6057,
      "itution": 6058,
      "adventures": 6059,
      "promise": 6060,
      "fighter": 6061,
      "occup": 6062,
      "flies": 6063,
      "smells": 6064,
      "production": 6065,
      "ounced": 6066,
      "harmon": 6067,
      "transform": 6068,
      "complaints": 6069,
      "rapid": 6070,
      "contract": 6071,
      "weakness": 6072,
      "educational": 6073,
      "risk": 6074,
      "boots": 6075,
      "necessity": 6076,
      "floating": 6077,
      "traveling": 6078,
      "racist": 6079,
      "authority": 6080,
      "hanging": 6081,
      "performed": 6082,
      "psychotic": 6083,
      "articles": 6084,
      "involves": 6085,
      "fields": 6086,
      "windows": 6087,
      "domin": 6088,
      "crossing": 6089,
      "focusing": 6090,
      "griev": 6091,
      "engine": 6092,
      "bundle": 6093,
      "nursing": 6094,
      "cauti": 6095,
      "concentrating": 6096,
      "reports": 6097,
      "bounce": 6098,
      "annel": 6099,
      "moistur": 6100,
      "obligated": 6101,
      "obligation": 6102,
      "fulfilled": 6103,
      "fingernails": 6104,
      "sessions": 6105,
      "cheerleader": 6106,
      "prepare": 6107,
      "bowl": 6108,
      "suggested": 6109,
      "mistakes": 6110,
      "montana": 6111,
      "yelling": 6112,
      "screenwriter": 6113,
      "kai": 6114,
      "landscape": 6115,
      "benefits": 6116,
      "flaws": 6117,
      "detail": 6118,
      "cozy": 6119,
      "maternal": 6120,
      "emails": 6121,
      "dramatic": 6122,
      "influence": 6123,
      "pounds": 6124,
      "graduation": 6125,
      "snobbish": 6126,
      "distinctly": 6127,
      "conservatory": 6128,
      "indulge": 6129,
      "carrying": 6130,
      "handedly": 6131,
      "robert": 6132,
      "roberto": 6133,
      "heavenly": 6134,
      "scratch": 6135,
      "vanilla": 6136,
      "vivre": 6137,
      "legitimate": 6138,
      "ometry": 6139,
      "yyy": 6140,
      "adoration": 6141,
      "sparkle": 6142,
      "familiarity": 6143,
      "confirm": 6144,
      "ministry": 6145,
      "relatives": 6146,
      "measure": 6147,
      "hangover": 6148,
      "select": 6149,
      "bridge": 6150,
      "participate": 6151,
      "convenience": 6152,
      "surprisingly": 6153,
      "bombsite": 6154,
      "glimpse": 6155,
      "suicide": 6156,
      "clouds": 6157,
      "blonde": 6158,
      "compensated": 6159,
      "wafts": 6160,
      "consumers": 6161,
      "studio": 6162,
      "observant": 6163,
      "borders": 6164,
      "exceptionally": 6165,
      "complimented": 6166,
      "endeavors": 6167,
      "sandwich": 6168,
      "citizen": 6169,
      "mirror": 6170,
      "tossing": 6171,
      "ambulance": 6172,
      "escaping": 6173,
      "width": 6174,
      "sensationalist": 6175,
      "pedestrian": 6176,
      "nuptials": 6177,
      "tutee": 6178,
      "tsunami": 6179,
      "vaguely": 6180,
      "yuuki": 6181,
      "ingredi": 6182,
      "encountered": 6183,
      "israel": 6184,
      "serenity": 6185,
      "tiveness": 6186,
      "suffici": 6187,
      "miyavi": 6188,
      "trigonometry": 6189,
      "skeleton": 6190,
      "connecticut": 6191,
      "bound": 6192,
      "ccs": 6193,
      "dreading": 6194,
      "dash": 6195,
      "een": 6196,
      "eul": 6197,
      "eag": 6198,
      "eur": 6199,
      "gamer": 6200,
      "gender": 6201,
      "ix": 6202,
      "iever": 6203,
      "jay": 6204,
      "jun": 6205,
      "jaw": 6206,
      "lam": 6207,
      "mac": 6208,
      "mare": 6209,
      "mers": 6210,
      "maker": 6211,
      "nig": 6212,
      "native": 6213,
      "narrow": 6214,
      "oli": 6215,
      "oly": 6216,
      "oily": 6217,
      "oils": 6218,
      "obey": 6219,
      "pc": 6220,
      "pus": 6221,
      "ratt": 6222,
      "rital": 6223,
      "raste": 6224,
      "sch": 6225,
      "swi": 6226,
      "shad": 6227,
      "tast": 6228,
      "tary": 6229,
      "ud": 6230,
      "urious": 6231,
      "uber": 6232,
      "vation": 6233,
      "ws": 6234,
      "xual": 6235,
      "yay": 6236,
      "yall": 6237,
      "zomb": 6238,
      "incoming": 6239,
      "inju": 6240,
      "inherent": 6241,
      "elated": 6242,
      "ress": 6243,
      "recre": 6244,
      "reck": 6245,
      "remark": 6246,
      "atose": 6247,
      "tossed": 6248,
      "erd": 6249,
      "stash": 6250,
      "itive": 6251,
      "itled": 6252,
      "alco": 6253,
      "alright": 6254,
      "alias": 6255,
      "mesh": 6256,
      "metal": 6257,
      "isation": 6258,
      "island": 6259,
      "lemon": 6260,
      "arant": 6261,
      "vegan": 6262,
      "lily": 6263,
      "seal": 6264,
      "seatt": 6265,
      "sewing": 6266,
      "tible": 6267,
      "loose": 6268,
      "loop": 6269,
      "loathe": 6270,
      "wierd": 6271,
      "former": 6272,
      "idk": 6273,
      "accent": 6274,
      "accusto": 6275,
      "sue": 6276,
      "ads": 6277,
      "adays": 6278,
      "adraste": 6279,
      "hover": 6280,
      "unlike": 6281,
      "unusually": 6282,
      "unexpected": 6283,
      "unease": 6284,
      "unwillingly": 6285,
      "entries": 6286,
      "moaning": 6287,
      "geek": 6288,
      "gevity": 6289,
      "notting": 6290,
      "cafe": 6291,
      "irky": 6292,
      "antiso": 6293,
      "pear": 6294,
      "nowadays": 6295,
      "nemo": 6296,
      "ppers": 6297,
      "det": 6298,
      "dew": 6299,
      "conside": 6300,
      "shrug": 6301,
      "arer": 6302,
      "cock": 6303,
      "comatose": 6304,
      "excl": 6305,
      "usable": 6306,
      "poem": 6307,
      "perfu": 6308,
      "induc": 6309,
      "india": 6310,
      "littered": 6311,
      "overcoming": 6312,
      "ttest": 6313,
      "evo": 6314,
      "stry": 6315,
      "stride": 6316,
      "quirky": 6317,
      "spac": 6318,
      "spazz": 6319,
      "oka": 6320,
      "disconnect": 6321,
      "disconnected": 6322,
      "mbl": 6323,
      "gump": 6324,
      "guarant": 6325,
      "fog": 6326,
      "rail": 6327,
      "automat": 6328,
      "applying": 6329,
      "relatively": 6330,
      "tings": 6331,
      "tingle": 6332,
      "goodness": 6333,
      "fist": 6334,
      "fierce": 6335,
      "osexual": 6336,
      "believer": 6337,
      "greys": 6338,
      "shoved": 6339,
      "shoot": 6340,
      "sites": 6341,
      "morally": 6342,
      "issants": 6343,
      "persona": 6344,
      "realising": 6345,
      "realistic": 6346,
      "angle": 6347,
      "paris": 6348,
      "downs": 6349,
      "downstairs": 6350,
      "wore": 6351,
      "ceptible": 6352,
      "freaked": 6353,
      "standards": 6354,
      "trend": 6355,
      "pressures": 6356,
      "nightmare": 6357,
      "ipated": 6358,
      "tube": 6359,
      "tutori": 6360,
      "sink": 6361,
      "listened": 6362,
      "ansing": 6363,
      "pajam": 6364,
      "papam": 6365,
      "handing": 6366,
      "minent": 6367,
      "minaj": 6368,
      "resting": 6369,
      "phones": 6370,
      "bodys": 6371,
      "vores": 6372,
      "bud": 6373,
      "kenny": 6374,
      "trig": 6375,
      "trips": 6376,
      "players": 6377,
      "excel": 6378,
      "cleansing": 6379,
      "consci": 6380,
      "aphor": 6381,
      "schools": 6382,
      "ski": 6383,
      "skill": 6384,
      "skdd": 6385,
      "solved": 6386,
      "gently": 6387,
      "court": 6388,
      "curse": 6389,
      "honey": 6390,
      "interrup": 6391,
      "hurtful": 6392,
      "pressing": 6393,
      "dreamworld": 6394,
      "merous": 6395,
      "merely": 6396,
      "waving": 6397,
      "violation": 6398,
      "ultaneously": 6399,
      "longevity": 6400,
      "picking": 6401,
      "adds": 6402,
      "addy": 6403,
      "jobs": 6404,
      "folk": 6405,
      "melod": 6406,
      "stayviolation": 6407,
      "visiting": 6408,
      "numerous": 6409,
      "simultaneously": 6410,
      "embar": 6411,
      "holds": 6412,
      "insults": 6413,
      "musician": 6414,
      "darn": 6415,
      "darren": 6416,
      "gross": 6417,
      "healthier": 6418,
      "regain": 6419,
      "counsel": 6420,
      "leaders": 6421,
      "genre": 6422,
      "slowing": 6423,
      "drown": 6424,
      "discussed": 6425,
      "metaphor": 6426,
      "describing": 6427,
      "struggles": 6428,
      "fattie": 6429,
      "itudes": 6430,
      "richness": 6431,
      "treats": 6432,
      "promp": 6433,
      "hypo": 6434,
      "occur": 6435,
      "nonstop": 6436,
      "flias": 6437,
      "flick": 6438,
      "advance": 6439,
      "fantasy": 6440,
      "tomorrows": 6441,
      "arriving": 6442,
      "souls": 6443,
      "belonged": 6444,
      "approaching": 6445,
      "emily": 6446,
      "hitler": 6447,
      "failed": 6448,
      "breaths": 6449,
      "leng": 6450,
      "warning": 6451,
      "testimony": 6452,
      "increasing": 6453,
      "labour": 6454,
      "massage": 6455,
      "crown": 6456,
      "croissants": 6457,
      "commented": 6458,
      "limited": 6459,
      "potentially": 6460,
      "creeped": 6461,
      "michael": 6462,
      "chairs": 6463,
      "mouthed": 6464,
      "bothering": 6465,
      "tranquil": 6466,
      "bungal": 6467,
      "concentrated": 6468,
      "intentionally": 6469,
      "annual": 6470,
      "luckily": 6471,
      "homosexual": 6472,
      "impression": 6473,
      "impressions": 6474,
      "heavi": 6475,
      "affects": 6476,
      "leadership": 6477,
      "bowled": 6478,
      "snacks": 6479,
      "apologise": 6480,
      "governments": 6481,
      "magn": 6482,
      "magical": 6483,
      "pursuing": 6484,
      "responded": 6485,
      "credits": 6486,
      "ville": 6487,
      "murder": 6488,
      "recipro": 6489,
      "sources": 6490,
      "corners": 6491,
      "influenced": 6492,
      "thousands": 6493,
      "abandon": 6494,
      "crashed": 6495,
      "butterflies": 6496,
      "comparing": 6497,
      "comparison": 6498,
      "correctly": 6499,
      "whisper": 6500,
      "ignoring": 6501,
      "vellas": 6502,
      "strokes": 6503,
      "fandoms": 6504,
      "unfolding": 6505,
      "confirmed": 6506,
      "mammo": 6507,
      "scott": 6508,
      "chalice": 6509,
      "permanently": 6510,
      "praise": 6511,
      "contribute": 6512,
      "granted": 6513,
      "destroyed": 6514,
      "independent": 6515,
      "susceptible": 6516,
      "erik": 6517,
      "endorsed": 6518,
      "strategy": 6519,
      "unnaturally": 6520,
      "crimin": 6521,
      "attached": 6522,
      "puzzle": 6523,
      "subtle": 6524,
      "argument": 6525,
      "costume": 6526,
      "evaluate": 6527,
      "quarrel": 6528,
      "manifest": 6529,
      "admiration": 6530,
      "nikki": 6531,
      "professor": 6532,
      "gathering": 6533,
      "hilarious": 6534,
      "enthusi": 6535,
      "perception": 6536,
      "julia": 6537,
      "luxurious": 6538,
      "patrick": 6539,
      "competition": 6540,
      "politicians": 6541,
      "wrestling": 6542,
      "attainable": 6543,
      "bottle": 6544,
      "tribute": 6545,
      "radiant": 6546,
      "giddy": 6547,
      "mantra": 6548,
      "phase": 6549,
      "refrain": 6550,
      "refreshed": 6551,
      "frankly": 6552,
      "graying": 6553,
      "carnivores": 6554,
      "moisturising": 6555,
      "ingredients": 6556,
      "eulalias": 6557,
      "olymp": 6558,
      "pushover": 6559,
      "rattled": 6560,
      "ritalin": 6561,
      "shades": 6562,
      "recreational": 6563,
      "seattle": 6564,
      "accustomed": 6565,
      "adrasteius": 6566,
      "antisocial": 6567,
      "considered": 6568,
      "shrugged": 6569,
      "exclusively": 6570,
      "automatically": 6571,
      "papamoka": 6572,
      "bungalow": 6573,
      "bc": 6574,
      "bou": 6575,
      "bhu": 6576,
      "bia": 6577,
      "bber": 6578,
      "camp": 6579,
      "dain": 6580,
      "dave": 6581,
      "eth": 6582,
      "eed": 6583,
      "easter": 6584,
      "fred": 6585,
      "fying": 6586,
      "ga": 6587,
      "gance": 6588,
      "hid": 6589,
      "ji": 6590,
      "jen": 6591,
      "jap": 6592,
      "jord": 6593,
      "james": 6594,
      "kit": 6595,
      "kar": 6596,
      "kay": 6597,
      "lli": 6598,
      "lly": 6599,
      "lane": 6600,
      "laced": 6601,
      "mun": 6602,
      "math": 6603,
      "mult": 6604,
      "nof": 6605,
      "nation": 6606,
      "nick": 6607,
      "nana": 6608,
      "oi": 6609,
      "ole": 6610,
      "och": 6611,
      "oak": 6612,
      "px": 6613,
      "pon": 6614,
      "pac": 6615,
      "pent": 6616,
      "pine": 6617,
      "piling": 6618,
      "pants": 6619,
      "passes": 6620,
      "rough": 6621,
      "rina": 6622,
      "sally": 6623,
      "sday": 6624,
      "slip": 6625,
      "snail": 6626,
      "saint": 6627,
      "tbt": 6628,
      "vom": 6629,
      "vill": 6630,
      "wand": 6631,
      "xd": 6632,
      "yk": 6633,
      "yar": 6634,
      "ygen": 6635,
      "thur": 6636,
      "inch": 6637,
      "inexc": 6638,
      "infu": 6639,
      "instruc": 6640,
      "inclined": 6641,
      "anat": 6642,
      "fed": 6643,
      "reed": 6644,
      "rebe": 6645,
      "recon": 6646,
      "reput": 6647,
      "reju": 6648,
      "reground": 6649,
      "recover": 6650,
      "represent": 6651,
      "revered": 6652,
      "recovered": 6653,
      "refresh": 6654,
      "todo": 6655,
      "edgy": 6656,
      "enclose": 6657,
      "andy": 6658,
      "stitch": 6659,
      "strolling": 6660,
      "ale": 6661,
      "alom": 6662,
      "align": 6663,
      "oris": 6664,
      "orce": 6665,
      "ision": 6666,
      "isher": 6667,
      "lest": 6668,
      "beth": 6669,
      "arro": 6670,
      "aroma": 6671,
      "myster": 6672,
      "solo": 6673,
      "liv": 6674,
      "lyman": 6675,
      "whitle": 6676,
      "nov": 6677,
      "nobu": 6678,
      "haze": 6679,
      "hachi": 6680,
      "seed": 6681,
      "ambit": 6682,
      "tile": 6683,
      "tily": 6684,
      "tigo": 6685,
      "vertigo": 6686,
      "abl": 6687,
      "abs": 6688,
      "eswar": 6689,
      "wip": 6690,
      "gho": 6691,
      "ghtily": 6692,
      "ido": 6693,
      "iders": 6694,
      "acknowledge": 6695,
      "adjective": 6696,
      "hottest": 6697,
      "rier": 6698,
      "rice": 6699,
      "riated": 6700,
      "riosity": 6701,
      "uned": 6702,
      "uncaring": 6703,
      "unfit": 6704,
      "uneasy": 6705,
      "unhealthy": 6706,
      "mob": 6707,
      "llen": 6708,
      "doc": 6709,
      "dowed": 6710,
      "gown": 6711,
      "cave": 6712,
      "anta": 6713,
      "roof": 6714,
      "ional": 6715,
      "ternal": 6716,
      "deer": 6717,
      "define": 6718,
      "prefe": 6719,
      "uper": 6720,
      "upcoming": 6721,
      "upsetting": 6722,
      "seldom": 6723,
      "reduce": 6724,
      "redund": 6725,
      "ifying": 6726,
      "trusted": 6727,
      "trapped": 6728,
      "anyones": 6729,
      "expo": 6730,
      "extension": 6731,
      "perpe": 6732,
      "oversha": 6733,
      "bite": 6734,
      "ationally": 6735,
      "strain": 6736,
      "strands": 6737,
      "whore": 6738,
      "theyve": 6739,
      "essenti": 6740,
      "plun": 6741,
      "qual": 6742,
      "grapp": 6743,
      "themed": 6744,
      "herpes": 6745,
      "ticket": 6746,
      "bold": 6747,
      "ollow": 6748,
      "evenings": 6749,
      "disci": 6750,
      "disdain": 6751,
      "asshole": 6752,
      "diy": 6753,
      "digest": 6754,
      "cies": 6755,
      "ishly": 6756,
      "cube": 6757,
      "curiosity": 6758,
      "sheet": 6759,
      "rave": 6760,
      "raids": 6761,
      "ston": 6762,
      "aud": 6763,
      "joh": 6764,
      "sons": 6765,
      "shamel": 6766,
      "yearn": 6767,
      "madness": 6768,
      "fig": 6769,
      "fiance": 6770,
      "figs": 6771,
      "newborn": 6772,
      "logan": 6773,
      "anged": 6774,
      "angmai": 6775,
      "parall": 6776,
      "cler": 6777,
      "clen": 6778,
      "clutter": 6779,
      "izz": 6780,
      "blond": 6781,
      "icky": 6782,
      "betes": 6783,
      "forefingers": 6784,
      "crat": 6785,
      "cara": 6786,
      "smack": 6787,
      "ops": 6788,
      "famous": 6789,
      "lightness": 6790,
      "worlds": 6791,
      "president": 6792,
      "senator": 6793,
      "dumped": 6794,
      "estate": 6795,
      "rushes": 6796,
      "rubble": 6797,
      "pai": 6798,
      "mondays": 6799,
      "generation": 6800,
      "mightily": 6801,
      "irrationally": 6802,
      "goddamn": 6803,
      "begged": 6804,
      "draft": 6805,
      "trial": 6806,
      "fled": 6807,
      "watches": 6808,
      "stepping": 6809,
      "excess": 6810,
      "excuses": 6811,
      "excitment": 6812,
      "broad": 6813,
      "obsess": 6814,
      "obama": 6815,
      "centre": 6816,
      "century": 6817,
      "skip": 6818,
      "incense": 6819,
      "realizing": 6820,
      "checked": 6821,
      "singapo": 6822,
      "ledang": 6823,
      "subdue": 6824,
      "subconsciously": 6825,
      "calories": 6826,
      "bestial": 6827,
      "supportiveness": 6828,
      "gervase": 6829,
      "addition": 6830,
      "believes": 6831,
      "cycling": 6832,
      "versary": 6833,
      "trusty": 6834,
      "trustworthy": 6835,
      "insecurity": 6836,
      "visual": 6837,
      "movement": 6838,
      "cript": 6839,
      "conditions": 6840,
      "viewed": 6841,
      "closest": 6842,
      "damned": 6843,
      "respectful": 6844,
      "slalom": 6845,
      "jubil": 6846,
      "spirits": 6847,
      "berry": 6848,
      "macho": 6849,
      "constitution": 6850,
      "christians": 6851,
      "tons": 6852,
      "dealt": 6853,
      "attacked": 6854,
      "summers": 6855,
      "election": 6856,
      "virgin": 6857,
      "seconds": 6858,
      "fairy": 6859,
      "punct": 6860,
      "switched": 6861,
      "desert": 6862,
      "moody": 6863,
      "spiritually": 6864,
      "gladly": 6865,
      "screw": 6866,
      "defective": 6867,
      "defensive": 6868,
      "hungover": 6869,
      "latex": 6870,
      "smiles": 6871,
      "relaxing": 6872,
      "stubbornly": 6873,
      "resulted": 6874,
      "determine": 6875,
      "extreme": 6876,
      "barrier": 6877,
      "hype": 6878,
      "insan": 6879,
      "midst": 6880,
      "nonsense": 6881,
      "appears": 6882,
      "divorce": 6883,
      "flir": 6884,
      "gracias": 6885,
      "figures": 6886,
      "binge": 6887,
      "porn": 6888,
      "portrayed": 6889,
      "washed": 6890,
      "audiences": 6891,
      "sensible": 6892,
      "types": 6893,
      "fuckin": 6894,
      "continuing": 6895,
      "socializing": 6896,
      "chambers": 6897,
      "rainbow": 6898,
      "organized": 6899,
      "techno": 6900,
      "brothers": 6901,
      "hats": 6902,
      "preferably": 6903,
      "crochet": 6904,
      "tougher": 6905,
      "catching": 6906,
      "grieve": 6907,
      "transport": 6908,
      "transition": 6909,
      "neglected": 6910,
      "checkup": 6911,
      "individually": 6912,
      "reference": 6913,
      "impressing": 6914,
      "youngest": 6915,
      "dedic": 6916,
      "castle": 6917,
      "commons": 6918,
      "splash": 6919,
      "activity": 6920,
      "quilt": 6921,
      "quilting": 6922,
      "gardening": 6923,
      "possess": 6924,
      "neglecting": 6925,
      "baneswar": 6926,
      "marketplace": 6927,
      "regularly": 6928,
      "lungs": 6929,
      "slide": 6930,
      "england": 6931,
      "recipes": 6932,
      "separate": 6933,
      "knit": 6934,
      "sams": 6935,
      "publisher": 6936,
      "flew": 6937,
      "validate": 6938,
      "cherry": 6939,
      "conflicted": 6940,
      "frown": 6941,
      "pinky": 6942,
      "slee": 6943,
      "predict": 6944,
      "digital": 6945,
      "overwhelmingly": 6946,
      "humorous": 6947,
      "washington": 6948,
      "swollen": 6949,
      "chiangmai": 6950,
      "golden": 6951,
      "piano": 6952,
      "vividly": 6953,
      "profound": 6954,
      "fireplace": 6955,
      "gunong": 6956,
      "soooo": 6957,
      "adoring": 6958,
      "fragile": 6959,
      "spark": 6960,
      "hundreds": 6961,
      "laps": 6962,
      "sanity": 6963,
      "immune": 6964,
      "adopt": 6965,
      "feminist": 6966,
      "empathize": 6967,
      "destroying": 6968,
      "conflicts": 6969,
      "independence": 6970,
      "harmful": 6971,
      "south": 6972,
      "bucks": 6973,
      "categor": 6974,
      "pangs": 6975,
      "integrated": 6976,
      "transcends": 6977,
      "toddlerhood": 6978,
      "pillow": 6979,
      "execut": 6980,
      "marginalized": 6981,
      "piped": 6982,
      "tolerate": 6983,
      "lifting": 6984,
      "whims": 6985,
      "tickles": 6986,
      "disorders": 6987,
      "objects": 6988,
      "oxygen": 6989,
      "scheme": 6990,
      "pollution": 6991,
      "affirmation": 6992,
      "reflection": 6993,
      "chapters": 6994,
      "hobica": 6995,
      "perceive": 6996,
      "grasp": 6997,
      "survived": 6998,
      "desirable": 6999,
      "nutrition": 7000,
      "electricity": 7001,
      "thumbs": 7002,
      "enormous": 7003,
      "assessment": 7004,
      "administration": 7005,
      "frappes": 7006,
      "diabetes": 7007,
      "partially": 7008,
      "travelling": 7009,
      "grieving": 7010,
      "cautious": 7011,
      "israelites": 7012,
      "taryn": 7013,
      "budget": 7014,
      "conscience": 7015,
      "bhubaneswar": 7016,
      "hidden": 7017,
      "jordan": 7018,
      "nofollow": 7019,
      "village": 7020,
      "thursday": 7021,
      "inexcusable": 7022,
      "infuriated": 7023,
      "anatomy": 7024,
      "rejuven": 7025,
      "orissa": 7026,
      "adjectives": 7027,
      "redundant": 7028,
      "overshadowed": 7029,
      "essentially": 7030,
      "digesting": 7031,
      "shameless": 7032,
      "singapore": 7033,
      "afri": 7034,
      "ahaha": 7035,
      "bah": 7036,
      "bbling": 7037,
      "cin": 7038,
      "cers": 7039,
      "cky": 7040,
      "cbc": 7041,
      "dated": 7042,
      "domen": 7043,
      "eternal": 7044,
      "fely": 7045,
      "fish": 7046,
      "fought": 7047,
      "fitting": 7048,
      "fishing": 7049,
      "ggie": 7050,
      "hond": 7051,
      "harrass": 7052,
      "hedge": 7053,
      "ipo": 7054,
      "jin": 7055,
      "jure": 7056,
      "kno": 7057,
      "kla": 7058,
      "lat": 7059,
      "lated": 7060,
      "laught": 7061,
      "lump": 7062,
      "lina": 7063,
      "mim": 7064,
      "mack": 7065,
      "muttered": 7066,
      "nash": 7067,
      "nical": 7068,
      "oom": 7069,
      "owe": 7070,
      "py": 7071,
      "pse": 7072,
      "plight": 7073,
      "paw": 7074,
      "pony": 7075,
      "rang": 7076,
      "randy": 7077,
      "scep": 7078,
      "sip": 7079,
      "sans": 7080,
      "sions": 7081,
      "sasha": 7082,
      "tly": 7083,
      "tart": 7084,
      "tap": 7085,
      "twel": 7086,
      "tissue": 7087,
      "uan": 7088,
      "ugh": 7089,
      "upper": 7090,
      "vs": 7091,
      "xmas": 7092,
      "yboy": 7093,
      "tha": 7094,
      "theless": 7095,
      "thai": 7096,
      "infe": 7097,
      "inet": 7098,
      "insensitive": 7099,
      "inspite": 7100,
      "elf": 7101,
      "annon": 7102,
      "fec": 7103,
      "inges": 7104,
      "ressed": 7105,
      "reread": 7106,
      "recess": 7107,
      "retired": 7108,
      "redeem": 7109,
      "atop": 7110,
      "attire": 7111,
      "ena": 7112,
      "enam": 7113,
      "enacting": 7114,
      "andham": 7115,
      "stad": 7116,
      "starr": 7117,
      "itary": 7118,
      "alo": 7119,
      "alic": 7120,
      "alfred": 7121,
      "orgas": 7122,
      "leandham": 7123,
      "behave": 7124,
      "behalf": 7125,
      "armor": 7126,
      "myst": 7127,
      "somed": 7128,
      "soda": 7129,
      "socks": 7130,
      "whod": 7131,
      "noti": 7132,
      "haels": 7133,
      "sect": 7134,
      "imple": 7135,
      "impractical": 7136,
      "imminent": 7137,
      "chats": 7138,
      "ayed": 7139,
      "tiring": 7140,
      "abc": 7141,
      "abdomen": 7142,
      "esp": 7143,
      "wig": 7144,
      "ute": 7145,
      "utch": 7146,
      "forum": 7147,
      "actor": 7148,
      "suits": 7149,
      "rip": 7150,
      "rior": 7151,
      "rified": 7152,
      "unfur": 7153,
      "uncles": 7154,
      "unsettled": 7155,
      "unfortunately": 7156,
      "heels": 7157,
      "mop": 7158,
      "moves": 7159,
      "molina": 7160,
      "ssy": 7161,
      "iced": 7162,
      "icatures": 7163,
      "cage": 7164,
      "roid": 7165,
      "rode": 7166,
      "roles": 7167,
      "rocious": 7168,
      "rocking": 7169,
      "neath": 7170,
      "ula": 7171,
      "oused": 7172,
      "deals": 7173,
      "conce": 7174,
      "preaching": 7175,
      "shu": 7176,
      "sher": 7177,
      "shish": 7178,
      "shannon": 7179,
      "ainability": 7180,
      "aggress": 7181,
      "agreed": 7182,
      "france": 7183,
      "fraud": 7184,
      "colo": 7185,
      "code": 7186,
      "covers": 7187,
      "coeur": 7188,
      "commo": 7189,
      "compe": 7190,
      "extend": 7191,
      "explan": 7192,
      "uscript": 7193,
      "uras": 7194,
      "powered": 7195,
      "perverse": 7196,
      "indones": 7197,
      "donning": 7198,
      "evident": 7199,
      "strings": 7200,
      "ndrome": 7201,
      "plastic": 7202,
      "quer": 7203,
      "hers": 7204,
      "spill": 7205,
      "boil": 7206,
      "boob": 7207,
      "boister": 7208,
      "wouldve": 7209,
      "etsy": 7210,
      "stillness": 7211,
      "ola": 7212,
      "dish": 7213,
      "disrespect": 7214,
      "disney": 7215,
      "disrup": 7216,
      "disadvant": 7217,
      "assed": 7218,
      "lifes": 7219,
      "prose": 7220,
      "digress": 7221,
      "vip": 7222,
      "proffers": 7223,
      "guard": 7224,
      "guiding": 7225,
      "safely": 7226,
      "intent": 7227,
      "wrapping": 7228,
      "wrung": 7229,
      "cue": 7230,
      "cubic": 7231,
      "sheep": 7232,
      "stock": 7233,
      "stoned": 7234,
      "audre": 7235,
      "histori": 7236,
      "mentality": 7237,
      "supply": 7238,
      "suppport": 7239,
      "supplied": 7240,
      "comeback": 7241,
      "joe": 7242,
      "igans": 7243,
      "werent": 7244,
      "manuscript": 7245,
      "creations": 7246,
      "nerves": 7247,
      "angsty": 7248,
      "finke": 7249,
      "finances": 7250,
      "kindly": 7251,
      "streated": 7252,
      "clam": 7253,
      "clare": 7254,
      "heartbeat": 7255,
      "cery": 7256,
      "bron": 7257,
      "bride": 7258,
      "cris": 7259,
      "cars": 7260,
      "caricatures": 7261,
      "underwears": 7262,
      "underneath": 7263,
      "jewell": 7264,
      "freely": 7265,
      "syndrome": 7266,
      "stands": 7267,
      "specially": 7268,
      "lighted": 7269,
      "awa": 7270,
      "awak": 7271,
      "awaken": 7272,
      "naive": 7273,
      "naps": 7274,
      "senpai": 7275,
      "establ": 7276,
      "rubbish": 7277,
      "torted": 7278,
      "sins": 7279,
      "listens": 7280,
      "momentarily": 7281,
      "territory": 7282,
      "minist": 7283,
      "horror": 7284,
      "missgivings": 7285,
      "deciding": 7286,
      "mistry": 7287,
      "phil": 7288,
      "irrational": 7289,
      "hump": 7290,
      "heading": 7291,
      "headphones": 7292,
      "girlfriends": 7293,
      "mindful": 7294,
      "ensional": 7295,
      "dragon": 7296,
      "offen": 7297,
      "flutter": 7298,
      "plays": 7299,
      "pushy": 7300,
      "watchers": 7301,
      "stefan": 7302,
      "veloc": 7303,
      "vellian": 7304,
      "excuse": 7305,
      "brook": 7306,
      "threes": 7307,
      "venture": 7308,
      "venue": 7309,
      "observing": 7310,
      "cheaper": 7311,
      "chemistry": 7312,
      "meantime": 7313,
      "fuel": 7314,
      "satisfactory": 7315,
      "charge": 7316,
      "tility": 7317,
      "founded": 7318,
      "bury": 7319,
      "supporters": 7320,
      "eyel": 7321,
      "iavellian": 7322,
      "violations": 7323,
      "fertility": 7324,
      "consideration": 7325,
      "considerable": 7326,
      "bitches": 7327,
      "funds": 7328,
      "differences": 7329,
      "cutting": 7330,
      "douche": 7331,
      "melt": 7332,
      "insecured": 7333,
      "mail": 7334,
      "skincare": 7335,
      "loyalty": 7336,
      "conduc": 7337,
      "lingering": 7338,
      "welcoming": 7339,
      "licity": 7340,
      "nudge": 7341,
      "stupidity": 7342,
      "ignificant": 7343,
      "embed": 7344,
      "sucking": 7345,
      "sucky": 7346,
      "damon": 7347,
      "slave": 7348,
      "slacking": 7349,
      "julie": 7350,
      "musicians": 7351,
      "parenting": 7352,
      "arrange": 7353,
      "sundays": 7354,
      "grocery": 7355,
      "machiavellian": 7356,
      "timing": 7357,
      "spoon": 7358,
      "spoil": 7359,
      "collective": 7360,
      "definately": 7361,
      "attitudes": 7362,
      "messages": 7363,
      "creativecommons": 7364,
      "element": 7365,
      "secondary": 7366,
      "husbands": 7367,
      "busines": 7368,
      "imagination": 7369,
      "formula": 7370,
      "deserved": 7371,
      "simplicity": 7372,
      "drip": 7373,
      "hunting": 7374,
      "univers": 7375,
      "cleaned": 7376,
      "lacklust": 7377,
      "deterior": 7378,
      "queer": 7379,
      "benevol": 7380,
      "truths": 7381,
      "hopelessness": 7382,
      "examine": 7383,
      "warming": 7384,
      "daisy": 7385,
      "depends": 7386,
      "sibling": 7387,
      "bias": 7388,
      "suspense": 7389,
      "alongside": 7390,
      "countries": 7391,
      "flowing": 7392,
      "hyun": 7393,
      "hymn": 7394,
      "thrill": 7395,
      "teaches": 7396,
      "insignificant": 7397,
      "prayers": 7398,
      "layer": 7399,
      "questioned": 7400,
      "teammates": 7401,
      "fluidly": 7402,
      "fluids": 7403,
      "baggage": 7404,
      "ounce": 7405,
      "directly": 7406,
      "gorgeously": 7407,
      "spotless": 7408,
      "porate": 7409,
      "avoided": 7410,
      "sensations": 7411,
      "liealic": 7412,
      "anese": 7413,
      "politely": 7414,
      "typical": 7415,
      "harmed": 7416,
      "psyched": 7417,
      "transformation": 7418,
      "translated": 7419,
      "complaint": 7420,
      "odds": 7421,
      "appropri": 7422,
      "continuous": 7423,
      "contrary": 7424,
      "denounced": 7425,
      "tape": 7426,
      "thology": 7427,
      "resolve": 7428,
      "privilege": 7429,
      "throwing": 7430,
      "chaos": 7431,
      "americans": 7432,
      "rises": 7433,
      "signals": 7434,
      "fridge": 7435,
      "jesse": 7436,
      "wilder": 7437,
      "increases": 7438,
      "massive": 7439,
      "massively": 7440,
      "twinges": 7441,
      "throbbing": 7442,
      "sticks": 7443,
      "sticker": 7444,
      "celebrations": 7445,
      "vigorous": 7446,
      "nicer": 7447,
      "expert": 7448,
      "coped": 7449,
      "pools": 7450,
      "penn": 7451,
      "sorrowful": 7452,
      "videos": 7453,
      "dearly": 7454,
      "behaviour": 7455,
      "grill": 7456,
      "michaels": 7457,
      "included": 7458,
      "accessaries": 7459,
      "sports": 7460,
      "remaining": 7461,
      "animate": 7462,
      "engaged": 7463,
      "gaining": 7464,
      "attractive": 7465,
      "combat": 7466,
      "stripped": 7467,
      "responses": 7468,
      "cheering": 7469,
      "improving": 7470,
      "internally": 7471,
      "suggestions": 7472,
      "gigantic": 7473,
      "investing": 7474,
      "immense": 7475,
      "aaa": 7476,
      "jersey": 7477,
      "posses": 7478,
      "officer": 7479,
      "uuuu": 7480,
      "notebook": 7481,
      "freaky": 7482,
      "lunge": 7483,
      "mira": 7484,
      "thyroid": 7485,
      "nausea": 7486,
      "flawed": 7487,
      "constructive": 7488,
      "constructions": 7489,
      "assump": 7490,
      "sprint": 7491,
      "sophist": 7492,
      "shadows": 7493,
      "linux": 7494,
      "twisted": 7495,
      "moisturizing": 7496,
      "graduate": 7497,
      "frozen": 7498,
      "mildly": 7499,
      "antique": 7500,
      "stares": 7501,
      "accomplishments": 7502,
      "brighter": 7503,
      "globe": 7504,
      "requires": 7505,
      "indulgent": 7506,
      "jokes": 7507,
      "sloppy": 7508,
      "vibrations": 7509,
      "troubles": 7510,
      "originals": 7511,
      "decorative": 7512,
      "decorations": 7513,
      "customer": 7514,
      "revenue": 7515,
      "associated": 7516,
      "association": 7517,
      "fragrance": 7518,
      "defending": 7519,
      "limitations": 7520,
      "emerge": 7521,
      "clarify": 7522,
      "brief": 7523,
      "tackle": 7524,
      "inspiring": 7525,
      "dignified": 7526,
      "copyright": 7527,
      "contributing": 7528,
      "spreading": 7529,
      "coughing": 7530,
      "minimal": 7531,
      "rrrrrr": 7532,
      "methods": 7533,
      "rugby": 7534,
      "dimensional": 7535,
      "precise": 7536,
      "uploading": 7537,
      "disorients": 7538,
      "unnatural": 7539,
      "description": 7540,
      "martin": 7541,
      "stealing": 7542,
      "slugging": 7543,
      "transcend": 7544,
      "joints": 7545,
      "blues": 7546,
      "scheduling": 7547,
      "thirteen": 7548,
      "chinas": 7549,
      "mudder": 7550,
      "newspapers": 7551,
      "phenomen": 7552,
      "visitors": 7553,
      "bourbon": 7554,
      "hannah": 7555,
      "jackson": 7556,
      "tangible": 7557,
      "vegetable": 7558,
      "jazzyboy": 7559,
      "xelliealic": 7560,
      "sustainability": 7561,
      "temporary": 7562,
      "hallucinate": 7563,
      "warriors": 7564,
      "canada": 7565,
      "relentlessly": 7566,
      "harmony": 7567,
      "transformers": 7568,
      "sufficiently": 7569,
      "eagleandham": 7570,
      "jayson": 7571,
      "jungle": 7572,
      "tastes": 7573,
      "zombie": 7574,
      "alcohol": 7575,
      "spaces": 7576,
      "tutorial": 7577,
      "trigger": 7578,
      "hypocr": 7579,
      "length": 7580,
      "japanese": 7581,
      "yarn": 7582,
      "rebekah": 7583,
      "reconci": 7584,
      "arrogance": 7585,
      "whitley": 7586,
      "perpetu": 7587,
      "grappling": 7588,
      "john": 7589,
      "clenches": 7590,
      "excessive": 7591,
      "jubilant": 7592,
      "frowned": 7593,
      "whimsical": 7594,
      "rejuvenated": 7595,
      "african": 7596,
      "honduras": 7597,
      "ipod": 7598,
      "jurer": 7599,
      "klaus": 7600,
      "laughter": 7601,
      "nashville": 7602,
      "randythomas": 7603,
      "sceptical": 7604,
      "twelve": 7605,
      "inferior": 7606,
      "enamoured": 7607,
      "starring": 7608,
      "someday": 7609,
      "unfurling": 7610,
      "shishido": 7611,
      "aggressive": 7612,
      "indonesia": 7613,
      "boisterous": 7614,
      "disadvantaged": 7615,
      "cubicle": 7616,
      "jewellery": 7617,
      "velocity": 7618,
      "businesses": 7619,
      "lacklustre": 7620,
      "benevolent": 7621,
      "xelliealicex": 7622,
      "eagleandhammer": 7623,
      "aversion": 7624,
      "bq": 7625,
      "bind": 7626,
      "bie": 7627,
      "busting": 7628,
      "cab": 7629,
      "cass": 7630,
      "cgi": 7631,
      "cater": 7632,
      "daddy": 7633,
      "eater": 7634,
      "eem": 7635,
      "eties": 7636,
      "fif": 7637,
      "fty": 7638,
      "foul": 7639,
      "gate": 7640,
      "gap": 7641,
      "gats": 7642,
      "grooms": 7643,
      "hen": 7644,
      "hir": 7645,
      "hive": 7646,
      "iing": 7647,
      "iat": 7648,
      "ived": 7649,
      "jar": 7650,
      "jones": 7651,
      "kac": 7652,
      "kish": 7653,
      "lt": 7654,
      "lers": 7655,
      "lug": 7656,
      "lash": 7657,
      "lined": 7658,
      "laze": 7659,
      "llion": 7660,
      "mour": 7661,
      "maid": 7662,
      "nan": 7663,
      "nou": 7664,
      "ners": 7665,
      "nuc": 7666,
      "nie": 7667,
      "nigh": 7668,
      "national": 7669,
      "named": 7670,
      "oqu": 7671,
      "oger": 7672,
      "ograph": 7673,
      "pel": 7674,
      "pid": 7675,
      "phe": 7676,
      "pater": 7677,
      "pier": 7678,
      "pills": 7679,
      "rd": 7680,
      "rit": 7681,
      "ray": 7682,
      "rhe": 7683,
      "rust": 7684,
      "raz": 7685,
      "runny": 7686,
      "sid": 7687,
      "sass": 7688,
      "sending": 7689,
      "scrap": 7690,
      "signed": 7691,
      "santa": 7692,
      "snaps": 7693,
      "tsa": 7694,
      "tgirl": 7695,
      "tax": 7696,
      "tuck": 7697,
      "tuned": 7698,
      "utions": 7699,
      "vener": 7700,
      "ype": 7701,
      "yash": 7702,
      "zill": 7703,
      "zumb": 7704,
      "thug": 7705,
      "thors": 7706,
      "thief": 7707,
      "ino": 7708,
      "inth": 7709,
      "inct": 7710,
      "incl": 7711,
      "input": 7712,
      "infid": 7713,
      "inanimate": 7714,
      "elt": 7715,
      "elle": 7716,
      "elity": 7717,
      "anton": 7718,
      "anthology": 7719,
      "feaut": 7720,
      "ferocious": 7721,
      "rer": 7722,
      "react": 7723,
      "reacted": 7724,
      "republic": 7725,
      "remarks": 7726,
      "retire": 7727,
      "theo": 7728,
      "theory": 7729,
      "attended": 7730,
      "attribute": 7731,
      "toy": 7732,
      "toys": 7733,
      "toric": 7734,
      "edoger": 7735,
      "erous": 7736,
      "onc": 7737,
      "enable": 7738,
      "eness": 7739,
      "encounter": 7740,
      "ensue": 7741,
      "stir": 7742,
      "itstarts": 7743,
      "alm": 7744,
      "alice": 7745,
      "almon": 7746,
      "alarm": 7747,
      "orange": 7748,
      "asset": 7749,
      "asma": 7750,
      "leech": 7751,
      "befriend": 7752,
      "beware": 7753,
      "argue": 7754,
      "veau": 7755,
      "vement": 7756,
      "sob": 7757,
      "soil": 7758,
      "soap": 7759,
      "lide": 7760,
      "whining": 7761,
      "whiny": 7762,
      "notions": 7763,
      "serend": 7764,
      "sembl": 7765,
      "imented": 7766,
      "imprint": 7767,
      "chan": 7768,
      "chine": 7769,
      "chendo": 7770,
      "amps": 7771,
      "tier": 7772,
      "tide": 7773,
      "ticons": 7774,
      "versus": 7775,
      "loween": 7776,
      "located": 7777,
      "abit": 7778,
      "abuse": 7779,
      "abide": 7780,
      "abbed": 7781,
      "esy": 7782,
      "outing": 7783,
      "outta": 7784,
      "utting": 7785,
      "utiny": 7786,
      "forms": 7787,
      "formal": 7788,
      "forgiven": 7789,
      "idol": 7790,
      "acne": 7791,
      "accur": 7792,
      "sucked": 7793,
      "hoard": 7794,
      "holes": 7795,
      "river": 7796,
      "ribay": 7797,
      "united": 7798,
      "hem": 7799,
      "heres": 7800,
      "doir": 7801,
      "docrat": 7802,
      "ssie": 7803,
      "gos": 7804,
      "goat": 7805,
      "uster": 7806,
      "notch": 7807,
      "casting": 7808,
      "cathy": 7809,
      "someway": 7810,
      "allah": 7811,
      "roots": 7812,
      "rotation": 7813,
      "ulsion": 7814,
      "def": 7815,
      "defiance": 7816,
      "conut": 7817,
      "conspir": 7818,
      "congreg": 7819,
      "upstairs": 7820,
      "shallow": 7821,
      "ague": 7822,
      "fron": 7823,
      "fract": 7824,
      "frame": 7825,
      "coa": 7826,
      "coworker": 7827,
      "cooped": 7828,
      "coconut": 7829,
      "cocoa": 7830,
      "traded": 7831,
      "anyways": 7832,
      "fuls": 7833,
      "commer": 7834,
      "comfy": 7835,
      "exchange": 7836,
      "exagger": 7837,
      "posh": 7838,
      "pertain": 7839,
      "overlapping": 7840,
      "azine": 7841,
      "evision": 7842,
      "strutting": 7843,
      "whooooo": 7844,
      "illic": 7845,
      "pline": 7846,
      "qui": 7847,
      "grain": 7848,
      "spit": 7849,
      "spare": 7850,
      "asts": 7851,
      "asted": 7852,
      "etape": 7853,
      "teasing": 7854,
      "disregard": 7855,
      "disinterested": 7856,
      "disorganised": 7857,
      "thereby": 7858,
      "muf": 7859,
      "mumb": 7860,
      "epic": 7861,
      "amaze": 7862,
      "deranged": 7863,
      "distress": 7864,
      "diverse": 7865,
      "vist": 7866,
      "vilion": 7867,
      "affir": 7868,
      "achieving": 7869,
      "earl": 7870,
      "intu": 7871,
      "intake": 7872,
      "cutive": 7873,
      "cushy": 7874,
      "hello": 7875,
      "angee": 7876,
      "authors": 7877,
      "aussie": 7878,
      "ersed": 7879,
      "ryan": 7880,
      "yourmarriage": 7881,
      "afterward": 7882,
      "jovi": 7883,
      "joined": 7884,
      "tingly": 7885,
      "teddy": 7886,
      "greet": 7887,
      "igated": 7888,
      "shopper": 7889,
      "sitcom": 7890,
      "crew": 7891,
      "morris": 7892,
      "moronic": 7893,
      "impact": 7894,
      "impati": 7895,
      "fame": 7896,
      "finals": 7897,
      "passer": 7898,
      "wons": 7899,
      "blin": 7900,
      "desig": 7901,
      "heartache": 7902,
      "heartburn": 7903,
      "rememberiing": 7904,
      "cantina": 7905,
      "offspring": 7906,
      "crises": 7907,
      "underway": 7908,
      "underage": 7909,
      "underground": 7910,
      "sms": 7911,
      "opens": 7912,
      "fren": 7913,
      "sweating": 7914,
      "ipity": 7915,
      "esteem": 7916,
      "russ": 7917,
      "torso": 7918,
      "childs": 7919,
      "paul": 7920,
      "pavement": 7921,
      "pavilion": 7922,
      "handrail": 7923,
      "beforeitstarts": 7924,
      "lasted": 7925,
      "rowed": 7926,
      "wallet": 7927,
      "deleted": 7928,
      "headspace": 7929,
      "emoticons": 7930,
      "careful": 7931,
      "refused": 7932,
      "refusing": 7933,
      "mindset": 7934,
      "sadistic": 7935,
      "sweety": 7936,
      "marry": 7937,
      "trud": 7938,
      "glory": 7939,
      "buo": 7940,
      "bump": 7941,
      "bulls": 7942,
      "drain": 7943,
      "draf": 7944,
      "trick": 7945,
      "trillion": 7946,
      "offered": 7947,
      "flag": 7948,
      "flannel": 7949,
      "pumped": 7950,
      "pussy": 7951,
      "steam": 7952,
      "steep": 7953,
      "completed": 7954,
      "broom": 7955,
      "turkey": 7956,
      "turkish": 7957,
      "clearer": 7958,
      "vention": 7959,
      "collide": 7960,
      "pleasing": 7961,
      "apads": 7962,
      "viewer": 7963,
      "enjoyable": 7964,
      "enjoyment": 7965,
      "realizes": 7966,
      "cheered": 7967,
      "chewing": 7968,
      "showed": 7969,
      "wrongly": 7970,
      "pointing": 7971,
      "slighted": 7972,
      "wholesale": 7973,
      "roommates": 7974,
      "kidn": 7975,
      "nyc": 7976,
      "ativity": 7977,
      "stalker": 7978,
      "subconscious": 7979,
      "greatly": 7980,
      "charged": 7981,
      "charlie": 7982,
      "burger": 7983,
      "musings": 7984,
      "interact": 7985,
      "internal": 7986,
      "interpret": 7987,
      "supporter": 7988,
      "eyed": 7989,
      "psalm": 7990,
      "wax": 7991,
      "wailing": 7992,
      "ddled": 7993,
      "annoyance": 7994,
      "longest": 7995,
      "pictured": 7996,
      "happenings": 7997,
      "crave": 7998,
      "crawl": 7999,
      "cynical": 8000,
      "planner": 8001,
      "doubly": 8002,
      "heals": 8003,
      "expectation": 8004,
      "visible": 8005,
      "skins": 8006,
      "btw": 8007,
      "movements": 8008,
      "misinformed": 8009,
      "nude": 8010,
      "ahhh": 8011,
      "offends": 8012,
      "offender": 8013,
      "embracing": 8014,
      "highlight": 8015,
      "july": 8016,
      "sunny": 8017,
      "sunrise": 8018,
      "photoshoots": 8019,
      "constipated": 8020,
      "runner": 8021,
      "spots": 8022,
      "wakes": 8023,
      "glee": 8024,
      "counc": 8025,
      "drives": 8026,
      "sticking": 8027,
      "explained": 8028,
      "breaks": 8029,
      "breakthrough": 8030,
      "bald": 8031,
      "ballet": 8032,
      "clude": 8033,
      "facil": 8034,
      "beaubron": 8035,
      "dropping": 8036,
      "halloween": 8037,
      "hunters": 8038,
      "societies": 8039,
      "learns": 8040,
      "hopelessly": 8041,
      "sciss": 8042,
      "dawn": 8043,
      "shorts": 8044,
      "learnings": 8045,
      "expressive": 8046,
      "protection": 8047,
      "sii": 8048,
      "siwons": 8049,
      "snake": 8050,
      "snug": 8051,
      "sniff": 8052,
      "suspic": 8053,
      "entering": 8054,
      "statements": 8055,
      "promises": 8056,
      "hyphen": 8057,
      "journ": 8058,
      "journeys": 8059,
      "grandparents": 8060,
      "grandmothers": 8061,
      "corpse": 8062,
      "numbers": 8063,
      "teenage": 8064,
      "speaks": 8065,
      "speaker": 8066,
      "luke": 8067,
      "lumin": 8068,
      "accusing": 8069,
      "dumbfounded": 8070,
      "challenging": 8071,
      "challenged": 8072,
      "exceptions": 8073,
      "portion": 8074,
      "presentations": 8075,
      "sensibly": 8076,
      "deaths": 8077,
      "writes": 8078,
      "negativity": 8079,
      "entertainment": 8080,
      "transfer": 8081,
      "complainy": 8082,
      "grams": 8083,
      "cliff": 8084,
      "denied": 8085,
      "tai": 8086,
      "empowered": 8087,
      "chained": 8088,
      "chaotic": 8089,
      "comedies": 8090,
      "publicity": 8091,
      "expense": 8092,
      "freedoms": 8093,
      "rainy": 8094,
      "instinct": 8095,
      "repeating": 8096,
      "signs": 8097,
      "treasure": 8098,
      "floated": 8099,
      "wildly": 8100,
      "kissing": 8101,
      "lauper": 8102,
      "overe": 8103,
      "victims": 8104,
      "enemy": 8105,
      "radiation": 8106,
      "psychologically": 8107,
      "destin": 8108,
      "virtual": 8109,
      "beyonc": 8110,
      "roads": 8111,
      "patted": 8112,
      "coping": 8113,
      "eeee": 8114,
      "penis": 8115,
      "quietly": 8116,
      "communion": 8117,
      "milligrams": 8118,
      "woody": 8119,
      "wooden": 8120,
      "kiyo": 8121,
      "beachy": 8122,
      "beaches": 8123,
      "circles": 8124,
      "recovery": 8125,
      "accessories": 8126,
      "remains": 8127,
      "animal": 8128,
      "critically": 8129,
      "gardens": 8130,
      "attraction": 8131,
      "bunion": 8132,
      "nurture": 8133,
      "scarf": 8134,
      "academia": 8135,
      "laws": 8136,
      "annie": 8137,
      "announce": 8138,
      "strive": 8139,
      "surrounding": 8140,
      "homeless": 8141,
      "graders": 8142,
      "panicky": 8143,
      "zero": 8144,
      "anguish": 8145,
      "refered": 8146,
      "impressive": 8147,
      "achievement": 8148,
      "cheerful": 8149,
      "literature": 8150,
      "crumble": 8151,
      "conditioned": 8152,
      "deceased": 8153,
      "readership": 8154,
      "confessions": 8155,
      "volu": 8156,
      "wasting": 8157,
      "periods": 8158,
      "kuwait": 8159,
      "kuribay": 8160,
      "magazine": 8161,
      "yelled": 8162,
      "recommended": 8163,
      "researching": 8164,
      "possession": 8165,
      "banking": 8166,
      "camilla": 8167,
      "lunapads": 8168,
      "slice": 8169,
      "workouts": 8170,
      "owls": 8171,
      "separation": 8172,
      "sections": 8173,
      "cookies": 8174,
      "intimate": 8175,
      "recording": 8176,
      "fashionable": 8177,
      "initially": 8178,
      "initiation": 8179,
      "alternate": 8180,
      "spray": 8181,
      "publish": 8182,
      "cornbread": 8183,
      "egf": 8184,
      "flex": 8185,
      "investment": 8186,
      "dreaded": 8187,
      "dreadful": 8188,
      "links": 8189,
      "habitual": 8190,
      "traditions": 8191,
      "blankets": 8192,
      "snoo": 8193,
      "science": 8194,
      "soothing": 8195,
      "butterfly": 8196,
      "comparatively": 8197,
      "accomplishment": 8198,
      "savory": 8199,
      "basement": 8200,
      "vibrant": 8201,
      "savingyourmarriage": 8202,
      "batting": 8203,
      "scrutiny": 8204,
      "preparation": 8205,
      "shells": 8206,
      "profit": 8207,
      "profile": 8208,
      "ignorant": 8209,
      "ignorance": 8210,
      "britain": 8211,
      "decorate": 8212,
      "floral": 8213,
      "volunteer": 8214,
      "omegle": 8215,
      "demonstr": 8216,
      "fragment": 8217,
      "satisfying": 8218,
      "brilli": 8219,
      "celtics": 8220,
      "candles": 8221,
      "immersed": 8222,
      "praising": 8223,
      "angeles": 8224,
      "circumstance": 8225,
      "randomly": 8226,
      "measuring": 8227,
      "pagetype": 8228,
      "electrified": 8229,
      "tomatoes": 8230,
      "outsider": 8231,
      "soup": 8232,
      "vampires": 8233,
      "toxins": 8234,
      "disoriented": 8235,
      "stretching": 8236,
      "glamour": 8237,
      "paintings": 8238,
      "participants": 8239,
      "descriptions": 8240,
      "render": 8241,
      "spanish": 8242,
      "spurs": 8243,
      "buddy": 8244,
      "subtly": 8245,
      "january": 8246,
      "marvelous": 8247,
      "browsers": 8248,
      "mastered": 8249,
      "sabrina": 8250,
      "alexander": 8251,
      "newspaper": 8252,
      "harshly": 8253,
      "palette": 8254,
      "tanning": 8255,
      "deeper": 8256,
      "criticizing": 8257,
      "signing": 8258,
      "television": 8259,
      "taboo": 8260,
      "tantrum": 8261,
      "repairing": 8262,
      "hookah": 8263,
      "multiple": 8264,
      "inevitably": 8265,
      "cinematic": 8266,
      "lorde": 8267,
      "lisas": 8268,
      "narrator": 8269,
      "pillar": 8270,
      "insatiably": 8271,
      "oncologist": 8272,
      "stationary": 8273,
      "immerse": 8274,
      "provocative": 8275,
      "wrinkles": 8276,
      "bleeding": 8277,
      "tremendous": 8278,
      "engineering": 8279,
      "sparkleapple": 8280,
      "boundaries": 8281,
      "swir": 8282,
      "spazzing": 8283,
      "guaranteed": 8284,
      "pajamas": 8285,
      "heavily": 8286,
      "reciprocated": 8287,
      "enthusiasts": 8288,
      "boudoir": 8289,
      "jensens": 8290,
      "multitude": 8291,
      "reputation": 8292,
      "ambition": 8293,
      "mobile": 8294,
      "preference": 8295,
      "plunging": 8296,
      "parallel": 8297,
      "clermont": 8298,
      "punctures": 8299,
      "rainbows": 8300,
      "dedicated": 8301,
      "predictably": 8302,
      "profoundly": 8303,
      "mimedoger": 8304,
      "orgasm": 8305,
      "notify": 8306,
      "sectret": 8307,
      "implement": 8308,
      "conceal": 8309,
      "bridezill": 8310,
      "established": 8311,
      "ministries": 8312,
      "humping": 8313,
      "brooks": 8314,
      "spoilers": 8315,
      "elementary": 8316,
      "deteriorated": 8317,
      "possesive": 8318,
      "uuuugh": 8319,
      "bqff": 8320,
      "kacang": 8321,
      "luggage": 8322,
      "mourn": 8323,
      "nouveau": 8324,
      "nuclear": 8325,
      "nighties": 8326,
      "paternal": 8327,
      "rhetoric": 8328,
      "razor": 8329,
      "zumba": 8330,
      "infidelity": 8331,
      "antonio": 8332,
      "retirement": 8333,
      "almond": 8334,
      "leeches": 8335,
      "befriending": 8336,
      "serendipity": 8337,
      "semblance": 8338,
      "imprinted": 8339,
      "chinese": 8340,
      "chendol": 8341,
      "fractured": 8342,
      "commercial": 8343,
      "affirmed": 8344,
      "impatience": 8345,
      "interpretations": 8346,
      "beaubronz": 8347,
      "kiyoshi": 8348,
      "kuribayashi": 8349,
      "savingyourmarriagebeforeitstarts": 8350,
      "brilliant": 8351,
      "bridezillas": 8352,
      "aes": 8353,
      "aac": 8354,
      "apr": 8355,
      "aval": 8356,
      "apathy": 8357,
      "aahhh": 8358,
      "bis": 8359,
      "bid": 8360,
      "bould": 8361,
      "baf": 8362,
      "bunn": 8363,
      "bage": 8364,
      "bhi": 8365,
      "bills": 8366,
      "bacuse": 8367,
      "cx": 8368,
      "cen": 8369,
      "dl": 8370,
      "dart": 8371,
      "dits": 8372,
      "dick": 8373,
      "dps": 8374,
      "dried": 8375,
      "ditle": 8376,
      "doused": 8377,
      "echo": 8378,
      "ebay": 8379,
      "fted": 8380,
      "faking": 8381,
      "farm": 8382,
      "gab": 8383,
      "gang": 8384,
      "gies": 8385,
      "gals": 8386,
      "gloss": 8387,
      "glistening": 8388,
      "gfuls": 8389,
      "hend": 8390,
      "huck": 8391,
      "iol": 8392,
      "ials": 8393,
      "ique": 8394,
      "jt": 8395,
      "jug": 8396,
      "khe": 8397,
      "knot": 8398,
      "kissed": 8399,
      "khat": 8400,
      "karen": 8401,
      "lan": 8402,
      "lent": 8403,
      "lake": 8404,
      "lloy": 8405,
      "luring": 8406,
      "lair": 8407,
      "mand": 8408,
      "mould": 8409,
      "mitt": 8410,
      "mace": 8411,
      "mise": 8412,
      "mash": 8413,
      "mouse": 8414,
      "munch": 8415,
      "mills": 8416,
      "nel": 8417,
      "nis": 8418,
      "nas": 8419,
      "ntoward": 8420,
      "nically": 8421,
      "ninet": 8422,
      "oste": 8423,
      "oven": 8424,
      "ptic": 8425,
      "rach": 8426,
      "rash": 8427,
      "rings": 8428,
      "sne": 8429,
      "sits": 8430,
      "scru": 8431,
      "tx": 8432,
      "twas": 8433,
      "tag": 8434,
      "tite": 8435,
      "tine": 8436,
      "tune": 8437,
      "uh": 8438,
      "uating": 8439,
      "vast": 8440,
      "vsen": 8441,
      "wings": 8442,
      "xvi": 8443,
      "xies": 8444,
      "yknow": 8445,
      "zhu": 8446,
      "zef": 8447,
      "zoom": 8448,
      "thwave": 8449,
      "inity": 8450,
      "inser": 8451,
      "inund": 8452,
      "inconsequ": 8453,
      "inches": 8454,
      "incapable": 8455,
      "insom": 8456,
      "inconsistent": 8457,
      "eli": 8458,
      "elph": 8459,
      "anche": 8460,
      "feb": 8461,
      "feder": 8462,
      "feared": 8463,
      "ingrid": 8464,
      "ingrate": 8465,
      "feeli": 8466,
      "reo": 8467,
      "rect": 8468,
      "repub": 8469,
      "remix": 8470,
      "returning": 8471,
      "restor": 8472,
      "revert": 8473,
      "revamp": 8474,
      "rehears": 8475,
      "thedr": 8476,
      "theater": 8477,
      "thebal": 8478,
      "theaded": 8479,
      "atle": 8480,
      "atro": 8481,
      "attered": 8482,
      "atics": 8483,
      "atomic": 8484,
      "edit": 8485,
      "onent": 8486,
      "envel": 8487,
      "enrich": 8488,
      "andover": 8489,
      "stit": 8490,
      "itll": 8491,
      "albe": 8492,
      "alll": 8493,
      "albin": 8494,
      "allocated": 8495,
      "oration": 8496,
      "orie": 8497,
      "isab": 8498,
      "asas": 8499,
      "lee": 8500,
      "leo": 8501,
      "lean": 8502,
      "leberry": 8503,
      "behaving": 8504,
      "befu": 8505,
      "beacuse": 8506,
      "arian": 8507,
      "veggie": 8508,
      "sored": 8509,
      "liz": 8510,
      "ligh": 8511,
      "lica": 8512,
      "lican": 8513,
      "lifel": 8514,
      "liest": 8515,
      "noises": 8516,
      "hai": 8517,
      "haul": 8518,
      "semi": 8519,
      "seven": 8520,
      "seoul": 8521,
      "impo": 8522,
      "imens": 8523,
      "chu": 8524,
      "ching": 8525,
      "chasing": 8526,
      "amous": 8527,
      "tistic": 8528,
      "verrrrrrr": 8529,
      "loons": 8530,
      "lotte": 8531,
      "abhor": 8532,
      "esque": 8533,
      "wie": 8534,
      "outfits": 8535,
      "utely": 8536,
      "forsa": 8537,
      "forces": 8538,
      "forgets": 8539,
      "idency": 8540,
      "acqu": 8541,
      "acies": 8542,
      "acutely": 8543,
      "omin": 8544,
      "omang": 8545,
      "supre": 8546,
      "sums": 8547,
      "adams": 8548,
      "adelph": 8549,
      "holic": 8550,
      "hoops": 8551,
      "ripp": 8552,
      "rihanna": 8553,
      "unsatisfied": 8554,
      "unheal": 8555,
      "ungracious": 8556,
      "uncommon": 8557,
      "unsettling": 8558,
      "unpaid": 8559,
      "undoub": 8560,
      "unfashionable": 8561,
      "hein": 8562,
      "hefty": 8563,
      "entitled": 8564,
      "modu": 8565,
      "geograph": 8566,
      "dood": 8567,
      "cathedr": 8568,
      "pest": 8569,
      "ropho": 8570,
      "rosl": 8571,
      "ropolit": 8572,
      "neth": 8573,
      "nest": 8574,
      "oneers": 8575,
      "ults": 8576,
      "veryy": 8577,
      "desol": 8578,
      "default": 8579,
      "deprec": 8580,
      "debate": 8581,
      "congest": 8582,
      "congrat": 8583,
      "contests": 8584,
      "prey": 8585,
      "prejud": 8586,
      "preclude": 8587,
      "ups": 8588,
      "upbeat": 8589,
      "shel": 8590,
      "shhh": 8591,
      "rediculous": 8592,
      "worries": 8593,
      "agen": 8594,
      "coo": 8595,
      "coke": 8596,
      "cogn": 8597,
      "coerce": 8598,
      "trapp": 8599,
      "anya": 8600,
      "fulfil": 8601,
      "compre": 8602,
      "combo": 8603,
      "expl": 8604,
      "exposed": 8605,
      "kingdom": 8606,
      "ura": 8607,
      "urt": 8608,
      "illustr": 8609,
      "gettin": 8610,
      "polar": 8611,
      "perse": 8612,
      "perils": 8613,
      "permission": 8614,
      "indis": 8615,
      "indie": 8616,
      "overslept": 8617,
      "overtones": 8618,
      "bites": 8619,
      "evidence": 8620,
      "wholly": 8621,
      "theyll": 8622,
      "willed": 8623,
      "grumb": 8624,
      "spen": 8625,
      "astically": 8626,
      "ets": 8627,
      "meditated": 8628,
      "everyones": 8629,
      "actise": 8630,
      "discomfort": 8631,
      "disliked": 8632,
      "dismissing": 8633,
      "dissolve": 8634,
      "asser": 8635,
      "assign": 8636,
      "mush": 8637,
      "pros": 8638,
      "proved": 8639,
      "derby": 8640,
      "divul": 8641,
      "dioce": 8642,
      "vial": 8643,
      "prison": 8644,
      "practise": 8645,
      "frig": 8646,
      "ideal": 8647,
      "guides": 8648,
      "startling": 8649,
      "ached": 8650,
      "foggy": 8651,
      "wrap": 8652,
      "cuss": 8653,
      "cudd": 8654,
      "rape": 8655,
      "auto": 8656,
      "authen": 8657,
      "autistic": 8658,
      "workplace": 8659,
      "workload": 8660,
      "inette": 8661,
      "ryder": 8662,
      "ryyyy": 8663,
      "resha": 8664,
      "resid": 8665,
      "resili": 8666,
      "rescue": 8667,
      "whelming": 8668,
      "relating": 8669,
      "relations": 8670,
      "aftermath": 8671,
      "shaun": 8672,
      "wheat": 8673,
      "files": 8674,
      "fierc": 8675,
      "surfacing": 8676,
      "surrender": 8677,
      "surmise": 8678,
      "tedly": 8679,
      "greeted": 8680,
      "shooting": 8681,
      "mans": 8682,
      "manay": 8683,
      "creme": 8684,
      "newsprint": 8685,
      "morsel": 8686,
      "morgan": 8687,
      "logging": 8688,
      "impulse": 8689,
      "faults": 8690,
      "mayhem": 8691,
      "fined": 8692,
      "finland": 8693,
      "todays": 8694,
      "claust": 8695,
      "clutch": 8696,
      "momma": 8697,
      "izon": 8698,
      "blending": 8699,
      "blades": 8700,
      "lotus": 8701,
      "homeschool": 8702,
      "cerity": 8703,
      "brd": 8704,
      "brad": 8705,
      "bruce": 8706,
      "brds": 8707,
      "crake": 8708,
      "craz": 8709,
      "cramps": 8710,
      "tenge": 8711,
      "jean": 8712,
      "jeff": 8713,
      "opath": 8714,
      "stuous": 8715,
      "stumble": 8716,
      "stuffed": 8717,
      "freind": 8718,
      "presidency": 8719,
      "senior": 8720,
      "duct": 8721,
      "dublin": 8722,
      "tub": 8723,
      "tude": 8724,
      "sincerity": 8725,
      "handss": 8726,
      "monog": 8727,
      "mines": 8728,
      "mince": 8729,
      "horses": 8730,
      "horrid": 8731,
      "generic": 8732,
      "generate": 8733,
      "giveaway": 8734,
      "tives": 8735,
      "restri": 8736,
      "walmart": 8737,
      "mich": 8738,
      "phies": 8739,
      "girly": 8740,
      "goddess": 8741,
      "emote": 8742,
      "wonderland": 8743,
      "couver": 8744,
      "marred": 8745,
      "glitter": 8746,
      "baba": 8747,
      "vow": 8748,
      "bug": 8749,
      "buff": 8750,
      "bubbling": 8751,
      "trivial": 8752,
      "flav": 8753,
      "flashes": 8754,
      "served": 8755,
      "stereo": 8756,
      "completing": 8757,
      "athf": 8758,
      "athle": 8759,
      "iber": 8760,
      "bedside": 8761,
      "matt": 8762,
      "considers": 8763,
      "neds": 8764,
      "apor": 8765,
      "twoyear": 8766,
      "skir": 8767,
      "solutions": 8768,
      "cheat": 8769,
      "symptom": 8770,
      "singular": 8771,
      "nervously": 8772,
      "mothering": 8773,
      "fuzzy": 8774,
      "umps": 8775,
      "stalk": 8776,
      "subjective": 8777,
      "subscri": 8778,
      "importantly": 8779,
      "frustrating": 8780,
      "calmer": 8781,
      "calorie": 8782,
      "intermitt": 8783,
      "runneth": 8784,
      "sickness": 8785,
      "sickening": 8786,
      "facts": 8787,
      "merit": 8788,
      "merry": 8789,
      "household": 8790,
      "fertile": 8791,
      "loner": 8792,
      "irritate": 8793,
      "legend": 8794,
      "legions": 8795,
      "committ": 8796,
      "commands": 8797,
      "melting": 8798,
      "melee": 8799,
      "meetings": 8800,
      "dists": 8801,
      "visable": 8802,
      "mathem": 8803,
      "paranoia": 8804,
      "crystal": 8805,
      "misunderstanding": 8806,
      "mishaps": 8807,
      "crime": 8808,
      "cricket": 8809,
      "trails": 8810,
      "viewers": 8811,
      "casm": 8812,
      "shyness": 8813,
      "violently": 8814,
      "licking": 8815,
      "nudists": 8816,
      "threaten": 8817,
      "lucy": 8818,
      "jude": 8819,
      "bernie": 8820,
      "follows": 8821,
      "definite": 8822,
      "opposed": 8823,
      "region": 8824,
      "register": 8825,
      "virus": 8826,
      "bloom": 8827,
      "blocked": 8828,
      "devour": 8829,
      "pundits": 8830,
      "seriousness": 8831,
      "gene": 8832,
      "genres": 8833,
      "archdioce": 8834,
      "weighting": 8835,
      "balloons": 8836,
      "clues": 8837,
      "landed": 8838,
      "sentences": 8839,
      "metropolit": 8840,
      "stats": 8841,
      "italian": 8842,
      "specimens": 8843,
      "offerings": 8844,
      "cleanse": 8845,
      "bengals": 8846,
      "extremem": 8847,
      "temptation": 8848,
      "sounding": 8849,
      "scabbed": 8850,
      "protest": 8851,
      "protests": 8852,
      "fathers": 8853,
      "repay": 8854,
      "replica": 8855,
      "wifes": 8856,
      "barbe": 8857,
      "barry": 8858,
      "concerning": 8859,
      "beginnings": 8860,
      "oulawak": 8861,
      "invite": 8862,
      "invited": 8863,
      "invaded": 8864,
      "trainable": 8865,
      "quicker": 8866,
      "grandchild": 8867,
      "corporate": 8868,
      "corinth": 8869,
      "insight": 8870,
      "insdie": 8871,
      "regrets": 8872,
      "midterm": 8873,
      "dirt": 8874,
      "gifted": 8875,
      "purpo": 8876,
      "appetite": 8877,
      "layers": 8878,
      "sugars": 8879,
      "flush": 8880,
      "milly": 8881,
      "advise": 8882,
      "strengthen": 8883,
      "paths": 8884,
      "spotlighted": 8885,
      "porated": 8886,
      "porcel": 8887,
      "jumps": 8888,
      "describes": 8889,
      "reese": 8890,
      "typed": 8891,
      "killer": 8892,
      "severely": 8893,
      "harbor": 8894,
      "hardest": 8895,
      "sarcasm": 8896,
      "translate": 8897,
      "transformed": 8898,
      "raped": 8899,
      "rapes": 8900,
      "yahoo": 8901,
      "mellows": 8902,
      "adequately": 8903,
      "clich": 8904,
      "click": 8905,
      "denying": 8906,
      "tail": 8907,
      "thood": 8908,
      "optimism": 8909,
      "cardio": 8910,
      "publicly": 8911,
      "instance": 8912,
      "instigated": 8913,
      "failures": 8914,
      "risen": 8915,
      "organise": 8916,
      "organisation": 8917,
      "governor": 8918,
      "necessarily": 8919,
      "technically": 8920,
      "assaults": 8921,
      "flood": 8922,
      "fancy": 8923,
      "racin": 8924,
      "apology": 8925,
      "sandals": 8926,
      "labor": 8927,
      "psychologist": 8928,
      "celebrated": 8929,
      "celebrating": 8930,
      "destined": 8931,
      "destiny": 8932,
      "crotch": 8933,
      "yeast": 8934,
      "ternally": 8935,
      "pairs": 8936,
      "dressing": 8937,
      "penc": 8938,
      "deadline": 8939,
      "programmed": 8940,
      "communities": 8941,
      "medication": 8942,
      "progressing": 8943,
      "frequent": 8944,
      "frequented": 8945,
      "woodland": 8946,
      "sweatshirt": 8947,
      "limbo": 8948,
      "limits": 8949,
      "brandy": 8950,
      "lecture": 8951,
      "majorly": 8952,
      "sales": 8953,
      "lipsticks": 8954,
      "bothersome": 8955,
      "bloody": 8956,
      "secretary": 8957,
      "gutted": 8958,
      "animated": 8959,
      "lunchroom": 8960,
      "buns": 8961,
      "nonetheless": 8962,
      "creaminess": 8963,
      "reported": 8964,
      "dynam": 8965,
      "incestuous": 8966,
      "planting": 8967,
      "planted": 8968,
      "oooooo": 8969,
      "holli": 8970,
      "hollow": 8971,
      "displayed": 8972,
      "manageable": 8973,
      "wounded": 8974,
      "affecting": 8975,
      "keenly": 8976,
      "shifted": 8977,
      "springhouse": 8978,
      "jerry": 8979,
      "provided": 8980,
      "loudly": 8981,
      "posies": 8982,
      "official": 8983,
      "screenshot": 8984,
      "banana": 8985,
      "lungfuls": 8986,
      "miracle": 8987,
      "sliding": 8988,
      "slippers": 8989,
      "sighs": 8990,
      "villian": 8991,
      "printing": 8992,
      "creatively": 8993,
      "separately": 8994,
      "separates": 8995,
      "hehehe": 8996,
      "hehehehehe": 8997,
      "intimately": 8998,
      "bully": 8999,
      "pesky": 9000,
      "pretending": 9001,
      "assistant": 9002,
      "kicking": 9003,
      "contribution": 9004,
      "employers": 9005,
      "draws": 9006,
      "miller": 9007,
      "pastor": 9008,
      "wispy": 9009,
      "cherish": 9010,
      "abandonment": 9011,
      "schedules": 9012,
      "graduated": 9013,
      "gasp": 9014,
      "required": 9015,
      "therapist": 9016,
      "baseball": 9017,
      "vibrates": 9018,
      "savings": 9019,
      "economy": 9020,
      "pixies": 9021,
      "pioneers": 9022,
      "scrunch": 9023,
      "vancouver": 9024,
      "crampy": 9025,
      "resonating": 9026,
      "dumps": 9027,
      "humble": 9028,
      "improvement": 9029,
      "battles": 9030,
      "unfolds": 9031,
      "consumed": 9032,
      "clara": 9033,
      "clarity": 9034,
      "firmly": 9035,
      "laptop": 9036,
      "mama": 9037,
      "nagging": 9038,
      "chatter": 9039,
      "chalking": 9040,
      "peeps": 9041,
      "deedee": 9042,
      "permanent": 9043,
      "deliver": 9044,
      "marybeth": 9045,
      "breastfeed": 9046,
      "compliments": 9047,
      "atheist": 9048,
      "cultures": 9049,
      "fruit": 9050,
      "resisting": 9051,
      "colours": 9052,
      "empathy": 9053,
      "distribution": 9054,
      "bonding": 9055,
      "cellular": 9056,
      "rabbit": 9057,
      "wanderlust": 9058,
      "adulthood": 9059,
      "philips": 9060,
      "dragged": 9061,
      "packs": 9062,
      "vampire": 9063,
      "endorph": 9064,
      "strategic": 9065,
      "bridal": 9066,
      "incidents": 9067,
      "conveniently": 9068,
      "buckets": 9069,
      "pinging": 9070,
      "texted": 9071,
      "liberated": 9072,
      "dopey": 9073,
      "integrity": 9074,
      "hips": 9075,
      "vineman": 9076,
      "vinegar": 9077,
      "stinking": 9078,
      "costumes": 9079,
      "spelled": 9080,
      "surgeons": 9081,
      "admiring": 9082,
      "professors": 9083,
      "european": 9084,
      "dustbin": 9085,
      "knees": 9086,
      "louis": 9087,
      "snapback": 9088,
      "snapbacks": 9089,
      "prettier": 9090,
      "exhibitions": 9091,
      "crunched": 9092,
      "rushing": 9093,
      "hypersexual": 9094,
      "tango": 9095,
      "vegetarian": 9096,
      "dissassociated": 9097,
      "handsomefamily": 9098,
      "tactics": 9099,
      "losses": 9100,
      "hogmanay": 9101,
      "contemplating": 9102,
      "reliable": 9103,
      "synthwave": 9104,
      "incorporated": 9105,
      "rollercoaster": 9106,
      "introduced": 9107,
      "introduction": 9108,
      "inevitable": 9109,
      "ehb": 9110,
      "waters": 9111,
      "remote": 9112,
      "remotely": 9113,
      "reveling": 9114,
      "sooooooooooo": 9115,
      "advertising": 9116,
      "destruction": 9117,
      "destructive": 9118,
      "conducting": 9119,
      "platform": 9120,
      "discovery": 9121,
      "releases": 9122,
      "manipulated": 9123,
      "injured": 9124,
      "reckon": 9125,
      "remarkably": 9126,
      "accentuating": 9127,
      "pearly": 9128,
      "inducing": 9129,
      "disconnects": 9130,
      "embarassed": 9131,
      "drowning": 9132,
      "mammoth": 9133,
      "manifesting": 9134,
      "hilariously": 9135,
      "refreshing": 9136,
      "mysterious": 9137,
      "exposing": 9138,
      "discipline": 9139,
      "figuring": 9140,
      "obsessively": 9141,
      "virginia": 9142,
      "insanity": 9143,
      "possessive": 9144,
      "categorie": 9145,
      "executing": 9146,
      "tartlets": 9147,
      "shubhi": 9148,
      "colored": 9149,
      "explanation": 9150,
      "historical": 9151,
      "joeys": 9152,
      "clammy": 9153,
      "crisis": 9154,
      "philadelph": 9155,
      "offense": 9156,
      "embedding": 9157,
      "transcendent": 9158,
      "gatsby": 9159,
      "hirsi": 9160,
      "theologically": 9161,
      "stirred": 9162,
      "conspiracy": 9163,
      "illicit": 9164,
      "quiver": 9165,
      "spitball": 9166,
      "amazement": 9167,
      "morrissey": 9168,
      "passerby": 9169,
      "designer": 9170,
      "french": 9171,
      "russia": 9172,
      "buoyed": 9173,
      "kidnapped": 9174,
      "facilitating": 9175,
[...]
